#version: 0.2
â Ĺ
â ĸ
âĹ ł
Ġ âĹ
âĸ ¦
âĹ ĵ
âĸ ±
âĹ İ
âĸ ´
âĹ ª
âĹ Ĺ
âĹ «
âĸ ¨
âĹ Ī
âĸ µ
âĸ «
âĹ ¬
âĸ ª
âĹ ŀ
âĸ ½
âĸ ¾
ĠâĹ Ģ
âĹ ¨
âĸ ¢
âĹł âĹĵ
âĹ ³
âĹł âĸ¦
âĹ Ĵ
Ġ âĸ
âĹ Ĳ
âĹ §
âĹ Ĥ
ĠâĹ Ī
Ġ âĸ¨
âĹİ âĹł
âĸ ¼
ĠâĹ ķ
âĹ Ń
ĠâĹ ŀ
âĸ ł
âĸ ©
âĹ ī
âĸ´ âĸ¦
âĹİ âĸµ
âĹ Ģ
âĹª âĸ¦
âĸ´ âĹĵ
âĹĹ âĸ¦
âĹ« âĸ¦
ĠâĹ İ
âĹª âĹĵ
âĸ± âĹł
âĹ Ŀ
âĸ »
âĹł âĸ¨
âĹ« âĹĵ
âĹł âĸ±
âĹĹ âĹĵ
âĹ§ âĹĵ
âĹĤ âĹĵ
âĸ± âĹłâĹĵ
âĹĪ âĹł
âĹ¬ âĸ¦
âĸª âĸ¦
âĸ ·
Ġâĸ ·
âĸ º
ĠâĹ ļ
âĹ ļ
Ġ âĹł
ĠâĹ ³
ĠâĹ §
Ġ âĸ½
âĹ¨ âĸ¦
ĠâĹ Ĺ
ĠâĹ «
âĹĹ âĸ±
âĹ« âĸ±
ĠâĹ Ĥ
Ġ âĸ«
âĸ¾ âĸ¦
ĠâĹ ī
âĹ ķ
âĹª âĸ¨
âĸ´ âĸ¨
âĸµ âĸµ
ĠâĹ Ĵ
âĹŀ âĸ«
âĹł âĸ«
âĹł âĸ»
âĸ± âĹĪ
âĹĵ âĹł
ĠâĹĢ âĹ«âĹĵ
ĠâĹĢ âĹĹâĹĵ
âĹ ĩ
âĹ £
âĹ į
âĹ« âĹİ
âĹĹ âĹİ
âĸ ®
âĸ± âĸ´
âĸ± âĹª
Ġ âĸ¦
âĸ ¶
âĹł âĹİâĹł
âĹĪ âĹĹ
Ġâĸ¨ âĹł
âĹĪ âĹ«
âĹŃ âĸ¦
âĸ½ âĹ§âĹĵ
âĹł âĹİ
âĸ´ âĸ«
ĠâĹ ª
âĹ« âĸ¢
âĹĹ âĸ¢
âĸ´ âĸ±
âĹ³ âĹĤâĹĵ
âĹł âĹĴ
ĠâĹİ âĹ¬
âĹł âĸ·
âĹĪ âĹª
âĹł âĹŀ
âĸ½ âĹĤâĹĵ
âĹł âĹĢ
âĹ³ âĹ§âĹĵ
âĹĪ âĸ´
âĹ¬ âĹĵ
ĠâĹĪ âĹª
âĸª âĹĵ
âĹĴ âĸ«
âĹİ âĹª
ĠâĹ Ŀ
âĸ Ń
âĹł âĹĲ
âĸª âĹİ
ĠâĹĪ âĸ´
âĹłâĹİâĹł âĹİ
âĹ¬ âĹİ
âĹł âĹ³
âĸ© âĸ¦
ĠâĹİâĹ¬ ?
âĹł âĸ½
âĹ ¢
âĸ± âĹªâĹĵ
âĹĪ âĹłâĸ¦
âĸ± âĸ´âĹĵ
âĹł âĸ¢
âĹİ âĸ´
âĹł âĸ¼
âĸ¶ âĹłâĹİâĹłâĹİ
âĹĤ âĸ¦
âĹ§ âĸ¦
âĸª âĸ¢
âĹłâĸ¦ âĹł
âĹ¬ âĸ¢
âĹª âĸ«
Ġâĸ »
ĠâĹļ âĹłâĹĵ
âĸ± âĹłâĸ¦
âĸ± âĹİâĹł
âĸ¼ âĹª
âĸµâĸµ âĸµ
ĠâĹĢ âĹ¨
Ġ âĸ¢
ĠâĹĢ âĸ¾
âĸ ¯
âĹĤ âĸ¨
âĸª âĸ¨
âĸ¼ âĸ´
âĹ§ âĸ¨
âĹª âĸ±
âĹ¬ âĸ¨
âĹŀ âĹ¨âĸ¦
âĹ¨ âĹİâĸµ
âĹİ âĹĹ
Ġ âĹłâĹĵ
âĸ¾ âĹĵ
âĹ¨ âĹĵ
âĹĪ âĹ¬
âĹĪ âĸª
ĠâĹ £
âĸ¾ âĹİâĸµ
âĹŀ âĹ«âĸ¦
ĠâĹĪ âĹł
âĹŀ âĹĹâĸ¦
âĸ± âĹ«
âĹĪ âĸ´âĸ¦
ĠâĹ ĩ
Ġ âĸ´
âĹĪ âĹªâĸ¦
âĹĹ âĸ¨
âĹ Ļ
ĠâĹ į
âĹŀ âĸ¾âĸ¦
Ġ âĹłâĸ±
âĹ ¦
ĠâĹĹ âĹī
ĠâĹ« âĹī
âĹ ĭ
âĹİ âĹ«
Ġ âĹłâĸ¦
âĸ¾ âĹİ
ĠâĹ³ âĹłâĸ»
âĹ Ĩ
ĠâĹķ âĹ£
Ġâĸ ®
âĸ± âĸª
âĹŃ âĹĵ
âĸ© âĹĵ
âĸ± âĹ¬
ĠâĹķ âĹĩ
âĹ¨ âĹİ
âĸ¨ âĹł
Ġâĸ¨âĹł âĹĪ
Ġâĸ½ âĹłâĸ»
ĠâĹļ âĹª
âĹİâĹł âĸ¨
ĠâĹļ âĸ´
ĠâĹĴ âĹª
ĠâĹĪâĹª âĹĲ
âĹłâĸ· âĹł
âĸª âĹĴ
ĠâĹķ âĹ«
ĠâĹĴ âĸ´
âĹ¬ âĹĴ
ĠâĹķ âĹĹ
ĠâĹĪâĸ´ âĹĲ
ĠâĹİ âĹ«
âĸ± âĹĹ
ĠâĹĢ âĹłâĹĴ
ĠâĹİ âĹĹ
âĹłâĹİ âĹłâĸ¦
Ġâĸ¦ âĹª
ĠâĹĢ âĹ«âĸ±
âĸ¾ âĸ¢
âĸ ¿
ĠâĹĹ âĹŀâĸ«
âĹ ±
ĠâĹ« âĹŀâĸ«
âĹŀ âĹł
ĠâĹĢ âĹĹâĸ±
ĠâĹĢ âĹªâĸ¦
âĹŀ âĹ¬âĸ¦
Ġâĸ¦ âĸ´
âĹĿ âĸ¾
Ġâĸ Ń
âĹĿ âĹ¨
Ġâĸ¨âĹłâĹĪ âĹłâĹĵ
ĠâĹł âĹİâĹł
âĹŀ âĸªâĸ¦
âĹ³ âĹł
ĠâĹĢ âĸ´âĸ¦
âĹĵâĹł âĹĪâĹł
âĹ ħ
âĸ« âĹ«
âĸ¾ âĹĲ
âĸ¢ âĹķ
âĸ½ âĹł
ĠâĹĪ âĹłâĸ·âĹł
ĠâĹ ¢
Ġâĸ¨ âĹłâĹĵ
âĹŃâĸ¦ âĹŃ
âĸ±âĹĪ âĹ¨
ĠâĹ§ âĸ±
Ġâĸ¢ âĹłâĹİâĹłâĸ¦
âĹŀ âĹłâĸ¦
âĹª âĹİ
ĠâĹİ âĸª
âĹĹ âĹİâĸµ
âĹ¨ âĸ¢
âĸ±âĹł âĸ¼
âĸ´ âĹİ
ĠâĹķ âĹª
ĠâĹķ âĸ´
ĠâĹķâĹ£ âĹĵ
ĠâĹŀ âĹł
âĸ© âĸ¢
âĹŃ âĸ¢
Ġâĸ¨ âĹłâĸ±
âĹ¬ âĹİâĸµ
âĹª âĹŀ
âĸ« âĹł
ĠâĹ ĵ
ĠâĹķâĹĩ âĹĵ
âĸª âĹİâĸµ
âĹ Ħ
âĸ« âĹĹ
âĹİ âĹłâĸ¦
âĸ´ âĹŀ
âĹ ¥
âĹ °
ĠâĹŀ âĸ´âĸ¦
Ġâĸ ¼
âĸ ¡
ĠâĹŀ âĹªâĸ¦
ĠâĹŀ âĹĩ
ĠâĹŀ âĹ£
âĹ« âĹİâĸµ
âĹ ĸ
âĹ ĺ
âĹ¬ âĸ±
Ġâĸ ¶
ĠâĹķ âĸ´âĹĵ
ĠâĹļâĹłâĹĵ âĸµ
ĠâĹ Ļ
ĠâĹ§ âĸ¦
ĠâĹĤ âĸ¦
âĹĢ âĹ«âĸ±
âĹĲ âĹĵ
âĸª âĸ±
âĹ« âĸ¨
ĠâĹĢ âĹłâĸ¨
âĹĲ âĹĹâĸ¦
ĠâĹķ âĹªâĹĵ
âĹĲ âĹ«âĸ¦
âĹ ¤
ĠâĹī âĹłâĸ±
âĹ Ł
âĹİ âĸ´âĸ¨
âĹĢ âĹĹâĸ±
ĠâĹ ¨
ĠâĹĤ âĸ±
âĹ Ĭ
âĹłâĸ¼ âĹłâĸ¨
âĹİ âĹªâĸ¨
âĸ© âĹĴ
âĸ±âĹł âĹİâĹł
âĹłâĸ¼ âĹłâĹĲ
âĸ¢âĹķ âĹŃâĸ¦âĹŃ
âĹ ²
ĠâĹ Ħ
âĸ¾ âĸ¨
âĸ¢âĹķâĹŃâĸ¦âĹŃ âĹİâĸµ
ĠâĹ§ âĸ±âĹİâĹł
âĹŃ âĹĴ
âĹ¬âĸ¦ âĹĪâĹł
âĹ¥ âĸ¢âĹķâĹŃâĸ¦âĹŃâĹİâĸµ
âĸ½ âĸ±âĸ´
âĸªâĸ¦ âĹĪâĹł
âĸ½ âĸ±âĹª
ĠâĹª âĸ«
âĹ³ âĸ±âĹª
ĠâĹĤ âĸ±âĹİâĹł
âĹŀ âĸ´
Ġ âĸ´âĸ«
âĸ¯ âĹª
âĹ³ âĸ±âĸ´
âĸ« âĸª
ĠâĹ Ĩ
Ġâĸ ¯
âĹĪâĹł âĹİ
âĹ³ âĸ´
âĹŀ âĹª
âĸ¼ âĹł
âĸ½ âĹª
âĸ¨ âĹĹ
âĹł âĹį
âĹ³ âĹª
âĹŀâĹ¨âĸ¦ ?
ĠâĹī âĹĤâĸ¨
âĸ±âĹĪ âĸ¾âĹĲ
âĸ¾ âĹĴ
ĠâĹī âĹ§âĸ¨
âĸ« âĹłâĸ¦
âĸ« âĹ¬
âĸ½ âĸ´
âĹłâĹĵ âĹĪ
âĸ±âĹĪâĹ¨ âĹĲ
âĹ¨ âĹĴ
ĠâĹ«âĹī âĹĹâĸ¦
ĠâĹĹâĹī âĹĹâĸ¦
âĹĤ âĸ±
âĸ±âĹłâĹĵ âĸª
âĸ±âĹłâĹĵ âĹ¬
âĸ¨ âĹ«
âĹĿ âĸ´âĸ¦
âĹ ĳ
âĹ§ âĸ±
âĹŃ âĸ¨
âĹĢ âĹĹ
ĠâĹĹâĹī âĹ«âĸ¦
âĸ±âĹłâĹĵ âĸµ
ĠâĹİ âĹ¨
âĹĿ âĹªâĸ¦
ĠâĹİ âĸ¾
âĹĢ âĹ«
ĠâĹ«âĹī âĹ«âĸ¦
âĹĿ âĹ«âĹĵ
âĹĹ âĹī
ĠâĹ ĭ
âĹł âĹļ
âĸ© âĸ¨
âĹª âĹļ
âĹ« âĹī
âĸ±âĹłâĹĵ âĹ¬âĸ¦
âĹŀ âĹ«
âĸ© âĹİ
âĸ½ âĹ«
âĹłâĸ± âĹłâĹĵ
ĠâĹłâĸ¦ âĸ±âĹł
âĹ¨ âĸ¨
âĹŀâĸ¾âĸ¦ ?
âĹŀ âĹĹ
âĸ±âĹłâĹĵ âĸªâĸ¦
ĠâĹļ âĸ´âĹĵ
ĠâĹ ¦
ĠâĹļ âĹªâĹĵ
ĠâĹĢ âĹłâĸ¦âĹł
âĹ³ âĹĹ
Ġâĸ» âĹłâĹĵ
âĸ´ âĹļ
ĠâĹŀ âĹłâĸ¦
âĹŃ âĹİ
âĸ¼ âĸ´âĸ¨
âĹ³ âĹ«
âĸ¼ âĹªâĸ¨
âĸ½ âĹĹ
Ġâĸ« âĹłâĸ¦
âĸ ²
âĸ±âĹłâĸ¼ âĹłâĸ¨
âĹĿ âĹĹâĹĵ
âĸ¾âĸ¦ âĸ¾
ĠâĹĪâĹªâĹĲ âĹ«âĸ±
âĸ¾âĸ¦ âĹ¨
' âĸ¦
Ġâĸ ¬
Ġâĸ¦ âĹłâĹŀ
âĹĹ âĸ«
âĹĲ âĹ«âĹİ
Ġâĸ¨ âĹ§âĸ¦
âĹĲ âĹĹâĹİ
âĹ¨âĸ¦ âĹ¨
ĠâĹķ âĸ´âĸ±
âĸ¯ âĸ´
âĹ¨âĸ¦ âĸ¾
Ġâĸ º
âĹ« âĸ«
Ġâĸ¨ âĹĤâĸ¦
ĠâĹł âĹĪâĹłâĹİ
Ġâĸ ¡
âĸ´ âĹĴ
ĠâĹİâĸª ?
âĹŀ âĹ¬
âĸ® âĹªâĸ¦
âĹŀ âĸª
âĹİ âĹ¬
âĸ® âĸ´âĸ¦
âĹĪ âĹłâĸ¨
âĹĹ âĹĴ
ĠâĹĪâĸ´âĹĲ âĹĹâĸ±
ĠâĹĴâĹª âĸ½
âĸ½âĹ§âĹĵ âĹ¨âĹİâĸµ
âĹ¨ âĸ±
ĠâĹĪâĹªâĹĲ âĹĹâĸ±
ĠâĹĪâĸ´âĹĲ âĹ«âĸ±
Ã ¢
âĹª âĹĴ
âĸ¾ âĸ±
ĠâĹĴâĸ´ âĸ½
ĠâĹķ âĹªâĸ±
ĠâĹĴâĹª âĹ³
âĸ¦ âĹŀâĹłâĸ¦
âĸ ¸
âĹłâĹĵ âĸ¨
âĹĪâĹ¬ âĸµ
ĠâĹĪ âĹĤ
âĹł âĸ±âĹł
ĠâĹĴâĸ´ âĹ³
âĹİ âĸª
âĹ« âĹĴ
ĠâĹİâĹ« ?
âĹĪ âĹĹâĸ¦
ĠâĹ£ âĸ¦
ĠâĹĹ âĹĴ
ĠâĹŀ âĹ§âĸ¦
ĠâĹ Ń
âĹĪ âĸ´âĹĵ
âĹĪâĸª âĸµ
ĠâĹł âĹī
âĹĪâĹĹ âĸµ
ĠâĹĪ âĹ§
âĹĪâĹ« âĸµ
âĹĲ âĸªâĸ¦
ĠâĹİâĹĹ ?
ĠâĹ« âĹĴ
âĹĲ âĹ¬âĸ¦
ĠâĹĪ âĸ©âĹĴ
âĸ ¬
âĹ« âĹ³âĹĤâĹĵ
ĠâĹŀ âĹĤâĸ¦
ĠâĹĪ âĹŃâĹĴ
ĠâĹĩ âĸ¦
âĹĵ âĸ«
âĸ¿ âĸ¦
Ġâĸ· âĹłâĸ¨
âĹĪ âĹ¨
Ġâĸ ©
ĠâĹī âĸªâĸ¨
âĹĪ âĹ«âĸ¦
âĹŀâĹ¨âĸ¦ âĸµ
âĹ« âĸ½âĹĤâĹĵ
ĠâĹī âĹ¬âĸ¨
âĹļ âĸ´âĸ«
âĹĹ âĹ³âĹĤâĹĵ
âĹ« âĸµ
âĸ± âĹķ
âĹİ âĹ¬âĹĴ
Ġâĸ· âĸ´âĹĵ
âĸ¾ âĸµ
âĹ³âĹ§âĹĵ âĸµ
âĹ± âĸ¦
âĹİ âĸªâĹĴ
Ġâĸ· âĹªâĹĵ
âĹĹ âĸµ
âĹĹâĹĵ âĸµ
âĸ±âĹł âĹ³
âĸ½âĹ§âĹĵ âĸµ
âĸ±âĹł âĸ½
âĹ«âĹĵ âĸµ
âĸ±âĹł âĹĴ
âĹļ âĹªâĸ«
ĠâĹ ¡
âĹĿ âĹĹâĸ±
âĹĪ âĹªâĹĵ
âĹİâĹ« âĹĴ
âĹĹ âĸ½âĹĤâĹĵ
âĸ© âĸ«
âĹ¨ âĸ«
âĹĢ âĹĹâĹĵ
âĹ« âĹŀ
âĹĹ âĹŀ
âĸ±âĹłâĹĵ âĹłâĸ¨
âĸ¾ âĸ«
âĹĪâĹł âĹĴ
ĠâĹł âĸ«
âĹİâĹĹ âĹĴ
Ġâĸ ²
âĸ¢ âĸµ
âĹ«âĸ¢ âĸµ
âĹĤ âĸ¼
âĸ« âĸ´
âĸ« âĹª
âĸ± âĹŃ
Ġâĸ¨âĹł âĹī
âĸ± âĹĹâĸ¨
âĹłâĹĢ âĹ«âĸ±
âĹĩ âĸ¦
Ġâĸ ¤
âĹ£ âĸ¦
âĸ±âĹłâĹĵ âĹł
ĠâĹŀ âĹłâĸ¦âĹł
âĸ±âĹ« âĸ¨
âĹĢ âĹ«âĹĵ
âĹ¬âĸ¦ âĹł
âĹĪ âĹ¬âĹĵ
âĸ¨âĹł âĹĪâĹłâĹĴ
âĸªâĸ¦ âĹł
ĠâĹł âĸ½
âĹ§ âĸ¼
âĹĵ âĹłâĸ¦
âĸ¦ âĹłâĸ¦
Ġ "
âĹĪ âĸªâĹĵ
âĹłâĹĢ âĹĹâĸ±
Ġâĸ¨ âĹłâĸ»
ĠâĹķâĹª âĹī
Ġ âĸ¾
Ġâĸ« âĹłâĹĵ
âĹłâĸ¢ âĸ±âĹł
âĹłâĸ± âĹłâĸ¦
âĹĹ âĹ³âĹ§âĹĵ
âĸ ¤
âĹ« âĹ³âĹ§âĹĵ
ĠâĹł âĹ³
âĹ¬âĸ¢ âĸµ
âĸ ¥
ĠâĹķâĸ´ âĹī
âĹ¬ âĸ½âĹ§âĹĵ
Ġâĸ· âĹĹâĹī
âĹĹâĸ¢ âĸµ
âĹĪ âĸªâĸ¦
âĹ Į
âĹ« âĸ½âĹ§âĹĵ
âĹĪ âĹ¬âĸ¦
âĹŀâĹ«âĸ¦ âĸµ
Ġâĸ· âĹ«âĹī
âĹĪ âĹŃ
Ġâĸ· âĹłâĸ«
Ġâĸ· âĹłâĹ³
âĸªâĸ¢ âĸµ
âĸ± âĸ¨
Ġ âĹłâĸ¨
Ġâĸ· âĹłâĸ½
ĠâĹį âĹłâĸ¢âĸ±âĹł
âĸ±âĹłâĸ¼ âĹłâĹĲ
âĸ« âĹªâĸ¦
âĹĲ âĹĹ
âĹŀâĹĹâĸ¦ âĸµ
âĸ´ âĸ½
âĸ´ âĸ»
âĸ´ âĹ³
ĠâĹ ĺ
âĹĪ âĸ©
âĹª âĸ»
âĸŃ âĹłâĹ³
âĹī âĹªâĸ¨
âĸ± âĸ´âĸ¦
âĹª âĹ³
Ġâĸ¨ âĹ«
âĹª âĸ½
ĠâĹķâĹ« âĸ«
âĸ± âĹªâĸ¦
ĠâĹ§ âĸ±âĹĪâĸ¾âĹĲ
Ġâĸ¨ âĹ§
âĹłâĹĢ âĹł
Ġâĸ¨ âĹĹ
ĠâĹ Į
Ġâĸ¨ âĹĤ
ĠâĹķâĹĹ âĸ«
Ġâĸ· âĹłâĹĵ
âĸ±âĹł âĹĢâĹ«âĸ±
ĠâĹĤ âĸ±âĹĪâĸ¾âĹĲ
âĹĲ âĹ«
âĹī âĸ´âĸ¨
âĹĪâĹ« âĹİâĸµ
ĠâĹ ±
âĹĪâĹ¬ âĹİâĸµ
âĹłâĹĵ âĹ¬
ĠâĹĤ âĸ±âĹĪâĹ¨âĹĲ
âĹĹ âĸ»
ĠâĹ ħ
âĹĲ âĸ´âĹĵ
âĸ± âĸ©
ĠâĹ§ âĸ±âĹĪâĹ¨âĹĲ
âĹĹ âĸ½âĹ§âĹĵ
âĹłâĹĵ âĸª
âĸŃ âĹłâĸ½
âĹĪâĹĹ âĹİâĸµ
ĠâĹłâĹĵ âĸ¨âĹłâĹĪâĹłâĹĴ
ĠâĹł âĹŀ
âĸ® âĹł
âĸ« âĸ´âĸ¦
âĸ½âĹĤâĹĵ âĸµ
ĠâĹĢ âĹ«âĸ¢
âĹł âĹŀâĸ«
ĠâĹª âĸ¦
âĹŀâĸ¾âĸ¦ âĸµ
ĠâĹĢ âĹĹâĸ¢
âĹ¦ âĹİâĹł
âĹĲ âĹªâĹĵ
âĹ³âĹĤâĹĵ âĸµ
ĠâĹ °
Ġ 1
âĹ ©
âĸ¼ âĸª
Ġâĸ¨âĹłâĹĵ âĹĴ
Ġâĸ« âĹłâĸ¨
âĹ« âĸ»
âĹİâĹł âĹ³
ĠâĹª âĹļ
ĠâĹ ¤
Ġ âĸ´âĸ¦
âĹłâĹŀ âĸª
Ġâĸ½ âĹłâĹĴ
Ġâĸ·âĹłâĸ¨ âĸ¨
âĸ±âĹł âĹĢâĹĹâĸ±
Ġâĸ· âĹłâĸ±
Ġâĸ« âĹªâĸ¨
âĹĭ âĹİâĹł
ĠâĹŀ âĹªâĹļ
âĹİâĹł âĹİ
âĸ¼ âĹ¬
ĠâĹŀ âĹĤâĹĵ
âĹĿ âĹłâĸ¦âĹł
âĹŀâĹ¬âĸ¦ âĸµ
Ġâĸ ¿
Ġâĸ« âĸ´âĸ¨
ĠâĹ Ł
âĹĲ âĸªâĹİ
Ġâĸ¨ âĸ´âĸ¦
ĠâĹķ âĸ©âĸ¦
ĠâĹŀ âĹ§âĹĵ
ĠâĹ³ âĹłâĹĴ
âĹłâĸ¦ âĹŀ
âĹ³âĹĤâĹĵ âĸ¾âĹİâĸµ
Ġâĸ´ âĹļ
âĹŀâĸªâĸ¦ âĸµ
âĸ± âĹ¨
âĸ« âĹĵ
ĠâĹ ĳ
âĸ¨ âĸ´âĸ¦
ĠâĹłâĹĵ âĸ«
âĹ«âĸ¦ âĹ«
Ġâĸ½ âĹłâĸ¦
ĠâĹŀ âĸ´âĹļ
âĸªâĹĵ âĸł
âĹ¬âĹĵ âĸł
âĹĪâĸª âĹİâĸµ
âĹ«âĸ¦ âĹĹ
ĠâĹĪ âĸ¾
âĸ® âĹłâĸ¦
âĹ¨âĸ¢ âĸµ
ĠâĹķ âĹŃâĸ¦
âĹŃ âĸ«
Ġâĸ¨ âĹªâĸ¦
âĹİâĹł âĸ½
ĠâĹ³ âĹłâĸ¦
âĹĹâĸ¦ âĹĹ
âĹ¬âĹĵ âĹłâĸ¨
ĠâĹķ âĹŃ
âĹĹâĸ¦ âĹ«
ĠâĹĪ âĹĩâĸ¦
âĹĲ âĹ¬âĹİ
âĹİâĹĹ âĸ½âĹ§âĹĵâĹ¨âĹİâĸµ
âĹªâĹĵ âĹª
ĠâĹīâĹłâĸ± âĹ¬âĹĴ
âĹİ âĸ´âĸ¦
âĹİ âĹªâĸ¦
Ġâĸ¦âĹłâĹŀ âĹ¬âĸ±
ĠâĹł âĹĴ
âĹĪ âĹ«âĹİ
ĠâĹĪ âĹ£âĸ¦
ĠâĹĪ âĹ¨âĹĵ
âĸ¨ âĹªâĸ¦
Ġâĸ¨ âĹłâĸ¦
ĠâĹĢ âĹĩ
ĠâĹĪ âĹ¨
âĹļâĸ´âĸ« âĸł
ĠâĹĪ âĹ«
ĠâĹķâĹ« âĹĢâĹ«
ĠâĹĩ âĸ±âĹĪ
ĠâĹķâĹĹ âĹĢâĹĹ
âĸ¾âĸ¢ âĸµ
âĸ¾âĸ¦ âĹĪâĹł
Ġâĸ½ âĹĤâĸ¨
ĠâĹīâĹłâĸ± âĸªâĹĴ
âĸ® âĹłâĸ¦âĹł
âĸ±âĹªâĹĵ âĸµ
ĠâĹķ âĸ©
âĸ¼âĹª âĹĲ
âĸªâĹĵ âĹłâĸ¨
ĠâĹĪ âĹĹ
âĸ« âĹłâĹĵ
ĠâĹ³ âĹĤâĸ¨
Ġâĸ¦âĹłâĹŀ âĸªâĸ±
âĹį âĹªâĸ¦
âĹĪ âĹĹâĹİ
ĠâĹĪ âĸ¾âĹĵ
âĹ¬ âĸµ
âĹĤ âĹĴ
ĠâĹĢ âĹłâĹĲ
âĸ´âĹĵ âĸ´
ĠâĹķâĹ« âĹĢâĹĹ
âĸ´âĹĵ âĹª
âĹªâĹĵ âĸ´
ĠâĹĢ âĹ£
âĹłâĹĵ âĹł
Ġâĸ« âĹłâĹİâĹłâĹİ
ĠâĹ³ âĹ§âĸ¨
ĠâĹŀâĹ§âĸ¦ âĹĵâĹł
ĠâĹķâĹĹ âĹĢâĹ«
Ġâĸ¨ âĹ«âĹİ
ĠâĹŀ âĹŃâĹĵ
âĹİ âĸ´âĸ±
ĠâĹ ²
âĹ¨âĸ¦ âĹĪâĹł
ĠâĹĢâĹłâĹĴ âĸ¨âĹł
âĸ¼âĸ´ âĹĲ
âĸ± âĹ¬âĸ¨
ĠâĹ£ âĸ±âĹĪ
âĹ§ âĹĴ
Ġâĸ¨ âĹłâĸ«
âĹªâĹĵ âĹ«
ĠâĹŀ âĹĹâĸ¢
âĸªâĸ¦ âĹ¬
âĹį âĸ´âĸ¦
âĹłâĸ¦ âĹĵ
âĹ¬ âĹ³âĹ§âĹĵ
âĸ §
Ġâĸ· âĹłâĸ¢
âĹ¨âĸ¦ âĹł
Ġâĸ¨âĹł âĸ¢
Ġâĸ¨ âĸªâĸ¢
âĹĩ âĹĵ
âĹª âĸµ
âĸªâĸ¦ âĸª
ĠâĹĢâĸ¾ âĹĵâĹłâĹĪâĹł
âĹĿâĹĹâĸ± âĹİâĹĹâĸ½âĹ§âĹĵâĹ¨âĹİâĸµ
âĹ ¡
âĹłâĹĵâĹĪ âĸªâĹİ
ĠâĹĢâĹ¨ âĹĵâĹłâĹĪâĹł
ĠâĹ Ĭ
ĠâĹŀ âĹ«âĸ¢
âĹĲ âĸª
âĹªâĹĵ âĹĹ
âĸ¼ âĹłâĸ¨
âĹ¬ âĸ»
Ġâĸ¨ âĹ¬âĸ¢
Ġâĸ½ âĹ§âĸ¨
âĹ¬ âĸ½âĹĤâĹĵ
âĹłâĹĵ âĸ«
âĹ¬âĸ¦ âĸª
ĠâĹŀâĹĤâĸ¦ âĹĵâĹł
âĹŀ âĹªâĸ¦
0 0
âĸª âĸ»
Ġ âĸ±âĹł
âĹĵâĹł âĹ³âĹł
âĹĹâĸ¦ âĸ´
âĸ¨ âĹŃ
âĹĲ âĹ¬
ĠâĹŀ âĹłâĹĲ
âĸ± âĸªâĸ¨
Ġâĸ¨ âĹĹâĹİ
âĹłâĹĵâĹĪ âĹ¬âĹİ
ĠâĹį âĹłâĹĵâĸ¨
âĹİâĹł âĹ³âĹł
âĹłâĸ¦ âĹķ
âĸ¾âĸ¦ âĹł
ĠâĹŀ âĸ©âĹĵ
âĸ¨ âĸ©
âĸ´âĹĵ âĹĹ
âĹİâĹł âĸ½âĹł
Ġâĸ¨ âĹ¨âĹĵ
âĹ«âĸ¦ âĹª
âĹİâĹ« âĹĴâĸ«
Ġâĸ¨ âĸ¾âĹĵ
âĹŀ âĸ´âĸ¦
ĠâĹĹâĹŀâĸ« âĹª
âĸª âĸ½âĹĤâĹĵ
ĠâĹĹ âĸ¢
âĹļâĹªâĸ« âĸł
âĸ¦ âĸ¦
âĸª âĹ³âĹ§âĹĵ
âĹ«âĸ¦ âĸ´
âĹ£ âĹĵ
âĹĪ âĹĹâĹĵ
âĹ¨ âĹŀ
âĹªâĸ¨ âĸ¨
ĠâĹĤ âĸ±âĹłâĸ¦
âĸ´âĹĵ âĹ«
âĹ¬âĸ¦ âĹ¬
âĹĹâĸ¦ âĹª
ĠâĹĹâĹŀâĸ« âĸ´
Ġâĸ«âĹłâĹĵ âĹłâĹį
âĹĵ âĹłâĹĵ
Ġâĸ« âĸ´
ĠâĹ«âĹŀâĸ« âĹª
ĠâĹłâĸ¦ âĸ¦
âĸ¨ âĹłâĸ¦
ĠâĹĢ âĹłâĸ·
âĹĿ âĹłâĹĴ
ĠâĹī âĹĤâĸ¼
ĠâĹĢ âĸªâĹĵâĹłâĸ¨
âĸ¼ âĹ«
âĹĤ âĸ»
âĸ± âĸ¾
âĹĪ âĹ«âĹĵ
Ġâĸ½ âĹłâĹĵ
ĠâĹ«âĹŀâĸ« âĸ´
ĠâĹ§ âĸ±âĹłâĸ¦
' âĹł
ĠâĹ« âĸ¢
Ġâĸ« âĹª
âĹłâĹŀ âĹ¬
ĠâĹī âĹ§âĸ¼
âĹ§ âĸ»
âĸŃ âĸ´âĹĵ
âĹŀâĹ«âĸ¦ ?
âĹĳ âĹª
âĸª âĹ³âĹĤâĹĵ
Ġ âĸµâĸµâĸµ
Ġâĸ¢ âĹ§âĹĵ
ĠâĹĢ âĹ¬âĹĵâĹłâĸ¨
ĠâĹ³ âĹłâĸ¨
âĸ¨ âĸµ
âĹĪ âĹ¨âĹİâĸµ
âĸ¼ âĹĹ
âĸªâĹĵ âĸµ
Ġâĸ½ âĹłâĸ¨
âĸªâĸ¦ âĸµ
âĹİâĹĹ âĹĴâĸ«
ĠâĹķâĹª âĸ±âĹĪ
âĸ´ âĸµ
ĠâĹĿ âĸ¾
âĹħ âĹĤâĸ¨
âĹł âĸµ
âĹ¬âĸ¦ âĸµ
âĹ¬âĹİ âĸł
âĹĳ âĸ´
âĹł âĹī
âĹĪâĹłâĸ¨ âĹĹ
âĹĵâĹł âĸ½âĹł
âĹİ âĸ¾âĹĴ
Ġâĸ¢ âĹĤâĹĵ
ĠâĹĿ âĹ¨
ĠâĹł âĸ¢
âĹ¬ âĹ³âĹĤâĹĵ
ĠâĹĪâĹł âĹļ
âĸ« âĹŃ
ĠâĹķâĸ´ âĸ±âĹĪ
âĹĪ âĸ¾âĹİâĸµ
Ġâĸ¨âĹł âĹ³
âĹħ âĹ§âĸ¨
ĠâĹĢâĹłâĹĴ âĸ±âĹł
âĹ ģ
âĹłâĸ± âĸª
âĸ±âĹł âĸ¨
âĹĪâĹ¨ âĸµ
âĸŃ âĹªâĹĵ
Ġâĸ¨ âĹĩ
âĹ¬âĹĵ âĸµ
âĹĵ âĹ§
ĠâĹŀ âĹłâĸ¨
âĹĪâĹłâĸ¨ âĹ«
' âĹĪâĹł
âĸªâĹİ âĸł
âĹª âĹĢ
Ġâĸ¨ âĹ£
ĠâĹķ âĸ©âĸ¢
ĠâĹŀâĹł âĹłâĸ«
âĸ±âĹªâĹĵ âĹ«
ĠâĹ ĸ
ĠâĹĪâĹªâĹĲâĹ«âĸ± âĸµ
âĸ±âĸ´âĹĵ âĹĹ
ĠâĹŀ âĹłâĸ·
âĸ« âĹłâĸ±
ĠâĹ« âĸ¦âĹŀâĹłâĸ¦
ĠâĹķâĸ´âĹĵ âĸ´âĸ¨
âĹĿ âĹłâĸ¨
ĠâĹĹ âĸ·
âĹŃâĸ¦ âĸ©
ĠâĹķâĹªâĹĵ âĸ´âĸ¨
ĠâĹĢ âĹŃ
ĠâĹķâĸ´âĹĵ âĹªâĸ¨
âĸ±âĸ´âĹĵ âĹ«
âĹł âĹĪ
âĸ« âĸ©
âĸ¾ âĹŀ
ĠâĹĢ âĹłâĹĢ
Ġâĸ¯ âĸ´
âĹŀâĹĹâĸ¦ ?
ĠâĹī âĹªâĸ¨
Ġâĸ¨ âĹĤâĹĵ
âĹĵ âĹĤ
âĹİ âĹ¨âĹĴ
ĠâĹŀ âĸ´
ĠâĹ§ âĸ±âĹłâĹĵâĹłâĸ¨
âĸ©âĸ¦ âĸ©
âĸ¨âĹł âĹī
ĠâĹķâĹªâĹĵ âĹªâĸ¨
ĠâĹķ âĹŃâĸ¢
âĸª âĸ½âĹ§âĹĵ
ĠâĹĢ âĸ©
âĹª âĸ¢
Ġâĸ¨ âĹ§âĹĵ
ĠâĹī âĸ´âĸ¨
âĹİâĸ´ âĸ¢
Ġâĸ¨âĹł âĸ½
âĸ±âĸ´âĹĵ âĸµ
ĠâĹĤ âĸ±âĹłâĹĵâĹłâĸ¨
ĠâĹĹ âĸ¦âĹŀâĹłâĸ¦
âĹĪ âĸ¾âĸµ
ĠâĹ« âĸ·
âĸ±âĹªâĹĵ âĹĹ
âĹİâĹª âĸ¢
âĹĵâĹł âĹį
âĹłâĸ· âĹłâĸ«
âĸ±âĹłâĸ¼âĹłâĸ¨ âĸµ
âĹī âĹł
âĸ©âĸ¦ âĹŃ
âĸª âĸµ
âĹĲâĹĵ âĸ¾
âĹĵâĹł âĹĪâĹłâĸ¦
âĹ¬ âĸ±âĹĪ
ĠâĹ³ âĹłâĹĵ
Ġ âĸ´âĸ±
ĠâĹĢ âĸ´âĸ¨
Ġâĸ °
âĹĪâĹª âĸ¼âĹª
âĹĪâĹª âĸ¼âĸ´
Ġâĸ· âĹłâĹį
ĠâĹĢ âĸ¾âĸ¦
âĹ¨âĹİ âĸł
âĹĪâĸ´ âĸ¼âĹª
âĸªâĸ¦ âĹĪâĹłâĸ¦
âĹª âĹī
ĠâĹłâĸ¦âĸ±âĹł âĸ«
ĠâĹĢ âĹ¨âĸ¦
âĸ±âĹłâĹĵ âĸł
âĸ¾âĹİ âĸł
âĸ½âĹĤâĹĵ âĹ¨âĹİâĸµ
ĠâĹŀâĹł âĹļ
Ġ âĸ¾âĸ¢
ĠâĹł âĹĪ
ĠâĹł âĹĲ
ĠâĹĢ âĹªâĸ¨
âĹİ âĹĹâĸ¦
âĹĹ âĸł
âĸ±âĹłâĹĵ âĹĪâĹłâĸ¦
âĹĻ âĹłâĸ·âĹł
âĹ« âĸł
âĸ² âĹłâĸ¦
âĸ´ âĸ¢
âĸ±âĹł âĸ«
âĹĪâĸ´ âĸ¼âĸ´
âĸª âĸ±âĹĪ
âĹª âĸł
ĠâĹ¨ âĸ¢
âĹłâĸ± âĸ¦
âĹ¬âĸ¦ âĹĪâĹłâĸ¦
âĹłâĸ± âĹ¬
ĠâĹĢ âĹĤ
âĹİ âĹ«âĸ¦
âĸ±âĹł âĸ·
ĠâĹĢâĹ«âĹĵ âĹłâĸ¢
ĠâĹķ âĹ«âĹĵ
Ġâĸ½ âĹł
âĹĪ âĸ´âĸ¨
âĸªâĸ¨ âĸµ
ĠâĹĪâĸ´âĹĲâĹĹâĸ± âĸµ
Ġâĸ¨âĹłâĸ¢ âĹłâĸ¦
Ġ 2
Ġâĸ· âĹłâĹĢ
ĠâĹĪ âĹłâĸ¨
âĹĲâĹĹâĸ¦ âĹ«
âĹ§ âĹĲ
Ġâĸ¯ âĹª
ĠâĹĹ âĸ±âĹķ
âĹ¨âĸ¢ ?
ĠâĹłâĸ± âĸ«
Ġâĸ±âĹł âĸ¢
âĸ¼ âĸ·
Ġâĸ½ âĸ´âĹĵ
ĠâĹ§ âĸ±âĹĪ
ĠâĹĢâĹĹâĹĵ âĹłâĸ¢
âĹĲâĹĹâĸ¦ âĹĹ
âĹĲâĹ«âĸ¦ âĹ«
ĠâĹĴ âĸ¾
âĹĹâĸ¨ âĹł
ĠâĹķ âĹĹâĹĵ
ĠâĹ³ âĹł
âĹĲâĹ«âĸ¦ âĹĹ
âĸª âĹĴâĸ«
âĹªâĹĵ âĸµ
âĹļ âĸ´âĸ¦
âĹĲâĹĵ âĹ¨
âĹ¬ âĹĴâĸ«
âĹĪ âĹªâĸ¨
ĠâĹĢâĹ¨ âĸ±
âĹ« âĸ¨âĹł
âĹ«âĸ¦ âĸµ
âĸ´âĸ± âĸ´âĹĵ
âĹİâĹª âĹİ
âĹİâĹł âĸ±âĸª
ĠâĹĴ âĹ¨
âĸ´ âĸł
âĹĪ âĹ«âĸ±
âĸ±âĹłâĹĵ âĸ±âĹł
âĸ´âĸ¨ âĸ¨
âĹİâĸ´ âĹİ
âĹĪ âĹĹâĸ±
âĸ¯ âĹłâĹŀ
âĹ¨ âĹĴâĸ«
Ġâĸ¨ âĹ¨âĸ±
âĹłâĸ½ âĹł
Ġâĸ·âĹłâĸ½ âĹłâĸ«
Ġâĸ« âĹłâĹİ
âĹİâĹł âĸ±âĹ¬
âĸ½ âĸ¦
ĠâĹ« âĸ±âĹķ
ĠâĹ³âĹłâĸ» âĹ¬âĸ½âĹ§âĹĵ
âĸ±âĹłâĹĵ âĸªâĹİ
ĠâĹķ âĸ´âĸ«
Ġâĸ·âĹłâĹ³ âĹłâĸ«
âĹİâĹł âĸµ
âĹłâĹ³ âĹł
ĠâĹŃ âĸ¢
âĸ²âĹłâĸ¦ âĸ´âĸ«
Ġ âĸ±
âĹªâĸ¦ âĹ«
âĹ³ âĹłâĸ¦
âĹĤ âĸ«
âĹ¢ âĹłâĹĵ
âĹĵ âĹª
âĸ¾âĹĵ âĸµ
Ġâĸ« âĹ¨âĸ«
âĹ¨âĹĵ âĸµ
ĠâĹŀâĹ£ âĹ³âĸ±âĹª
ĠâĹĪâĹªâĹĲâĹĹâĸ± âĸµ
ĠâĹª âĸ±
âĹ§ âĸ«
âĹªâĸ¦ âĹĹ
Ġâĸ¨âĹł âĹĢ
ĠâĹ§âĸ± âĹŀâĹ¨âĸ¦âĸµ
ĠâĹĪâĸ´âĹĲâĹ«âĸ± âĸµ
âĸ´âĸ¦ âĹ«
Ġâĸ« âĹłâĸ«
âĹ¬âĸ¨ âĸµ
âĹ Ľ
Ġâĸ½ âĹªâĹĵ
Ġâĸ¨ âĸ¾âĸ±
ĠâĹĤ âĸ±âĹĪ
ĠâĹŀâĹ£ âĸ½âĸ±âĹª
âĹļ âĹªâĸ¦
âĹĿ âĹ«âĸ±
âĸ¡ âĸ´âĸ¨
âĸ¾ âĹĴâĸ«
âĸ½ âĹłâĸ¦
ĠâĹŀ âĹ¨
âĹļ âĹłâĹİ
ĠâĹĢâĸ¾ âĸ±
ĠâĹĢâĹªâĸ¦ âĹĹâĹİ
ĠâĹ£ âĹĲâĹĵ
Ġâĸ¼ âĹłâĸ¦
âĹłâĸ¼âĹłâĸ¨ âĸµ
âĹ³ âĸ±âĹł
ĠâĹŀ âĸ¾
âĹ³âĹ§âĹĵ âĸ¾âĹİâĸµ
âĹİâĹł âĸ¢
ĠâĹŀâĹĩ âĸ½âĸ±âĸ´
Ġâĸ¨ âĹ¬
ĠâĹŀâĹĩ âĹ³âĸ±âĸ´
âĹĿ âĹłâĹĢ
âĸ½ âĸ±âĹł
ĠâĹĹ âĸ¦âĹłâĸ¦
Ġâĸ« âĸ¾âĸ«
âĹĪ âĸ¾
ĠâĹķ âĹªâĸ«
âĹ¨ âĹĲ
âĸ´âĸ¦ âĹĹ
âĹĵ âĹĹ
âĸ±âĹłâĹĵ âĹ¬âĹİ
âĸ® âĹĹâĸ¢
Ġâĸ« âĹłâĹĴ
ĠâĹŀâĹĩ âĸ½âĸ±âĹª
Ġâĸ¨âĹł âĹį
âĸ½ âĹłâĸ¼
ĠâĹĢ âĸ´
âĸ¾âĸ¢ ?
âĹ³ âĸ¦
ĠâĹĩ âĹĲâĹĵ
ĠâĹ³ âĸ´âĹĵ
âĸ® âĹ«âĸ¢
âĸ¡ âĹªâĸ¨
âĸ±âĹł âĹĴâĸ«
âĹİâĹ¬ âĹĴâĸ«
âĹĤ âĹĲ
ĠâĹ« âĸ¦âĹłâĸ¦
Ġâĸ¨âĹ¨âĸ± âĸ±âĹłâĸ¦
âĸ½âĹĤâĹĵ âĸ¾âĹİâĸµ
âĹŁ âĹłâĸ¦
âĹĵ âĹ«
ĠâĹķâĹ£ âĸ¢
' âĸªâĸ¦
âĹ«âĹİ âĹĪâĹ«
Ġâĸ© âĸ¢
âĸ» âĸ«âĹłâĸ±
âĹĹâĹİ âĹĪâĹĹ
âĹĵ âĸ´
âĹ«âĹİ âĹĹâĸ¢
âĸ´âĹĵ âĸ¨
âĹłâĸ½ âĹłâĸ¦
ĠâĹĢâĸ´âĸ¦ âĹĹâĹİ
ĠâĹŀ âĹłâĸ±
ĠâĹ³ âĹªâĹĵ
âĸ· âĸł
ĠâĹŀâĹ£ âĸ½âĸ±âĸ´
ĠâĹĢâĸ´âĸ¦ âĹ«âĹİ
âĹİâĸª âĹĴâĸ«
' âĹ¬âĸ¦
ĠâĹŀâĹ£ âĹ³âĸ±âĸ´
âĹĢâĹ«âĸ± âĹĹâĹĵ
âĹŀ âĸªâĸ¢
Ġâĸ¨ âĸª
âĹ ¯
ĠâĹŀâĹĩ âĹ³âĸ±âĹª
ĠâĹİ âĸ©
âĹĿ âĹ«âĸ¢
âĹłâĹ³ âĹłâĸ¦
âĹĹ âĸ½
ĠâĹĿ âĹ«âĸ±
âĹİâĹ¬âĹĴ âĸµ
âĹ ®
âĸ ¹
âĹ«âĹİ âĹĪâĹĹ
âĸ½âĹ§âĹĵ âĸ¾âĹİâĸµ
âĹĹ âĹ³
âĹŀ âĹ¬âĸ¢
âĹĹâĸ¦ âĸµ
âĹĹ âĹį
âĹĿ âĹ¨âĸ¦
âĹĢâĹĹâĸ± âĹ«âĹĵ
ĠâĹĢ âĹ§
ĠâĹĿ âĹ«âĹĵ
âĹ³âĹĤâĹĵ âĹ¨âĹİâĸµ
âĹİâĸªâĹĴ âĸµ
Ġâĸ¨âĸ¾âĸ± âĸ±âĹłâĸ¦
âĹ« âĹ³
' âĹĹâĸ¦
âĹŀ âĹłâĹİ
âĹ« âĸ½
ĠâĹķâĹĩ âĸ¢
ĠâĹĢâĹªâĸ¦ âĹ«âĹİ
Ġâĸ¨âĹ§âĸ¦ âĹ¨âĹĴ
âĹĹâĹİ âĹĪâĹ«
ĠâĹłâĹĵ âĹł
âĹĪâĹŃ âĹĲ
ĠâĹĪâĹłâĹļ âĹĵâĹłâĸ¦
Ġâĸ· âĹªâĸ»
âĹĪâĸ© âĹĲ
Ġâĸ¨âĹ§âĸ¦ âĸ¾âĹĴ
âĹ³ âĹłâĸ¼
âĹļ âĹª
âĸ´âĹĵ âĸµ
âĹĿ âĹĹâĸ¢
âĹ«âĹİ âĹ«âĸ¢
âĹĢâĹĹâĸ± âĹĹâĹĵ
Ġâĸ¨âĹĤâĸ¦ âĸ¾âĹĴ
âĹĴâĸ« âĹ«âĹĵ
ĠâĹ³ âĹłâĸ¢
Ġâĸ¨âĹĤâĸ¦ âĹ¨âĹĴ
ĠâĹŀ âĹłâĸ«
ĠâĹĿ âĹĹâĹĵ
âĸ«âĹĹ âĸµ
âĹ¤ âĹłâĸ¦
âĹª âĸ¼âĸ´âĸ¨
âĸ¨ âĹłâĸ«
âĸ¶âĹłâĹİâĹłâĹİ âĸł
Ġâĸ· âĹłâĹŀâĸ«
âĹĹâĹİ âĹĹâĸ¢
ĠâĹĵ âĹłâĸ·âĹłâĸ«
âĹ« âĹį
' âĹ«âĸ¦
Ġâĸ· âĹ«âĹŀ
ĠâĹĹ âĸ¦
ĠâĹŀâĹłâĹļ âĹłâĹĴ
âĹĿ âĸ¾âĸ¦
âĹĵ âĸ¨
âĹĢâĹ«âĸ± âĹ«âĹĵ
âĹłâĸ¨ âĹłâĸ«
ĠâĸŃ âĹłâĹ³
âĹłâĹĲ âĸª
Ġâĸ» âĸ±âĹłâĸ¦
ĠâĹ³âĹłâĸ» âĸ«
âĹĹâĹİ âĹ«âĸ¢
âĸ±âĹªâĹĵ âĹĹâĸ¦
ĠâĹİ âĹŃ
âĹļ âĸ´
âĸ±âĹªâĹĵ âĹ«âĸ¦
ĠâĹ³ âĸ©âĸ¢
ĠâĹ£âĸ¦ âĸ¼âĹª
ĠâĹķâĹĩ âĹŀâĸ«
âĸ® âĹĤâĸ¦
ĠâĹ£ âĸ¢
ĠâĹ« âĸ¦
Ġâĸ¬ âĸ·
Ġâĸ· âĸ´âĸ»
ĠâĹ£âĸ¦ âĸ¼âĸ´
ĠâĹĩâĸ¦ âĸ¼âĸ´
âĸ¨ âĹ¨
âĸ´ âĸ¼âĹªâĸ¨
ĠâĹŀâĹªâĸ¦ âĹ«âĸ¦
Ġâĸ¨âĹłâĹĵâĹĴ âĹ¬
âĸ´ âĸ¼âĸ´âĸ¨
âĹĴâĸ« âĹĹâĹĵ
âĸªâĹİ !
âĹŀâĹł âĸł
ĠâĹİâĹ¨ ?
âĹŀ âĹłâĸ¨
Ġâĸ¨ âĹĹâĹĴ
ĠâĹ§âĸ¦ âĹ¨
Ġâĸ´ âĹĪâĸ´âĹĵ
Ġâĸ· âĹłâĹļ
ĠâĹ³ âĹŃâĸ¢
âĸ¦ âĹª
âĹĴâĸ« âĸ´
ĠâĸŃ âĹłâĸ½
ĠâĹĤâĸ¦ âĹ¨
âĹ ĥ
âĹĵ âĸª
âĹļ âĹłâĹĵ
ĠâĹĪ âĹªâĸ¦
ĠâĹĪ âĹªâĹĵ
ĠâĹŀâĹªâĸ¦ âĹĹâĸ¦
Ġâĸ¨âĹłâĹĵâĹĴ âĸª
âĹ³âĹ§âĹĵ âĹ¨âĹİâĸµ
âĹĴâĸ« âĹª
âĹłâĹĲ âĹ¬
Ġâĸ½ âĹŃâĸ¢
âĸ«âĸª âĸµ
âĹŀ âĹĹâĸ¢
âĹª âĸ¼âĹªâĸ¨
ĠâĹŀâĸ´âĸ¦ âĹĹâĸ¦
âĹłâĸ¦ âĸ«
ĠâĹŀ âĹ¬
âĹĢ âĹª
Ġâĸ· âĹĹâĹŀ
âĹĪ âĹ«âĹĵâĸµ
âĹŀ âĹ«âĸ¢
âĸ¾ âĸ»
Ġâĸ½ âĸ©âĸ¢
Ġâĸ»âĹłâĹĵ âĹł
ĠâĹĩâĸ¦ âĸ¼âĹª
ĠâĹĴ âĹłâĸ¦âĹŀ
ĠâĹķâĹ£ âĹŀâĸ«
âĹĪ âĸ¾âĸ¦
âĹĹâĸ¦ âĹĪâĸ´
ĠâĹİâĸ¾ ?
âĹª âĸ¼âĸ´
ĠâĹİ âĹłâĸ·
âĹ«âĹİ âĸł
âĸ¨ âĸ¾
ĠâĹĿ âĸ´âĸ¦
ĠâĹĢ âĹłâĹŀ
âĸ© âĹī
âĹĴ âĹłâĹİ
ĠâĹŀ âĹłâĹĢ
ĠâĹ« âĸ½âĹ«
Ġâĸ¨âĹłâĹĵ âĹłâĹĵ
ĠâĹ« âĹ³âĹĹ
âĹĪâĹĹ âĸ¨
ĠâĹĪâĸ©âĹĴ âĹŃâĸ¦
âĸ¼ âĸ¨
âĹĹâĹİ âĸł
âĸ¶ âĹłâĸ¦âĹĵ
ĠâĹīâĸªâĸ¨ âĹłâĹĵ
âĹª âĹŀâĹĹâĸ¦
ĠâĹĹ âĹ³âĹ«
âĹłâĹİâĹł âĸ¢
âĸ« âĹ¨
Ġâĸ¨ âĹ«âĹĴ
âĸ¦ âĸ´
âĹŀ âĸ±
âĸ» âĸ·
ĠâĹĢ âĹłâĸ¢
ĠâĹĢâĹªâĸ¦ âĹ«
âĹĢ âĸ´
ĠâĹĹ âĸ½âĹ«
ĠâĹĩ âĸ¢
ĠâĹĴ âĹªâĸ¨
Ġâĸ·âĹłâĹį âĸ«âĹł
âĸ« âĹŃâĹĵ
Ġâĸ½ âĹłâĸ¢
âĹłâĹĵ âĹłâĸ¨
ĠâĹŀâĸ´âĸ¦ âĹ«âĸ¦
âĸ¨ âĹĹâĸ¦
âĸ® âĹ§âĸ¦
ĠâĹĩ âĸ±
ĠâĹĪ âĸ´âĸ¦
Ġâĸ½âĹłâĸ» âĸ«
Ġâĸ« âĹłâĹĢ
ĠâĹłâĹŀ âĸ±âĹł
âĸ«âĹ« âĸµ
Ġâĸ¶ âĹłâĸ¦âĹĵ
ĠâĹĤâĸ¦ âĹł
ĠâĹĴ âĸ´âĸ¨
âĹĪ âĹĹâĹĵâĸµ
ĠâĹĿ âĹªâĸ¦
âĹİâĹĹâĹĴ âĸµ
âĹĵ âĹłâĸ¨
âĹłâĸ¼âĹłâĹĲ âĹ¬âĹİâĸµ
âĹĪâĹ¬âĹĵ âĸµ
âĹĹâĸ¦ âĹĪâĹª
âĹªâĸ¨âĸ¨ âĸ©âĹĵ
ĠâĹ£ âĸ±
Ġâĸ½âĹĤâĸ¨ âĸµ
ĠâĹĢ âĹ«âĸ«
ĠâĹĪ âĸ´âĹĵ
âĹ«âĸ± âĹªâĹĵ
âĸ´ âĸ¼âĹª
âĸ±âĹł âĹİ
ĠâĹłâĸ¦ âĹĪâĹł
ĠâĹĢ âĹĹâĸ«
âĸ±âĸ´âĹĵ âĹ«âĸ¦
ĠâĹĪâĸ©âĹĴ âĸ©âĸ¦
ĠâĹĢâĸ´âĸ¦ âĹĹ
ĠâĹĢâĹłâĸ¨ âĹłâĸ±
âĹ¦ âĸ¦
âĸ«âĹ¬ âĸµ
âĹĪâĸªâĹĵ âĸµ
âĹª âĸ¼âĹª
âĹĲ âĸ±
ĠâĹĪ âĸªâĹĴ
ĠâĹĢâĹªâĸ¦ âĹĹ
âĹĪâĹ« âĸ¨
ĠâĹīâĹ¬âĸ¨ âĹłâĹĵ
âĹĵ âĹ¬
âĸŃ âĹł
ĠâĹ³ âĹĤâĸ±
âĹłâĸ¼âĹłâĹĲ âĸªâĹİâĸµ
âĹĪâĹĹ âĹĲâĹĹâĹİ
âĹŃ âĹī
ĠâĹŀ âĹłâĸ½
âĹĹâĸ± âĹªâĹĵ
ĠâĹĪâĹŃâĹĴ âĹŃâĸ¦
âĹª âĹŀâĹ«âĸ¦
âĸ±âĹłâĹĵ âĹĪâĹł
ĠâĹ§ âĸ±âĹĪâĹ¨
ĠâĹĢâĸ´âĸ¦ âĹ«
ĠâĹĢ âĹªâĸ±
âĹŀâĹ¬âĸ¦ ?
âĹĹâĸ± âĸ´âĹĵ
Ġâĸ« âĹĤâĸ»
âĹłâĹ³ âĸª
âĸ´ âĸ¼âĸ´
âĹĪâĹ« âĹĲâĹĹâĹİ
âĹĪ âĹ¨âĸ¦
ĠâĹĢ âĹ¨âĸ¦âĹ¨
ĠâĹļâĹłâĹĵ ?
ĠâĹ³âĹ§âĸ¨ âĸµ
ĠâĹ§âĸ¦ âĹł
ĠâĹĪ âĹ¬âĹĴ
ĠâĹĪâĹŃâĹĴ âĸ©âĸ¦
ĠâĹİâĸ¾ âĹŀâĹ¨âĸ¦?
Ġâĸ·âĹłâĸ¨âĸ¨ âĹ¬âĸ¦âĹĪâĹł
âĸ´ âĹī
âĸ¼ âĹ¨
âĹĩ âĸ¢
âĹİâĹĹ âĹ³âĹĤâĹĵâĸ¾âĹİâĸµ
âĸ½ âĹŃâĸ¨
âĹĢ âĹł
âĹķ âĸ©âĸ¦
âĹİâĹ«âĹĴ âĸµ
âĸ¾âĸ¦ âĸ±âĹł
âĹĪâĹĹ âĹĲâĹ«âĹİ
ĠâĹ³âĹĤâĸ¨ âĸµ
ĠâĹĢ âĸ´âĸ±
âĹ«âĸ± âĸ´âĹĵ
âĹ«âĸ¢ ?
ĠâĹ§âĸ¦ âĸ¾
ĠâĹĤâĸ¦ âĸ¾
âĹĹ âĹŀâĸ«
âĸ¼ âĸ¾
âĹķ âĹŃâĸ¦
âĹłâĹ³ âĹ¬
ĠâĹĪâĸ¾ âĹ³
ĠâĹĢ âĸ¾âĸ¦âĹ¨
ĠâĹĤ âĸ±âĹĪâĹ¨
ĠâĹ« âĸ½âĹĹ
ĠâĹ§ âĸ±âĹłâĸ¼âĹłâĸ¨
Ġâĸ« âĹ§âĸ»
ĠâĹŀâĸ´âĸ¦ âĹ«
ĠâĹłâĸ½ âĸ¦
Ġâĸ· âĹłâĸ±âĹł
ĠâĹĹ âĸ½âĹĹ
âĹŀâĸªâĸ¦ ?
âĹłâĹĢâĹ«âĸ± âĹ«âĹĵ
ĠâĹĢ âĹ¨âĸ¦âĸ¾
âĸ´ âĹŀâĹĹâĸ¦
âĹŀ âĸ´âĸ«
âĹĪâĹ« âĹĲâĹ«âĹİ
âĸŃ âĹłâĹĵ
âĹĸ âĹ¨
ĠâĹĢ âĸ¾âĸ¦âĸ¾
Ġâĸ» âĹłâĸ«
ĠâĹŀâĸ´âĸ¦ âĹĹ
âĹĲâĹ¬âĸ¦ âĸª
âĸ´ âĹİâĹª
ĠâĹĤ âĸ±âĹłâĸ¼âĹłâĸ¨
âĹ¨ âĸ½âĹ§âĹĵ
Ġâĸ« âĸ´âĹĴ
Ġ 3
ĠâĹŀ âĸª
ĠâĹķâĸ´âĹĵ âĹīâĸ´âĸ¨
ĠâĹĹ âĹ³âĹĹ
ĠâĹ« âĹ³âĹ«
âĹĹâĸ¢ ?
âĹĪâĹ¬ âĹĲâĸªâĸ¦
âĹĭ âĸ¦
âĸ±âĸª âĸµ
ĠâĹŀ âĹ«
âĹį âĹł
âĹĹ âĹĪ
âĹłâĹĢâĹ«âĸ± âĹĹâĹĵ
âĹª âĹİâĹª
âĹ«âĸ¦ âĹĪâĸ´
âĹ£ âĸ¢
âĸŃ âĹĹâĹī
âĹĪâĸª âĹĲâĸªâĸ¦
ĠâĹŀâĹł âĹī
âĹ« âĹĪ
âĸ´âĸ± âĹªâĹĵ
âĹĢ âĸ¾
ĠâĹĪâĹ¨ âĹ³
âĸ¨ âĹ«âĸ¦
âĹ¨ âĸ»
âĸŃ âĹ«âĹī
âĹ Ķ
âĸ« âĸ©âĹĵ
Ġâĸ·âĹłâĸ¨âĸ¨ âĸªâĸ¦âĹĪâĹł
âĹŀâĸ¾âĸ¦ âĸł
ĠâĹĪâĸ¾ âĸ½
ĠâĹį âĹłâĸ±âĹłâĸ¦
Ġâĸ½âĹ§âĸ¨ âĸµ
âĹĵ âĹłâĸ±
Ġâĸ· âĹĤâĹĴ
âĹĢ âĹªâĸ«
Ġâĸ· âĹ§âĹĴ
ĠâĹ³ âĹłâĹĵâĹĪâĸªâĹİ
' âĹĪâĹłâĸ¦
âĹłâĹİâĹł âĹİâĸµ
âĹĪâĹª âĹĴ
âĹĿ âĹªâĸ±
ĠâĹļ âĹłâĸ¨
ĠâĹª âĹĪâĹ«
âĹĪâĸ´ âĹĴ
âĹ¨âĸ¦ âĸ±âĹł
âĸ¦ âĹł
âĸ±âĹł âĹİâĹłâĸ¨
âĹĪâĹł âĸµ
âĹ«âĸ¦ âĹĪâĹª
âĹİ âĹŃ
âĹĲâĹ¬âĸ¦ âĹ¬
Ġâĸ·âĹłâĸ« âĹ¬âĹĵ
ĠâĹĩâĸ±âĹĪ âĹŃâĹĵ
âĹ³ âĸ©âĸ¨
ĠâĹŀâĹªâĸ¦ âĹ«
ĠâĹłâĹĵâĸ« âĸªâĸ¨
âĸ´ âĹŀâĹ«âĸ¦
ĠâĹ§ âĸ±âĹłâĹĢâĹ«âĸ±
âĹŀâĹ¨âĸ¦ âĸł
âĹ³ âĹŃâĸ¨
âĸ· âĹłâĸ¦
ĠâĹĩâĸ±âĹĪ âĸ©âĹĵ
âĹłâĹĢâĹĹâĸ± âĹĹâĹĵ
ĠâĹĪ âĹŃâĸ¦
ĠâĹĪ âĸ©âĸ¦
ĠâĹĤ âĸ«
âĹĸ âĸ¾
ĠâĹĤ âĸ±âĹłâĹĢâĹ«âĸ±
Ġâĸ¢ âĹłâĸ«
âĹĨ âĹªâĹĵ
âĹİ âĹłâĹĵ
âĹŀ âĹªâĸ«
âĹİâĹł âĹĪâĹłâĸ¦
Ġâĸ« âĹªâĹĴ
ĠâĹª âĹĪâĹĹ
âĹķ âĹ«
âĹĪ âĹ¬âĹİ
âĸ« âĹĹâĸ¨
âĹłâĹĢâĹĹâĸ± âĹ«âĹĵ
âĹĤ âĹŀ
ĠâĹķâĹŃâĸ¢ âĹªâĸ±
âĸ· âĹł
âĹķ âĹł
âĹİ âĸ¾
âĹŃâĸ¦ âĸ¨âĸ©
âĸ©âĸ¦ âĸ¨âĸ©
âĸ±âĹ¬ âĸµ
Ġâĸ¨âĹłâĹĪ âĹ¬âĸ¦
ĠâĹķâĹªâĹĵ âĹīâĹªâĸ¨
âĹĵ âĹªâĸ«
âĸ´ âĹİâĸ´
ĠâĹĪâĹ¨ âĸ½
âĹĿ âĹ¨âĸ¦âĸ¾
âĹĿ âĸ´âĸ±
âĹļ âĹłâĸ¦
âĹĨ âĸ´âĹĵ
ĠâĹłâĹ³ âĸ¦
âĹĢ âĸ´âĸ«
âĸ«âĹ« âĸ¨
Ġâĸ»âĹłâĹĵ âĹī
Ġ ?
âĸ· âĸ«
âĸ©âĸ¦ âĸ¨âĹŃ
ĠâĹłâĹĵ âĹłâĹĢ
'âĸ¦ âĹ«âĸ¦
âĹ«âĹİ ?
Ġâĸ¨âĹłâĹĪ âĸªâĸ¦
ĠâĹŀâĹªâĸ¦ âĹĹ
âĹŃâĸ¦ âĸ¨âĹŃ
ĠâĹª âĹĪâĹª
âĹª âĹİâĸ´
Ġâĸ´ âĹĪâĹ«
âĹĪ âĹłâĹĵ
'âĸ¦ âĹĹâĸ¦
âĹİ âĸ©
Ġâĸ½ âĹłâĸ«
âĹĹâĹİ ?
âĸ±âĸ´âĹĵ âĹĹâĸ¦
ĠâĹķâĸ´âĹĵ âĹīâĹªâĸ¨
ĠâĹ£âĸ±âĹĪ âĹŃâĹĵ
âĹĪâĹł âĸł
ĠâĹĤ âĸ±âĹłâĹĢâĹĹâĸ±
ĠâĹĢ âĹª
ĠâĹ³ âĹ§âĸ±
Ġâĸ·âĹłâĸ¢ âĹ¬âĹĵ
âĹİâĹł âĸ±
Ġâĸ« âĹŃâĹİ
ĠâĹĤâĸ±âĹİâĹł âĸ¨
âĹĵ âĸ´âĸ«
âĹİâĹł âĹŀâĹ¬
âĹĪâĹĹ âĹĲâĹĹâĸ¦
âĹĿâĸ¾ âĹĵâĹłâĹĪâĹł
ĠâĹ¨ âĸ½
âĹİâĹł âĹŀâĹ¬âĸ¦
âĹİâĹł âĹŀâĸªâĸ¦
âĹį âĹį
ĠâĹłâĹĵ âĹłâĹŀ
âĹ° âĸ¦
âĹĵâĹł âĹŀâĹ¬
âĸ¨ âĹªâĹŀ
âĹĢ âĹ¨
Ġâĸ« âĹªâĹĵ
Ġâĸ´ âĹĪâĹĹ
Ġâĸ·âĹłâĸ¢ âĸªâĹĵ
âĹłâĸ½ âĹ¬
âĹ¢ âĹ«âĹİ
âĸ±âĹİâĹł âĸ¨
ĠâĹĢâĹĹâĸ± âĸ´
ĠâĹ£âĸ±âĹĪ âĸ©âĹĵ
âĹĪâĹ« âĹĲâĹĹâĸ¦
ĠâĹ ¬
Ġâĸ¨âĹł âĸ·
ĠâĹĢâĹ«âĸ± âĸ´
âĹĿâĹ¨ âĹĵâĹłâĹĪâĹł
ĠâĹİâĹ¨ âĹŀâĹ¨âĸ¦?
âĸ¨ âĸ´âĹŀ
âĹ§ âĹŀ
âĹĤ âĹİ
âĹĪâĹ« âĹĲâĹ«âĸ¦
ĠâĹķâĹªâĹĵ âĹīâĸ´âĸ¨
âĹ© âĸ¦
âĸ© âĹĲ
âĸ¶ âĹłâĸ«
âĹĲ âĹł
ĠâĹĢâĹĹâĸ± âĹª
âĹłâĸ¦ âĸª
âĹłâĸ¦ âĸªâĸ¦
âĹªâĸ¨âĸ¨ âĹŃâĹĵ
âĹĪâĹĹ âĹĲâĹ«âĸ¦
âĹ¬âĸ¢ âĸª
ĠâĹ§ âĸ±âĹłâĸ¼âĹłâĹĲ
âĸªâĸ¢ âĹ¬
âĹİâĹł âĹŀâĸª
ĠâĹĢâĹ«âĹĵ âĹĹ
âĹĿ âĹ¨âĸ¦âĹ¨
âĸ±âĹłâĹĵ ?
âĹ«âĸ± âĹ«
âĸªâĸ¢ âĸª
âĹłâĸ¼âĹłâĹĲ âĹ¬âĹİ
ĠâĹł âĹĪâĹł
Ġâĸ½ âĹ§âĸ±
ĠâĹĿ âĹłâĹĴ
âĹ¢ âĸ´âĸ¦
ĠâĹ§âĸ±âĹİâĹł âĸ¨
âĹĪâĹĹâĸ¦ âĸµ
âĹłâĸ¦ âĹ¬
ĠâĹķâĸ©âĸ¢ âĹªâĸ±
âĹ¢ âĹªâĸ¦
âĹĿ âĸ¾âĸ¦âĸ¾
âĹĪ âĸªâĹİ
âĹ³ âĹ¬
ĠâĹ§ âĸ«
ĠâĹī âĹłâĹĲ
âĹłâĹļ âĹłâĹĴ
âĸ±âĹłâĹİâĹł âĸ¢
âĸ±âĹłâĹĵâĹ¬âĸ¦ âĸª
Ġâĸ´ âĹĪâĹª
ĠâĹİâĹ¨ âĹŀâĸ¾âĸ¦?
ĠâĹłâĸ¨ âĹĴâĹłâĹİ
âĹĿ âĸ¾âĸ¦âĹ¨
âĹłâĸ½ âĸª
âĹ¬âĸ¢ âĹ¬
âĹ° âĹļâĸ´âĸ«âĸł
âĸ« âĹĹâĹĵ
âĹ«âĸ¢ âĹĹ
ĠâĹłâĹī âĹ¬âĸ¨
âĹŀâĸ« âĹª
ĠâĹŀâĹł âĹĪâĹªâĸ¼âĸ´
Ġâĸ¨âĹłâĸ» âĹłâĸ«
ĠâĹª âĹĪâĸ´
âĹ§âĸ¨ âĸ«
âĹŀ âĹ§âĸ¦
âĹŃ âĹĲ
âĹĢ âĹłâĹĴ
Ġâĸ· âĹł
ĠâĹ§ âĸ±âĹłâĹĢâĹĹâĸ±
âĸŃâĹłâĹ³ âĹ¬âĹĵâĸł
ĠâĹĹâĸ· âĸ«âĹĹ
ĠâĹł âĸ»âĸ«âĹłâĸ±
Ġâĸ« âĸ©âĹİ
ĠâĹķâĸ´ âĸ¼âĹª
ĠâĹŀâĹł âĹĪâĹªâĸ¼âĹª
Ġâĸ½ âĹĤâĸ±
ĠâĹĢâĹĹâĹĵ âĹĹ
ĠâĹĤâĸ± âĸ¾âĹĵ
ĠâĹĿâĹ«âĸ± âĹİâĹĹâĹ³âĹĤâĹĵâĸ¾âĹİâĸµ
âĸ½ âĸª
ĠâĹ³ âĹłâĹĵâĹĪâĹ¬âĹİ
âĹĪâĹ«âĸ¦ âĸµ
âĹķ âĹĹ
âĸ½ âĸ©âĸ¨
Ġâĸ· âĹªâĹİ
ĠâĹ« âĸ±âĸ´
âĸ±âĹª âĸ«
Ġ 5
âĹ¨ âĹĵâĹł
âĹŀâĹĹâĸ¦ âĹ«
Ġâĸ® âĹªâĸ¦
âĸŃâĹłâĹ³ âĸªâĹĵâĸł
ĠâĹĹâĸ· âĸ«âĹ«
ĠâĹĹ âĸ±âĸ¨
ĠâĹĢâĹĹâĹĵ âĹ«
âĹĤâĸ¨ âĸ«
ĠâĹ§âĸ± âĸ¾âĹĵ
âĹªâĹİ âĸ±âĹ«
ĠâĹĤâĸ± âĹ¨âĹĵ
âĸ¯âĹłâĹŀ âĹ¬âĸ±
âĹŀ âĹĤâĸ¦
ĠâĹ³ âĹłâĸ«
âĹĹâĸ± âĹĹ
âĹ«âĸ¢ âĹ«
ĠâĹķâĹ« âĹĪâĹĹ
ĠâĹłâĸ¦âĸ±âĹł âĹĴ
âĹ³ âĸª
âĹªâĹŀ âĹ«
âĸŃâĹłâĸ½ âĸªâĹĵâĸł
âĸ´âĸ¨âĸ¨ âĹŃâĹĵ
âĹŀâĹ«âĸ¦ âĹĹ
âĸ· âĹłâĸ±
ĠâĹł âĹļ
Ġâĸ¨âĹĤâĹĵ âĸ¨
âĸ© âĸ±
ĠâĹİ âĹłâĹŀ
Ġâĸ· âĸ´âĹİ
âĹķ âĹłâĸ¦
Ġâĸ® âĸ´âĸ¦
Ġâĸ¨âĹł âĹİ
ĠâĹŀâĹ¨ âĹī
âĹŀ âĸ¨âĹĹ
ĠâĹŀâĸ¾ âĹī
ĠâĹ ģ
âĹĹâĸ± âĹ«
âĹİâĹª âĸ±âĹĹ
âĹĹâĸ¦ âĸ±âĹª
âĹŀâĹĹâĸ¦ âĹĹ
âĸ®âĹªâĸ¦ âĹĹ
Ġâĸ·âĹłâĸ« âĸªâĹĵ
âĹ§ âĹİ
âĹļ âĹłâĸ±
âĸª âĸ«
âĸ±âĹłâĹĵâĹ¬âĸ¦ âĹ¬
âĹī âĹłâĸ¨
ĠâĹłâĹĵâĸ« âĹ¬âĸ¨
âĸ±âĹłâĹĵâĸªâĸ¦ âĸª
ĠâĹª âĹĪâĹªâĹĵ
âĹ° âĹļâĹªâĸ«âĸł
âĸ©âĸ« âĹįâĹªâĸ¦
âĹ«âĸ¦ âĸ±âĹª
ĠâĹĹ âĸ±âĸ´
ĠâĹĢâĹ«âĹĵ âĹ«
âĹªâĹŀ âĹĹ
âĹĪâĹª âĸµ
ĠâĹķâĸ´âĹĵ âĹ«
âĹĴ âĹª
Ġâĸ½ âĹłâĹĵâĹĪâĹ¬âĹİ
âĹĵâĹł âĹŀâĸª
'âĸ¦ âĹ¬âĸ¦
ĠâĹĪâĹ§ âĹŀâĸ«
âĹ«âĸ¦ âĸ±âĸ´
Ġâĸ½ âĹłâĹĵâĹĪâĸªâĹİ
âĸªâĸ¢ âĹł
ĠâĹĢâĹ«âĸ± âĹª
ĠâĹķâĹªâĹĵ âĹ«
âĸ®âĹłâĸ¦ âĸªâĹĵ
âĸ °
âĹĪ âĹ¬âĸ¨
ĠâĹ« âĸ±âĸ¨
âĹĪâĸ´ âĸµ
âĹłâĸ±âĸ¦ âĸªâĸ¢
âĹ³ âĹĤâĸ¦
âĸº âĸº
âĹĪâĹĹ âĸł
ĠâĹķâĹ« âĹĪâĹ«
âĹ¢ âĹĹâĹİ
Ġâĸ¦âĸ´ âĹĪâĹªâĸ¦
ĠâĹķâĸ©âĸ¢ âĸ´âĸ±
âĹłâĸ±âĸ¦ âĹ¬âĸ¢
âĹ³ âĹ§âĸ¦
ĠâĹł âĸ¼
âĹłâĹĲ âĹł
ĠâĹķâĹĹ âĹĪâĹ«
âĹłâĸ¦ âĹ¬âĸ¦
ĠâĹ§ âĹĵâĸ«
'âĸ¦ âĸªâĸ¦
' âĹĹ
âĹłâĸ¦ âĸ¦
ĠâĹķâĹ£ âĸ¦
ĠâĹķâĹĹ âĹĪâĹĹ
âĸ±âĹŃ âĸ«
âĸ½ âĹ¬
ĠâĹ§âĸ± âĹ¨âĹĵ
ĠâĹķâĸ´âĹĵ âĹĹ
ĠâĹķâĹŃâĸ¢ âĸ´âĸ±
Ġâĸ¨ âĸ©âĹī
âĹİâĹª âĸ½âĸ´
ĠâĹŀâĹł âĹĪâĸ´âĸ¼âĹª
âĸ½ âĹĤâĸ¦
ĠâĹĤ âĹĵâĹłâĹĪâĹł
ĠâĹłâĹī âĸªâĸ¨
ĠâĹį âĹĹâĸ¨
ĠâĹīâĹĤâĸ¼ âĸ¾âĸ¨
ĠâĹīâĹ§âĸ¼ âĹ¨âĸ¨
ĠâĹ«âĸ· âĸ«âĹ«
âĹĹâĸ¢ âĹ«
âĹİâĹª âĹ³âĹª
âĹİâĸ´ âĸ½âĹª
âĹĪ âĸ¾âĹĵ
âĹİâĹª âĹ³âĸ´
ĠâĹķâĹĩ âĸ¦
ĠâĹŀâĹł âĹĪâĸ´âĸ¼âĸ´
âĹĹâĸ¦ âĸ±âĸ´
ĠâĹ«âĸ· âĸ«âĹĹ
' âĸ±âĹł
ĠâĹ« âĸ±âĹª
Ġâĸ¦âĹª âĹĪâĹªâĸ¦
ĠâĹķâĹªâĹĵ âĹĹ
ĠâĹł âĹ«âĸ±
ĠâĹļâĹłâĹĵ âĸł
âĹĨ âĹĩâĹĵ
ĠâĹİâĹ« âĹŀâĹ«âĸ¦?
âĹĪ âĸªâĸ¨
ĠâĹŀ âĹĹ
ĠâĹłâĸ± âĹİâĹłâĸ¨
âĹłâĹĵ âĸ´âĸ«
âĹŃ âĸ±
âĹ«âĸ± âĹĹ
âĹİâĹª âĸ½âĹª
âĸªâĸ¢ ?
ĠâĹŀ âĹ¬âĸ¨
âĸ¡ âĹłâĹĵ
âĹĿâĹłâĹĴ âĸ¨âĹł
' âĸ´
' âĹ«
Ġâĸ¦ âĸ´âĹĵâĹª
âĸ±âĹłâĹĵâĸªâĸ¦ âĹ¬
âĸ¼âĸ´âĹĲ âĹĹâĹİâĸµ
âĹİâĹª âĸ±âĹ«
âĸªâĹİ ?
âĹ¬âĸ¢ âĹł
ĠâĹŀâĹłâĹĢ âĹłâĸ·
ĠâĹ± âĸ¦
âĹŀ âĸ¨âĹ«
âĹĵâĹł âĹİ
ĠâĹĿ âĹłâĹ³
âĹĺ âĹļâĸ´âĸ«âĸł
âĹĹâĸ¢ âĹĹ
âĹĺ âĹļâĹªâĸ«âĸł
âĸ½ âĹ§âĸ¦
Ġâĸ» âĹ§
âĸ´âĹŀ âĹĹ
ĠâĹīâĹĤâĸ¼ âĹ¨âĸ¨
âĹĪ âĸ¾âĹĲ
ĠâĹŃ âĹŀâĸ«
âĹİâĹ« âĹ³âĹĤâĹĵ
ĠâĹĭ âĹİâĹł
Ġâĸ© âĹŀâĸ«
âĸ©âĸ« âĹįâĸ´âĸ¦
âĸ®âĹłâĸ¦ âĹ¬âĹĵ
Ġâĸ¾ âĹ³
ĠâĹīâĹ§âĸ¼ âĸ¾âĸ¨
âĹĪâĹ¨ âĹĲ
âĹłâĸ¦âĹķ âĹĹ
Ġâĸ¨âĹ§âĹĵ âĸ¨
âĸ« âĹ«âĹĵ
Ġâĸ¨ âĹŃâĹī
ĠâĹ§ âĹĵâĹłâĹĪâĹł
âĹŀâĹ«âĸ¦ âĹ«
âĹŀ âĹłâĸ½
Ġâĸ¦âĹª âĹĪâĸ´âĸ¦
âĹŀ âĹłâĹ³
âĹ¢ âĹłâĸ»
ĠâĹĪâĹĤ âĹŀâĸ«
âĸ¶âĹłâĸ« âĸ±
âĹłâĸ± âĸ«
ĠâĹİâĸ¾ âĹŀâĸ¾âĸ¦?
Ġ âĸ±âĹŃâĸ«
ĠâĹŀ âĹªâĹī
ĠâĹĪâĹª âĹļâĹłâĹİ
âĹļ âĸ´âĹĵ
âĸ±âĸ´ âĸ«
âĹĿ âĹłâĸ¢
Ġâĸ« âĹłâĸ·
Ġâĸ´ âĹĪâĸ´
ĠâĹ¨ âĹ³
âĹł âĸł
Ġâĸ» âĸ´âĸ¨
Ġâĸ¾ âĸ½
âĹ¬ âĸ«
âĸª âĸ±âĹİâĹł
Ġâĸ» âĹĤ
âĸ¼âĹªâĹĲ âĹ«âĹİâĸµ
âĹ§ âĹĢ
ĠâĹĤ âĸ±âĹłâĸ¼âĹłâĹĲ
âĹĺ âĸ¦
âĸ¼âĹªâĹĲ âĹĹâĹİâĸµ
âĹ¬ âĸ±âĹİâĹł
ĠâĹŀ âĸªâĸ¨
ĠâĹª âĹĪâĸ´âĹĵ
âĹ«âĸ¦ âĹĹâĸ¦
âĸ±âĸ´ âĹį
Ġâĸ¦âĸ´ âĹĪâĸ´âĸ¦
ĠâĹŀâĹĩ âĸ¢
ĠâĹĦ âĹłâĹĵ
âĹ±âĸ¦ âĹ¨
âĹĪâĹŃ âĹİâĸµ
âĸ¼âĸ´âĹĲ âĹ«âĹİâĸµ
Ġâĸ·âĹłâĹĢ âĹªâĹĵ
âĸ¾ âĸ·
Ġâĸ½ âĹªâĸ«
âĹİâĸ´ âĹ³âĸ´
Ġ 4
âĹĹâĸ¦ âĹ«âĸ¦
âĹĪâĹ« âĸł
ĠâĹĹâĹŀâĸ« âĸ´âĹĵ
âĹĺ âĸ±
âĹİâĸ´ âĹ³âĹª
ĠâĹķ âĹłâĹĵ
ĠâĹĤ âĹĵâĸ«
ĠâĹī âĹłâĹĵ
ĠâĹĪâĹĤ âĹĲâĹĵâĸ¾
âĹĢ âĹłâĹĵ
âĹ¬âĸ¦ âĹ¬âĸ¦
âĹ¦ âĸ¦âĸ¦
Ġâĸ¿ âĸ¦
' âĹª
âĹĪ âĹ¨âĹĵ
ĠâĹķâĸ´âĸ« âĹĹâĹĵ
ĠâĹĹ âĸ±âĹª
âĸ´âĸ± âĹĹ
ĠâĹĹâĹŀâĸ« âĹªâĹĵ
' âĹ³âĹł
âĸ´ âĸ·
ĠâĹª âĹĴ
âĹĤ âĹĢ
âĹ«âĹİ âĹĹ
âĹĭ âĸ¦âĸ¦
âĹĬ âĹĴ
âĸ¦ âĹķ
Ġâĸ¦ âĹªâĹĵâĹª
Ġâĸ» âĹĵâĹ§
ĠâĹ³âĹłâĸ» âĹłâĹĵ
âĸ´âĹŀ âĹ«
âĹķ âĹ¬
âĹĪâĸª âĹĲâĹ¬âĹİ
Ġâĸ´ âĹĪâĹªâĹĵ
âĸŃâĹłâĸ½ âĹ¬âĹĵâĸł
âĹª âĹį
âĹ¨ âĸ·
Ġâĸ §
ĠâĹłâĹĵ âĹłâĹİâĹł
ĠâĹ«âĹŀâĸ« âĹªâĹĵ
Ġâĸ· âĹłâĸ»
ĠâĹ§ âĸ±âĹłâĸ¼âĹłâĸ¨âĸµ
Ġâĸ» âĹªâĸ¨
âĹĿâĸ´âĸ¦ âĹĹâĹİ
âĹłâĸ± âĹ¬âĹİâĸµ
ĠâĹĢâĹ¨ âĸµ
ĠâĹŀâĹĩ âĹ³
âĹĪâĸ´âĸ¨ âĹĹ
âĸ¼ âĹłâĸ¦
ĠâĹŀ âĹłâĹĵ
âĹŀâĸ« âĸ´
âĸ´âĸ± âĹ«
âĹİâĹĹ âĹ³âĹ§âĹĵ
ĠâĹ³âĹłâĸ» âĸ«âĸª
Ġâĸ¦ âĹªâĹĵâĸ´
âĸŃ âĹªâĸ»
ĠâĹİâĹĹ âĹŀâĹ«âĸ¦?
âĹħ âĹĤâĸ¼
' âĹ¬
' âĸª
âĹĢ âĹłâĸ«
ĠâĹķâĹª âĸ¼âĹª
ĠâĹķâĸ´âĸ« âĹ«âĹĵ
âĸ¨ âĹłâĹĵ
âĹĪ âĸ©âĸ¦
ĠâĹŀ âĹłâĹ³
ĠâĹİâĸ¾ âĸ«
âĸ®âĹĤâĸ¦ âĹĵâĹł
âĸ¯âĹª âĹĪâĹªâĸ¦
ĠâĹłâĹĴ âĸ¨
âĹİâĸ¾âĹĴ âĸµ
âĹ¨âĸ¦ âĸµ
Ġâĸ½âĹłâĸ» âĹİâĹł
ĠâĹ¦ âĹİâĹł
âĹ±âĸ¦ âĸ¾
ĠâĹ³âĹłâĸ»âĹ¬âĸ½âĹ§âĹĵ âĹŀâĹ¨âĸ¦?
Ġ #
ĠâĹ« âĹĴâĸ«
âĹĵâĸ« âĸªâĸ¨
ĠâĹķâĹªâĸ« âĹĹâĹĵ
ĠâĹĢ âĹłâĹĵ
ĠâĹĿ âĹłâĸ½
ĠâĹŀâĹ£ âĹ³
âĹĵâĸ« âĹ¬âĸ¨
Ġ âĸ¾âĹİ
âĹļ âĹªâĹĵ
âĸªâĹİ âĹ¬
âĸªâĹİ âĸª
âĹİâĹ« âĸ½âĹ§âĹĵ
âĹª âĸ·
ĠâĹĤ âĸ±âĹłâĸ¼âĹłâĸ¨âĸµ
âĹİâĹĹ âĸ½âĹ§âĹĵ
Ġâĸ¦ âĸ´âĹĵâĸ´
Ġâĸ¢ âĹłâĹĵ
âĹİâĹ« âĹ³âĹ§âĹĵ
Ġâĸ«âĹªâĸ¨ âĹĵâĹłâĹĵ
ĠâĹŀâĸ´ âĹī
ĠâĹ³âĹłâĸ»âĹ¬âĸ½âĹ§âĹĵ âĹŀâĸ¾âĸ¦?
ĠâĹ ©
âĹŀ âĹłâĸ±
âĸ¶ âĹªâĸ¨
âĹİâĹĹ âĸ½âĹĤâĹĵ
Ġâĸ·âĹłâĹĢ âĸ´âĹĵ
âĸ¨ âĹłâĹŀ
âĹ¨âĹİ !
' âĸ½âĹł
âĹŀ âĸ´âĸ¨
âĸ¾ âĹĵâĹł
ĠâĹĪ âĹĹâĸ¨
ĠâĹł âĹĹâĸ±
âĹªâĹİ âĸ´âĸ¨
Ġ !
âĹ¬âĸ¢ ?
ĠâĹŀâĹ£ âĸ¢
ĠâĹ¨ âĸ¦
âĸ¯âĸ´ âĹĪâĸ´âĸ¦
âĹĪ âĹŃâĸ¦
âĹķ âĸª
ĠâĹª âĹĲ
Ġâĸ½âĹłâĸ» âĹłâĹĵ
ĠâĹİâĹ« âĹŀâĹĹâĸ¦?
Ġâĸ¨âĹłâĸ± âĹİâĹł
âĹŀâĸ´ âĸł
Ġâĸ¨ âĹ¬âĹĵ
ĠâĹĢâĹłâĸ¨ âĸµ
ĠâĹĢ âĹŃâĸ«
âĸ«âĹ« âĹİâĸµ
ĠâĹŀâĹĩ âĸ½
Ġâĸ½ âĸ´âĸ«
ĠâĹĤ âĹĵ
âĹĹâĹİ âĹĹ
ĠâĹį âĹ«âĸ¨
âĸ±âĸª âĹĴ
Ġâĸ¨âĹłâĹĵ âĹĪâĹªâĹĴ
Ġâĸ¨âĹĹ ?
âĸŃ âĸ´âĸ»
âĹŀâĹ¨âĸ¦ âĹ¨âĸ¢?
âĹİâĹĹ âĹ³âĹĤâĹĵ
Ġâĸ´ âĹĲ
Ġâĸ¨âĹ« ?
âĹ«âĸ¦ âĹ«âĸ¦
âĸ» âĹĵ
âĸªâĸ¦ âĸł
ĠâĹ³ âĸ´âĸ«
âĹĪâĹ¬ âĹĲâĸªâĹİ
Ġâĸ½âĹłâĸ» âĸ«âĸª
âĹŀâĹłâĸ¦ âĸł
ĠâĹĮ âĹĵâĹłâĸ¦
âĹłâĸ¦âĹķ âĹ«
ĠâĹİ âĹªâĹĵ
Ġâĸ» âĹĵâĹĤ
âĹŀ âĹªâĸ¨
ĠâĹķ âĸ´âĸ¦
âĸ±âĹ¬ âĹĴ
âĹĿâĹ«âĹĵ âĹłâĸ¢
âĸ®âĹªâĸ¦ âĹ«
âĹĹ âĸ·
âĹĹâĸ¦ âĹĹâĸ¦
ĠâĹĴ âĹłâĹĵâĸ¨
âĹłâĹİ âĸ»
âĹ«âĸ½âĹĤâĹĵ âĸµ
Ġâĸ¾âĸ¢ âĹłâĸ¨
Ġ âĸ±âĹłâĸ¦
âĹł âĹķ
âĹİ âĹ¨
âĸ¼ âĹłâĹĲ
Ġ âĸ´âĸ¨
âĹ¨ âĸµ
âĸ© âĹŀ
âĹİâĹª âĸµ
ĠâĹĹ âĹŀ
âĹŀâĹĹâĸ¦ âĸł
ĠâĹŀâĹ£ âĸ½
âĸªâĸ¦ âĸªâĸ¦
âĹĹâĸ¢ âĸł
ĠâĹ³âĹłâĸ» âĹİâĹł
âĸ¯âĹłâĹŀ âĸªâĸ±
ĠâĹ«âĹŀâĸ« âĸ´âĹĵ
âĸ¿âĸ¦ âĸ¾
ĠâĹ§ âĹĵ
ĠâĹ« âĸ¨âĹ«
âĹĵ âĸµ
ĠâĹļ âĸ¾âĹĵ
âĹłâĸ« âĸª
âĹİâĸ´ âĸ½âĸ´
âĸ±âĹ« âĹŀ
Ġâĸ¨âĹłâĹĵ âĹĪâĸ´âĹĴ
âĹİâĹ¨âĹĴ âĸµ
ĠâĹĪ âĹĩ
ĠâĹķ âĹªâĸ¦
âĹĹâĹİ âĹ«
âĸ±âĸ´âĹĵ âĸł
ĠâĹ³âĹłâĸ» âĸ«âĹ¬
âĹĹâĹ³âĹĤâĹĵ âĸµ
âĹĴ âĸ´
ĠâĹ« âĸ¨âĹĹ
âĹ«âĸ¢ âĸł
ĠâĹĪâĸ´ âĹļâĹłâĹİ
ĠâĹĪâĹ§ âĹĲâĹĵâĸ¾
âĹĪâĸ© âĹİâĸµ
âĹĿâĹłâĸ¨ âĸł
âĸ« âĹłâĸ¨
ĠâĹĹ âĸ¨âĹĹ
âĹĪâĹª âĸł
âĹĪâĸ´ âĸł
Ġâĸ® âĹł
âĹŀâĹł âĸ¸
âĹĿâĹªâĸ¦ âĹĹ
ĠâĹĪâĹłâĸ¨ âĹ«âĸ¨âĹł
âĸ¶ âĹłâĹİ
âĹ° âĸ±
âĹĸ âĹ«âĹİâĹĪâĹ«
âĹŀâĹª âĸł
ĠâĹĪâĹĤ âĹĲ
Ġâĸ«âĸ´âĸ¨ âĹĵâĹłâĹĵ
ĠâĹķâĹªâĸ« âĹ«âĹĵ
ĠâĹŀ âĹªâĹĵ
âĹłâĸ± âĸªâĹİâĸµ
ĠâĹĴ âĹĹâĹİâĹĪâĹĹ
ĠâĹĪâĹ§ âĹĲ
ĠâĹĢâĹłâĹĢ âĹłâĹİ
ĠâĹļ âĹ¨âĹĵ
ĠâĹİâĹ« âĸ½
âĹŃ âĹŀ
âĹŀâĹ«âĸ¦ âĸł
ĠâĹ§âĸ¦ âĹ¨âĸ¦
âĹĪ âĹŃâĹĵ
âĸ« âĹ¬âĹİâĸµ
âĸ¾ âĹİâĹł
âĹİâĹ« âĸ½âĹĤâĹĵ
âĸ¯âĹª âĹĪâĸ´âĸ¦
ĠâĹķâĹŃ âĹī
âĹ¬âĹİ ?
âĹ³ âĸ¾âĸ¦
Ġâĸ« âĸ´âĹĵ
ĠâĹĢ âĸ©âĸ«
âĹ¬âĸ¦ âĸªâĸ¦
ĠâĹ§âĸ¦ âĸ¾âĸ¦
âĸ±âĹªâĹĵ âĸł
ĠâĹīâĹłâĸ± âĸªâĹĴâĸ«
ĠâĹİâĹ¨ âĸ«
' âĹ¨âĸ¦
âĹĿ âĹĩ
âĸ±âĹª âĹį
ĠâĹļâĹłâĹĵ âĹĪâĹ¬âĸµ
ĠâĹİâĹĹ âĹŀâĹĹâĸ¦?
ĠâĹİ âĹłâĸ¨
âĸ¶ âĸ´âĸ¨
âĸªâĹİ âĸªâĸ¢
âĹİ âĹŃâĹĴ
âĹķ âĸ¾
ĠâĹłâĸ¦ âĸ±âĹłâĹİâĹł
Ġâĸ½âĹłâĸ» âĸ«âĹ¬
ĠâĹķâĹª âĸ¼âĸ´
âĸ®âĸ´âĸ¦ âĹĹ
âĹĪâĹªâĸ¨ âĹ«
âĸªâĸ¦ âĹ¬âĸ¦
ĠâĹ³ âĹªâĸ«
âĹłâĸ« âĹ¬
âĸ¢âĹķ âĸ©âĸ¦
ĠâĹĤâĸ¦ âĸ¾âĸ¦
ĠâĹ£ âĸ½âĸ±âĸ´
ĠâĹİâĹĹ âĸ½
âĸ®âĸ´âĸ¦ âĹ«
Ġâĸ¨âĹĩ âĸ«âĹŃ
âĸ´âĸ¨âĸ¨ âĸ©âĹĵ
âĹİâĹłâĸ¦ âĹ¬
âĹĸ âĹ«âĹİâĹĪâĹĹ
âĸ« âĹĹâĹİâĸµ
Ġâĸ¨ âĸªâĹĵ
Ġâĸ¨ âĹªâĹŀ
âĹĿ âĹ£
ĠâĹ§ âĹĪâĹł
âĹĪâĹ¬ âĹĲâĹ¬âĹİ
ĠâĹłâĸ¦âĸ±âĹł âĹİ
âĹŀ âĹłâĸ¦âĹł
Ġâĸ½ âĸªâĸ±
âĸ¬ âĸ·
âĹłâĹĵ âĹªâĸ«
âĸ© âĸµ
âĹ«âĹİ âĹ«
ĠâĹª âĹĵâĸ¨
âĹĪâĸ´âĸ¨ âĹ«
âĹŃ âĸ¼
ĠâĹİâĹ« âĹ³
âĸ¿âĸ¦ âĹł
âĹ¨ âĹİâĹł
ĠâĹĢâĸ¾ âĸµ
ĠâĹłâĹĵ âĹłâĹĴ
ĠâĹĩ âĹ³âĸ±âĸ´
âĹļâĸ´âĸ« âĸµ
Ġ âĸ¾âĹĲ
âĹİ âĸ©âĹĴ
ĠâĹĪ âĹŃâĸ¢
âĸ±âĹł âĸµ
âĹĪâĸª âĹĲâĸªâĹİ
ĠâĹİâĹĹ âĹ³
âĹĿâĹªâĸ¦ âĹ«âĹİ
ĠâĹĭ âĸ¦
âĹī âĸ´
âĹķ âĹª
âĸ¶ âĹłâĹĢ
âĹ³ âĸł
ĠâĹĪ âĹ£
Ġâĸ½âĹłâĸ» âĹİâĹłâĸ¨
ĠâĹķâĹ£âĹĵ âĸ©âĹĴ
âĸ¿âĸ¦ âĹ¨
âĸ© âĸ»
âĸ· âĸ¦
âĹĭ âĸ±
Ġâĸ® âĹłâĸ¦
ĠâĹĤâĸ¦ âĹ¨âĸ¦
âĹĿâĹªâĸ¦ âĹĹâĹİ
âĸ«âĹĵ âĹ§âĸ±
Ġ âĸ´âĹĵâĸ¨
âĹŃ âĸ»
ĠâĹ£âĹĲâĹĵ âĹªâĸ¦
âĹĴ âĸ¨
âĸ¯âĸ´ âĹĪâĹªâĸ¦
ĠâĹłâĹŀ âĸ±
ĠâĹķâĸ´ âĸ¼âĸ´
âĹĵ âĹªâĸ¦
Ġâĸ¨âĹł âĹļ
âĹĿâĸ´âĸ¦ âĹ«âĹİ
Ġâĸ·âĹ«âĹī âĹĢâĹĹâĹĵ
âĹĵ âĸ´âĸ¦
âĹłâĸ¨ âĸ¨
âĸ¶ âĹªâĹĴ
ĠâĹĢâĹ¨ âĸ±âĹĪ
Ġâĸ´ âĹĴ
ĠâĹ³âĹłâĸ» âĹİâĹłâĸ¨
âĸ¾âĸ¨ âĸµ
ĠâĹĪâĹĤ âĹĲâĹĵâĹ¨
âĹłâĸ±âĹł âĸł
ĠâĹķâĸ© âĹī
âĸ½ âĸł
ĠâĹ³ âĸªâĸ±
ĠâĹĴ âĹ«âĹİâĹĪâĹ«
âĸ±âĹĹ âĹŀ
âĸ±âĹłâĹĵâĹ¬âĸ¦ âĹł
ĠâĹĢ âĹ§âĹĴ
âĸ´âĹİ âĸ´âĸ¨
âĹĸ âĹĹâĹİâĹĪâĹ«
âĹĿâĸ´âĸ¦ âĹĹ
âĹį âĹłâĸ¨
âĸ®âĹł âĹĪâĸ´âĸ¼âĹª
âĸ«âĹĵ âĹĤâĸ±
âĹĸ âĹĹâĹİâĹĪâĹĹ
âĹĪâĸªâĸ¦ âĸµ
âĹłâĹĢâĹł âĸł
âĸ®âĹł âĹĪâĹªâĸ¼âĹª
âĹĿâĹłâĹĢ âĹłâĹİ
âĹĵ âĸ¨âĹłâĹĪâĹłâĹĴ
ĠâĹīâĹłâĸ± âĹ¬âĹĴâĸ«
âĸ±âĹłâĹĵâĸªâĸ¦ âĹł
âĹ«âĹ³âĹĤâĹĵ âĸµ
ĠâĹĢâĸ¾ âĸ±âĹĪ
âĹ¤ âĹłâĸ»
âĸ« âĹ«âĸ¦
âĸ½ âĸ¾âĸ¦
ĠâĹļâĹłâĹĵ âĹĪâĸªâĸµ
âĹĪâĹ¬âĸ¦ âĸµ
âĸ´ âĸ±âĹĪ
âĹŀ âĹªâĹİ
âĹ¬âĸ¦ âĸł
âĹĬ âĹī
âĹŀ âĸ´âĸ±
âĹ³ âĸµ
âĸ© âĸ¼
âĹĻ âĹ§
ĠâĹķâĹ£âĹĵ âĸ´
âĹłâĸ±âĹłâĹĵ âĸª
Ġâĸ¨âĹĩ âĸ«âĸ©
âĸ« âĸªâĹİâĸµ
âĹ¬ âĹİâĹł
âĹŃ âĸµ
âĹĿâĹªâĸ¦ âĹ«
ĠâĹĪâĹ§ âĹĲâĹĵâĹ¨
âĹļâĹªâĸ« âĸµ
Ġ1 0
âĹĪâĹªâĸ¨ âĹĹ
âĹ« âĹŀâĸ«
ĠâĹĪ âĹ«âĸ¨
Ġâĸ¨ âĸ´
âĹİâĸ´ âĸ¢âĸµ
âĹĪ âĸªâĸ¨âĸµ
Ġâĸ¨ âĸ´âĹŀ
âĹ¢ âĹłâĹī
ĠâĹ£ âĹ³âĸ±âĸ´
âĹĺ âĹĲâĸ´âĹĵ
Ġâĸ¶ âĸ´âĹĴ
âĹĹâĸ½âĹ§âĹĵ âĸ¾âĹİâĸµ
âĸ« âĸªâĹĵ
Ġâĸ· âĸ´
ĠâĹĤ âĹĪâĹł
Ġâĸ¨âĹ£ âĸ«âĹŃ
ĠâĹĪ âĸ©âĸ¢
âĹ« âĸ·
âĹĪ âĸ¾âĹİ
ĠâĹ³ âĹ¬âĸ±
âĹ¨âĸ¦ âĸ¼âĹł
ĠâĹĴ âĹĹâĹİâĹĪâĹ«
âĹİâĸ´ âĸµ
âĹĪâĹ¬ âĸł
Ġâĸ© âĹī
ĠâĹ¨âĸ¢ âĹłâĸ¨
âĹŀ âĸ´âĹİ
âĹ¬âĹİ âĹ¬
Ġâĸ±âĹłâĸ¢ âĸªâĹİâĸµ
ĠâĹ« âĹŀ
âĸ±âĸ´ âĸµ
âĹ² âĹĴ
ĠâĹŃ âĹī
âĹ³ âĸ¾
ĠâĹŀ âĸ´âĹĵ
ĠâĹī âĹłâĹĢ
ĠâĹĴ âĹ«âĹİâĹĪâĹĹ
âĹłâĹİâĹł âĸ¨
âĹ¬âĹİ âĸªâĸ¢
âĸ®âĹł âĹĪâĸ´âĸ¼âĸ´
ĠâĹĹ âĸ¨âĹ«
Ġâĸ« âĹłâĹļ
âĸªâĹİ âĹ¬âĸ¢
âĹ¨âĹİ âĹĪâĹł
ĠâĹķâĹĩâĹĵ âĹª
âĹ¬ ?
âĹłâĸ± âĹ¬âĸ¨
âĹĨ âĹ£âĹĵ
ĠâĹĪâĹłâĸ¨ âĹĹâĸ¨âĹł
' âĹĪâĸ´
ĠâĹĹ âĹĴâĸ«
âĸ´âĹİ âĹªâĸ¨
Ġâĸ¨âĹ£ âĸ«âĸ©
âĹĹâĸ½âĹĤâĹĵ âĸµ
Ġâĸ½ âĹ¬âĸ±
âĹĹ âĹ³âĹ§âĹĵâĸµ
âĹŀâĸ¾âĸ¦ âĹ¨âĸ¢?
Ġâĸ¨âĹłâĸ± âĸ¨
âĹ° âĹļ
Ġâĸ·âĹĹâĹī âĹĢâĹĹâĹĵ
ĠâĹĢâĹłâĹĲ âĸ±âĹłâĸ¦
âĹŀ âĹªâĸ±
ĠâĹĢ âĸ´âĹĵ
âĹĪâĹ« âĹĴ
âĹ¢ âĹłâĸ±
âĹłâĸ¼ âĸ¨
ĠâĹĳ âĹª
âĸ¶âĹłâĸ«âĸ± âĸªâĹİ!
' âĸ¾âĸ¦
âĹłâĸ± âĸªâĸ¨
ĠâĹĢâĹĹâĹĵ âĸ¨âĹłâĹī
ĠâĹĳ âĸ´
âĸª âĹİâĹł
ĠâĹĢ âĹ«âĸ¦
Ġâĸ« âĹªâĹİ
âĸ®âĹł âĹĪâĹªâĸ¼âĸ´
Ġâĸ¨âĸ¾âĹĵ âĸ«âĹłâĹĵ
ĠâĹĢ âĹĹâĸ¦
âĸ±âĹł âĹİâĹ¬
âĹ±âĸ¦ âĹł
ĠâĹĢ âĹĤâĹĴ
âĹ¨ âĹ³âĹĤâĹĵ
âĸ² âĹŃâĸ«
ĠâĹĢ âĹªâĹĵ
âĹ¨ âĹ³âĹ§âĹĵ
âĹĪâĸª ?
âĸ¾âĹİ âĸ¾
âĹłâĸ±âĹłâĹĵ âĹ¬
Ġâĸ¨ âĹ¨
âĸ´âĸ± âĸ´âĸ¦
ĠâĹĪâĹª âĹİâĸ´âĸ¨
âĹ¬âĸ¢ âĸł
ĠâĹķâĹŃ âĹļâĸ´âĸ¦
ĠâĹĩâĹĲâĹĵ âĸ´âĸ¦
âĸ¨ âĸ´
Ġâĸ« âĸ´âĹİ
âĹŁ âĹłâĸ»
ĠâĹ¦ âĸ±
âĸ¼âĹªâĸ¨ âĸµ
âĸ« âĹĹâĸ¦
âĹŀ âĹ¨âĸ¢
âĸ½ âĸµ
ĠâĹİ âĸ´
Ġâĸ¨âĹł âĹŀ
âĹ¦ âĸ±
ĠâĹķâĹ£âĹĵ âĹª
âĹ° âĹĲâĹªâĹĵ
Ġ âĸµ
âĸ« âĸ¾
ĠâĸŃ âĹłâĹĵ
âĹ² âĹī
âĹ« âĸ½âĹ§âĹĵâĸµ
âĹķ âĹ¨
âĹ¬âĹİ âĸª
âĹĿâĸ´âĸ¦ âĹ«
âĸ½ âĸ¾
âĹ¨ âĸ½âĹĤâĹĵ
âĹĻ âĹĤ
Ġâĸ¨âĹ¨âĹĵ âĸ«âĹłâĹĵ
âĸ« âĹ¬âĹĵ
âĹĪâĸª âĸł
ĠâĹ£âĹĲâĹĵ âĸ´âĸ¦
Ġâĸ´âĹĪâĸ´âĹĵ âĹĹâĹİâĸµ
âĹĪ âĹ¨âĹİ
âĹī âĹª
ĠâĹĹâĹŀâĸ« âĹĹâĹ³âĹ§âĹĵ
âĹİâĹłâĸ¦ âĸªâĸ¦
Ġâĸ·âĹ«âĹī âĹĢâĹ«âĹĵ
âĸ¾âĸ¦ âĸµ
âĹĪâĹĹ ?
âĹ° âĹĲâĸ´âĹĵ
ĠâĹłâĹŀ âĸ¨
Ġâĸ¢âĹ§âĹĵ âĸ¾âĸ¦âĹĪâĹł
Ġâĸ¢âĹĤâĹĵ âĸ¾âĸ¦âĹĪâĹł
ĠâĹĩâĹĲâĹĵ âĹªâĸ¦
âĹł âĹĪâĹł
ĠâĹİ âĸ´âĹĵ
ĠâĹį âĹłâĸ¨âĹłâĸ«
âĸ¾âĹİ âĹĪâĹł
ĠâĹĢâĹĹâĸ± âĹĹâĹ³âĹĤâĹĵ
âĹŃâĸ¢ âĸµ
ĠâĹķâĸ© âĹļâĹªâĸ¦
âĹĹ âĸ¼
âĹ« âĸ¼
ĠâĹł âĸ±âĹłâĸ¼âĹłâĹĲ
âĹİâĹłâĸ¦ âĸª
âĹĿâĹĹâĹĵ âĹłâĸ¢
Ġâĸ«âĸ´ âĸ·
âĹĪ âĸ©âĹĵ
âĸ½ âĹ¬âĹİâĸµ
âĸ½ âĸªâĹİâĸµ
ĠâĹĢ âĹªâĹĢ
ĠâĹĹâĹŀâĸ« âĹ«âĹ³âĹĤâĹĵ
âĹĺ âĹĲâĹªâĹĵ
ĠâĹŀâĹłâĸ¦ âĹ¬âĹĵ
âĹĮ âĹłâĸ¨âĹłâĸ«
âĹİ âĸ¢
âĸ´ âĹĲ
ĠâĹĢâĹ«âĹĵ âĸ¨âĹłâĹī
âĹ¤ âĹłâĹĵ
âĹĪ âĹ¬âĸ¨âĸµ
Ġâĸ¨ âĹªâĸ¢
âĹłâĹĢ âĹłâĸ¦
Ġâĸ«âĹłâĸ¦ âĸ´
Ġâĸ±âĹłâĸ¢ âĹ¬âĹİâĸµ
âĸ± âĹŃâĹİ
ĠâĹİ âĹª
ĠâĹłâĹİâĹł âĸµ
âĹĪâĹł âĹļ
âĹªâĹİ âĹªâĸ¨
Ġâĸ·âĹĹâĹī âĹĢâĹ«âĹĵ
ĠâĹķâĹŃ âĹļâĹªâĸ¦
00 0
âĸ¾ âĹī
âĹłâĹİ âĹ¬
âĹİâĹª âĸ¢âĸµ
âĹ¢ âĹ¬âĸ¢
ĠâĹĢâĹ«âĸ± âĹĹâĹ³âĹĤâĹĵ
ĠâĹĭ âĸ±
Ġâĸ¨âĹłâĸ» âĸª
âĹİâĹłâĹİ âĸªâĸ¢
âĹłâĹĵ âĸµ
Ġâĸ¨ âĸ¾
ĠâĹĤ âĸ¨
âĹłâĹİâĹł âĸ½
âĸ¾âĹİ !
Ġâĸ¨âĹ« âĸł
Ġâĸ¨âĸ´âĸ¦ âĹĪâĹĹ
âĸªâĸ¢ âĸł
ĠâĹłâĸ¨ âĸ±
' âĹĪâĹª
âĸ« âĹªâĹĵ
âĸ¾ âĹ³âĹĤâĹĵ
âĹ¨ âĹī
âĹĴ âĸ´âĹ³
âĹĪâĹĹ âĸ¨âĸµ
âĸªâĹİ âĹĪâĹł
Ġâĸ¨âĹ§âĸ¦ âĹ¨
âĸ®âĸ´âĸ¦ âĹĹâĸ¦
âĸ®âĹ§âĸ¦ âĹĵâĹł
âĸ± âĸ©âĹİ
âĸ« âĸ´âĹĵ
ĠâĹĢ âĹłâĹ³
âĸ® âĹłâĸ¨
âĹ¬âĹİ âĹ¬âĸ¢
âĹŀâĹ¨âĸ¦ âĸ¾âĸ¢?
Ġâĸ¨âĹĤâĸ¦ âĸ¾
Ġ âĸµâĸµ
âĸ¾ âĹ³âĹ§âĹĵ
âĹĲ âĹĵâĹł
ĠâĹİ âĹĹâĸ±
ĠâĹłâĸ± âĹİâĹł
Ġâĸ¶ âĹłâĹİâĹłâĹİ
ĠâĹ¡ âĹĤ
ĠâĹ§âĸ±âĹĪ âĸ¾
ĠâĹĪ âĹłâĸ·
Ġâĸ¨âĹ§âĸ¦ âĸ¾
Ġâĸ¾ âĹī
ĠâĹķâĸ© âĹļâĸ´âĸ¦
âĹ« âĹ³âĹ§âĹĵâĸµ
âĸ¾ âĸ½âĹ§âĹĵ
âĹ«âĸ¦ âĹķ
ĠâĹ§ âĸ¨
âĹłâĹĢ âĹªâĹĵ
ĠâĹĢâĹ«âĸ± âĹ«âĹ³âĹĤâĹĵ
ĠâĹĢâĹªâĸ¦ âĸ¢
ĠâĹĢâĹłâĸ· âĹŀâĸ´
ĠâĹĪ âĹłâĸ±
âĸ±âĸ´ âĹĴ
âĹłâĹİâĹł âĹ³
ĠâĹķâĸ´ âĸ±âĸ´
âĹİâĹłâĸ¦ âĹ¬âĸ¦
âĹŀâĸ± âĸªâĸ¦âĹĪâĹł
âĹ¢ âĸªâĸ¢
Ġâĸ¢âĹłâĹİâĹłâĸ¦ âĹĪâĹł
âĹ¤ âĹł
âĹ¬ âĹĵâĹł
âĹ³ âĹ¨
âĹĲ âĸªâĸ¦âĹĪâĹł
âĹİâĹł âĸł
âĸ±âĹª âĹĴ
âĹ«âĸ¨ âĹłâĸ½
ĠâĹ¨ âĹī
Ġâĸ¨âĹłâĹī âĹ¬âĹĵ
âĸ¨ âĹª
ĠâĹĴ âĹłâĸ¦
âĹ¢ âĹĤâĸ¦
âĸ®âĹªâĸ¦ âĹĹâĸ¦
âĹİâĹłâĹ³ âĸª
ĠâĹĹâĸ¢ âĹ«âĸ¦
âĹİ âĹ¨âĹĴâĸ«
âĸª âĹŀ
âĹĴ âĹªâĸ½
ĠâĹĩ âĸ½âĸ±âĹª
âĹŁ âĹłâĹĵ
Ġâĸ¨âĹĤâĸ¦ âĹ¨
ĠâĹĢ âĹłâĹĢâĹł
ĠâĹŀ âĹ§
âĹ«âĸ¦ âĸł
âĹĿ âĹłâĹ³
âĹĪâĹ« ?
âĸŃ âĹłâĸ«
ĠâĹ£ âĹ³âĸ±âĹª
ĠâĹ«âĹŀâĸ« âĹ«âĹ³âĹ§âĹĵ
ĠâĹķâĹĩâĹĵ âĸ´
âĸ¼âĸ´âĸ¨ âĸµ
ĠâĹĢâĹĩ âĸ½âĸ±âĸ´
âĹł âĸ¸
âĸ¦ âĹĹ
âĹĪ âĸ´âĸ±
ĠâĹķ âĹłâĸ¢
âĹĪâĹ« âĹĲâĹĹ
ĠâĹĩ âĸ½âĸ±âĸ´
ĠâĹį âĹ«âĸ±
âĹ¨âĹİ âĹ¨
ĠâĹĢâĹ«âĸ± âĹ«âĹ³âĹ§âĹĵ
ĠâĹĢâĹłâĸ¦âĹł âĸµ
âĹĵâĸª âĸ¼âĹł
âĹĹâĸ¦ âĹķ
âĹĿ âĹłâĸ½
âĹłâĸ¨ âĹł
âĹłâĸ± âĹĹ
âĹ¨âĹİ âĸ¾
âĹ¥ âĹī
Ġâĸ¨âĹªâĸ¦ âĹĪâĹ«
ĠâĹĴâĹªâĸ¨ âĹ«âĸ±
âĹĹâĸ¦ âĹ«âĸ¢
âĹłâĸ± âĹ¬âĹİ
âĹķ âĸ¾âĸ¦
âĹłâĹĢ âĸ´âĹĵ
ĠâĹĪâĸ´ âĹİâĹªâĸ¨
ĠâĹ«âĹŀâĸ« âĹ«âĸ½âĹĤâĹĵ
ĠâĹ§âĸ± âĹ¨âĸ½âĹ§âĹĵ
ĠâĹŀâĹ« âĸ±âĹłâĸ·
Ġâĸ¢âĹłâĹĵ âĹłâĹĵ
âĹª âĸ±âĹĪ
âĹĴ âĹªâĹ³
ĠâĹķ âĹĵ
ĠâĹĢâĸ´âĸ¦ âĸ¢
âĸ´âĹİ âĸ±âĹĹ
ĠâĹĺ âĹļâĸ´âĸ«âĸł
âĹİâĹłâĸ½ âĸª
âĸ± âĹĤ
âĹŀ âĸ»
ĠâĹĢ âĹłâĸ½
âĹłâĸ¦ âĸ´
âĸ±âĹª âĸµ
ĠâĹĢâĸ¾ âĹĵâĹłâĹ³âĹł
Ġâĸ·âĹłâĹĵ âĹ«âĸ¨âĹł
âĸ§ âĸ¦
Ġâĸ¢âĹ§âĹĵ âĹ¨âĸ¦âĹĪâĹł
ĠâĹŃâĸ¢ âĹªâĹĵ
âĹŀâĸ± âĹ¬âĸ¦âĹĪâĹł
âĹŃ âĹİâĸµ
âĹĿ âĹŃ
Ġâĸ· âĹª
âĹĪâĹĹâĸ¦ ?
âĹ« ?
ĠâĹŀ âĸ´âĹŀ
âĹ«âĸ¦ âĹ«âĸ¢
Ġâĸ« âĸ©âĹĵ
Ġâĸ® âĹłâĸ¦âĹł
âĹŀâĸªâĸ¦ âĹł
ĠâĹ¢ âĹłâĹĵ
âĹĺ âĹļ
âĹĹ âĸ½âĹ§âĹĵâĸµ
ĠâĹ£ âĸ½âĸ±âĹª
ĠâĹķâĹªâĹī âĹ«âĹĵ
Ġâĸ¨âĸ´âĸ¦ âĹĪâĹ«
Ġâĸ¢âĹĤâĹĵ âĹ¨âĸ¦âĹĪâĹł
Ġâĸ¢âĹłâĸ« âĸ´âĸ¦
âĸ½ âĹ¨
âĹŃâĹĵ âĸ©
Ġâĸ¦âĸ´ âĹį
âĹłâĹİ âĸª
âĹŀâĸ¾âĸ¦ âĸ¾âĸ¢?
ĠâĹķâĹ£ âĸ«âĹŃâĹĵ
Ġâĸ½âĹłâĸ» âĹłâĸ¼âĹłâĹĲ
ĠâĹĢâĹĹâĸ± âĹ«âĹ³âĹ§âĹĵ
âĹĪâĹ«âĸ¦ ?
âĸ±âĹĹâĸ¨ âĸ«âĸ´
Ġâĸ¨âĹĹ âĸł
âĹĪâĹĹâĹİ âĸł
ĠâĹĪâĹĹâĸ¨ âĸ¨âĹłâĸ«
âĹŀ âĸ¾âĸ¢
âĹłâĸ¦ âĹª
âĹī âĹ¬
ĠâĹĴ âĹłâĹĴ
âĹİâĹłâĸ½ âĹ¬
âĸ´ âĹĪ
âĸ· âĹªâĹĵ
âĹ¨âĸ¦ âĹĪâĹłâĸ¦
âĸ¯ âĸ´âĸ±âĸ´âĹĵ
ĠâĹĢâĹ«âĸ± âĹ«âĸ½âĹĤâĹĵ
ĠâĹĢâĹĹâĸ± âĹ«âĹ³âĹĤâĹĵ
âĸ±âĹĹâĸ¨ âĸ«âĹª
Ġâĸ«âĹłâĸ« âĸ±âĹ¬
Ġ âĸ´âĹĵ
âĹĪ âĹ¨âĸ¨
âĹ«âĸ¦ âĹĹâĸ¢
âĹİâĹª âĹŀâĹĹ
ĠâĹĢâĹ¨ âĹĵâĹłâĸ½âĹł
âĹŀâĹ«âĸ¦ âĸ´
âĸ¾âĹİ âĹ¨
âĹŀâĸªâĸ¦ âĸł
ĠâĹķâĸ´âĹī âĹĹâĹĵ
Ġâĸ¨âĹłâĹĢ âĸ¾âĸ±
ĠâĹŀâĹĹ âĸ±âĹłâĸ·
âĹī âĸª
ĠâĹķâĹĩâĹĵ âĹŃâĹĴ
âĹĬ âĸ¦âĹŀâĹłâĸ¦
âĹİâĹłâĹ³ âĹ¬
ĠâĹķâĹĩâĹŀâĸ« âĹªâĹĵ
Ġâĸ¾âĹĲ âĹĵâĹł
âĹ³ âĸªâĹİâĸµ
ĠâĹŀ âĹĤâĸ¨
âĹĹâĸ¦ âĹĹâĸ¢
âĹłâĸ± âĹ«
âĹĵâĹł âĹĢ
âĹĪâĹª âĸ½
ĠâĹłâĹĵ âĹłâĹĢâĹł
ĠâĹķâĹĩ âĸ«âĹŃâĹĵ
ĠâĸŃ âĹł
âĹŀâĸªâĸ¦ âĹ¬
âĹĹâĸ¦ âĸł
âĸ±âĹª âĸ½
Ġâĸ¦ âĹ¨âĹİ
ĠâĹĪâĹª âĹİâĹªâĸ¨
âĹ¬âĹİ âĹĪâĹł
ĠâĹ«âĸ¢ âĹĹâĸ¦
âĹİ âĸ´âĹĵ
âĸ¨ âĸ±
âĸ¾ âĸ½âĹĤâĹĵ
âĹķ âĹ¬âĸ¦
ĠâĹĢâĹ¨ âĹĵâĹłâĹ³âĹł
ĠâĹĢâĸ¾ âĹĵâĹłâĸ½âĹł
Ġâĸ¯ âĹłâĹŀ
ĠâĹĴâĸ´âĸ¨ âĹĹâĸ±
ĠâĹłâĸ½âĸ¦ âĹ¬
Ġâĸ¢âĹłâĸ« âĹªâĸ¦
âĹĴ âĸ´âĸ½
âĸ¶ âĹŃâĹİ
ĠâĹĿ âĹłâĸ¨
ĠâĹĪâĹł âĸµ
ĠâĹ«âĹŀâĸ« âĹĹâĹ³âĹĤâĹĵ
ĠâĹĢâĹĹâĸ± âĹĹâĹ³âĹ§âĹĵ
ĠâĹ¦ âĸ¦
ĠâĹħ âĹĤâĸ¨
âĹ©âĸ¦ âĹªâĹİâĸ±âĹ«
ĠâĹİ âĹłâĸ¦
Ġâĸ¦ âĸ¾âĹİ
ĠâĹĩ âĹ³âĸ±âĹª
ĠâĹ³âĹłâĸ» âĹłâĸ¼âĹłâĸ¨
ĠâĹ«âĹŀâĸ« âĹ«âĹ³âĹĤâĹĵ
ĠâĹĢâĹĹâĸ± âĹ«âĸ½âĹĤâĹĵ
ĠâĹ¨ âĹİ
Ġâĸ«âĹłâĸ¦ âĹª
ĠâĹ§âĸ±âĹĪâĸ¾âĹĲ âĹ¨âĸ¦âĸ¾
âĸ´ âĹĢ
Ġâĸ¨ âĸ´âĸ¢
âĹ¬âĸ¦ !
âĸ´âĸ± âĹªâĸ¦
âĹĻ âĸ©âĸ¦
ĠâĹį âĹĹâĸ±
ĠâĹĹâĹŀâĸ« âĹĹâĹ³âĹĤâĹĵ
ĠâĹªâĸ« âĹİâĸ´
âĸ¸ âĹłâĸ¦
Ġâĸ¨âĹłâĸ» âĹ¬
Ġâĸ¨âĹłâĹĢ âĹ¨âĸ±
ĠâĹĤâĸ±âĹĪ âĸ¾
âĹĪâĹ« âĸ¨âĸµ
ĠâĹĵ âĹªâĹŀ
ĠâĹĵ âĸ´âĹŀ
âĹİ âĹªâĹĵ
âĹĲ âĹ¬âĸ¦âĹĪâĹł
ĠâĹŀ âĹĤ
Ġâĸ® âĸ·
âĹªâĹİ âĸ±âĹĹ
ĠâĹķâĹª âĸ±âĹª
ĠâĹ¨ âĹĲâĹĵâĹł
Ġâĸ¶âĸ´âĹĴ âĹªâĸ¨âĸ¨âĸ©âĹĵ
âĹ³ âĹ¬âĹİâĸµ
âĸ±âĹł âĹŀ
âĹĨâĹªâĹĵ âĹīâĹªâĸ¨
âĹ¢ âĹł
âĹİâĹłâĸ¨ âĸ«âĹłâĸ¦
âĹħ âĹ§âĸ¼
âĹŁ âĹł
Ġâĸ·âĹłâĹ³ âĹłâĸ±
Ġâĸ¨âĹªâĸ¦ âĹĪâĹĹ
Ġâĸ« âĹŃâĹĵ
âĹŀâĹ¬âĸ¦ âĹł
âĹĦ âĹłâĹĵ
Ġâĸ·âĹłâĸ½ âĹłâĸ±
Ġ âĸ±âĹ«
âĹł '
ĠâĹ Ľ
ĠâĹŀ âĹªâĹŀ
âĹĪâĹ¬ ?
âĸ¾âĹİ âĹ¨âĸ¢
ĠâĹ«âĹŀâĸ« âĹĹâĹ³âĹ§âĹĵ
âĸ®âĸ´âĸ¦ âĹ«âĸ¦
âĹĲâĸªâĸ¦ âĹ¬
Ġâĸ«âĹª âĸ·
ĠâĹ§âĸ±âĹ¨âĸ½âĹ§âĹĵ ?
âĸ« âĸµ
Ġâĸ¨ âĸ¾âĸ«
âĹŃ âĸ»âĸ·
âĸªâĸ¦ !
âĹ«âĸ½âĹ§âĹĵ âĸ¾âĹİâĸµ
Ġâĸ·âĹłâĹļ âĹł
ĠâĹ ®
âĸ¦ âĹ«
âĹĹ ?
ĠâĹĢ âĹłâĸ¦
ĠâĹŀ âĹªâĹĢ
ĠâĹł âĹİ
âĹĪâĹ¬ âĹĲâĹ¬âĸ¦
ĠâĹłâĸ± âĹłâĸ¦
ĠâĹ«âĹŀâĸ« âĹĹâĸ½âĹĤâĹĵ
Ġâĸ¨âĹłâĸ± âĹłâĸ¦
ĠâĹķâĸ´âĹī âĹ«âĹĵ
Ġâĸ¨âĹ¬ âĹŀ
âĹħâĹĤâĸ¼ âĸ¾âĸ¨
Ġ 6
âĹİ âĸ¾âĹĴâĸ«
âĸ© âĹĴâĸ«
âĹŀâĹĹâĸ¦ âĹª
ĠâĹŀâĹłâĸ¦ âĸªâĹĵ
âĸ®âĹªâĸ¦ âĹ«âĸ¦
ĠâĹĢâĹ£ âĸ½âĸ±âĹª
âĸ¨ âĹ«âĸ±
âĹī âĸµ
ĠâĹł âĸ¼âĸª
ĠâĹĹâĹŀâĸ« âĹĹâĸ½âĹĤâĹĵ
ĠâĹķâĸ´ âĸ±âĹª
ĠâĹĴâĸ´âĸ¨ âĹ«âĸ±
âĹĿâĹªâĸ± âĸ¨âĹĹ
âĸ± âĸ¾âĸ¨
âĹª âĹŀâĸ«
âĹĲ âĸ´
âĹŃ âĹĴâĸ«
âĸ» âĹłâĹĵ
âĸ¾âĸ¦ âĹĪâĹłâĸ¦
âĹ¬âĹİ !
ĠâĹĢâĹ«âĸ± âĹĹâĹ³âĹ§âĹĵ
ĠâĹķâĹª âĸ±âĸ´
ĠâĹłâĸ½âĸ¦ âĸª
âĹĪ âĸ¾âĹĵâĸµ
âĹķ âĸªâĸ¦
âĹĪâĹĹ âĹĴ
âĹ¬âĹĵ âĸ«
Ġâĸ¦âĹª âĹį
ĠâĹŀâĹ§âĹĵ âĸ¾âĸ¦
Ġâĸ©âĸ¢ âĹªâĹĵ
âĸ± âĹ§
âĸ±âĹł âĹİâĸª
ĠâĹį âĸªâĹĵ
ĠâĹĢâĹ«âĸ± âĹĹâĸ½âĹĤâĹĵ
Ġâĸ¨âĹłâĹĪâĹłâĹĵ âĸµ
Ġâĸ·âĹłâĹĵ âĸ´âĸ¨
ĠâĹŃâĸ¢ âĸ´âĹĵ
Ġâĸ©âĸ¢ âĸ´âĹĵ
âĸ« âĸ·
Ġâĸ ł
Ġâĸ¨ âĹ§âĸ±
Ġâĸ½ âĹłâĸ±âĹłâĸ¦
âĹ¢ âĹłâĹį
ĠâĹĢâĹ¨ âĸ±âĹİâĹł
ĠâĹĢâĸ¾ âĸ±âĹİâĹł
âĹŃâĹĵ âĹŃ
Ġâĸ´âĸ« âĹİâĸ´
âĸŃâĹłâĸ½ âĹłâĸ«
âĹĹâĸ± âĹª
âĹķ âĹ¨âĸ¦
ĠâĹ³âĹłâĸ» âĹłâĸ¼âĹłâĹĲ
âĸ¾âĸ¨ âĹīâĹł
âĸŃâĹłâĹ³ âĹłâĸ«
ĠâĹĤâĸ±âĹĪâĹ¨âĹĲ âĸ¾âĸ¦âĹ¨
ĠâĹĢâĹłâĸ¢ âĹ¬
âĹĿâĸ´âĸ± âĸ¨âĹĹ
âĹĢ âĹªâĸ¦
ĠâĹ« âĸ¨
âĹķ âĹªâĸ±
âĹį âĹ«
âĹİâĹª âĸ«
âĹİâĹª âĹŀâĹ«
âĸ¯ âĹłâĹŀâĸª
âĹĻ âĹŃâĸ¦
âĹĨ âĸ©âĸ¢
ĠâĹĴâĸ´ âĸ·
âĹŀâĹ¬âĸ¦ âĹ¬
ĠâĹ¡ âĹ§
ĠâĹĤâĸ±âĹĪâĸ¾âĹĲ âĸ¾âĸ¦âĸ¾
Ġâĸ¨âĸ´âĸ¦ âĹĪâĹĹâĸ¦
âĹª âĹĪ
ĠâĹŀ âĹ§âĸ¨
âĸ¶ âĸ©âĹİ
âĸ¾âĸ¢ âĸł
Ġâĸ«âĹłâĸ¦ âĸª
ĠâĹķâĹªâĹī âĹĹâĹĵ
ĠâĹİâĹłâĸ· âĸ¨
âĸ¨ âĹ¬
ĠâĹİ âĹłâĸ±
âĹ¢ âĹ§âĸ¦
âĹĪâĸª âĹĲâĹ¬âĸ¦
âĹĻ âĹª
ĠâĹĢâĹĹâĸ± âĹĹâĸ½âĹĤâĹĵ
ĠâĹĹâĸ¢ âĹĹâĸ¦
ĠâĹŀâĹłâĸ· âĹĹâĸ»
ĠâĹĢâĸ´âĸ¨ âĸ±âĸ´
ĠâĹĴâĹªâĸ¨ âĹĹâĸ±
âĸ´ âĸ±âĹª
âĹłâĸ¦ âĹĹ
ĠâĹİ âĹ«âĸ±
âĹĿ âĹ¨âĸ¦âĹł
ĠâĹķâĹ£ âĸ«âĸ©âĹĵ
ĠâĹ§âĸ±âĹĪâĸ¾âĹĲ âĹ¨âĸ¦âĹ¨
ĠâĹ§âĸ±âĹĪâĹ¨âĹĲ âĹ¨âĸ¦âĹ¨
ĠâĹ«âĸ¦âĹŀâĹłâĸ¦ âĸ±âĹłâĹĵ
ĠâĹķâĹ£âĹŀâĸ« âĸ´âĹĵ
ĠâĹķâĹ£âĹŀâĸ« âĹªâĹĵ
Ġâĸ¨ âĹĵ
âĹŃâĸ¦ âĸ´
ĠâĹħ âĹ§âĸ¨
ĠâĹĢâĹĩ âĸ½âĸ±âĹª
ĠâĹĢâĹĩ âĹ³âĸ±âĹª
âĸ´ âĸ±âĸ´
ĠâĹİ âĸ´âĹİ
âĹĿ âĹªâĸ¨
ĠâĹł âĸ¼âĹ¬
âĹĹâĸ± âĹªâĸ¦
âĹ¬âĸ¢ âĹĪâĹł
ĠâĹĹâĹŀâĸ« âĹ«âĸ½âĹĤâĹĵ
ĠâĹĢâĹ£ âĹ³âĸ±âĹª
âĹİ âĹĢ
âĸ¢ âĹłâĹİâĹłâĸ¦
âĹĪâĹĹ âĹĲâĹ«
âĸ«âĹł âĸµ
âĹĬ âĹ³âĹ«
âĹ¬âĸ¦âĹĪâĹł âĸµ
âĹª âĸ±âĸ´
âĹĿ âĸ©âĸ«
âĹİâĸ´ âĹŀâĹĹ
âĹŀâĹ¨âĸ¦ âĹĪâĹł
âĸ©âĸ« âĸ·
âĹĪâĸªâĸ¦ ?
ĠâĹĤâĸ±âĹĪâĸ¾âĹĲ âĹ¨âĸ¦âĸ¾
âĹĲ âĹª
âĹī âĹ§âĸ¨
âĹĢ âĸ´âĸ¦
ĠâĹļ âĹłâĸ¢
ĠâĹł âĸ±âĹłâĸ¼âĹłâĸ¨
ĠâĹª âĹİâĹĹâĸ¦
ĠâĹĿ âĹĹâĸ±
âĹłâĸ¼ âĸª
âĸ¢âĹķ âĹŃâĸ¦
âĹłâĸ¼âĹłâĸ¨ âĸ«
ĠâĹĤâĸ±âĹİâĹł âĸ¢
ĠâĹĤâĸ±âĹĪâĹ¨âĹĲ âĹ¨âĸ¦âĹ¨
âĹĿâĹªâĸ± âĸ¨âĹ«
ĠâĹīâĹłâĹĵ âĸ»
âĸ´ '
âĸ¨ âĸª
âĹĿ âĹŃâĸ«
ĠâĹī âĸ©âĸ¦âĸ¨âĸ©
âĹį âĹĹ
âĸŃ âĹłâĸ±âĹł
âĹİâĸ´ âĹŀâĹ«
âĹŀâĹ«âĸ¦ âĹ«âĸ¢âĸµ
âĹĢ âĹłâĸ¦
âĸ±âĹłâĸ¦ âĹİâĹł
Ġâĸ´ âĹİâĹĹâĸ¦
ĠâĹ¢ âĹłâĸ»
ĠâĹ§âĸ±âĹĪâĹ¨âĹĲ âĸ¾âĸ¦âĹ¨
âĸ¼âĹªâĹĲ âĹ«âĸ¢âĸµ
ĠâĹĢâĹŃ âĸ½âĹŃâĸ¨
âĹĹâĸ¦ âĹĪâĸ´âĸ¦
âĸ±âĹłâĹĵ !
ĠâĹĹ âĸ¨
âĹķ âĸ´âĸ±
âĹªâĸ± âĹĹ
âĹŀâĹ«âĸ¦ âĹª
Ġâĸ·âĹłâĹĵ âĹĹâĸ¨âĹł
ĠâĹĤâĸ±âĹĪâĹ¨âĹĲ âĹ¨âĸ¦âĸ¾
ĠâĹ«âĸ¢ âĹ«âĸ¦
âĹªâĸ¦ âĹª
âĹ«âĹĵ âĸ¨
âĹĹâĸ± âĸ´âĸ¦
ĠâĹĿ âĹłâĸ¦âĹł
âĹ² âĸ¦âĹŀâĹłâĸ¦
ĠâĹĤâĸ±âĹĪâĸ¾âĹĲ âĹ¨âĸ¦âĹ¨
ĠâĹĢâĹ£ âĸ½âĸ±âĸ´
âĹĿâĸ´âĸ± âĸ¨âĹ«
ĠâĹī âĹŃâĸ¦âĸ¨âĹŃ
âĸ±âĹĪ âĹ¬?
âĹĪâĸ´ âĸ½
ĠâĹĪâĸ´ âĹİâĸ´âĸ¨
Ġâĸ´ âĹİâĹ«âĸ¦
âĹŀâĸªâĸ¦ âĸª
ĠâĹªâĸ« âĸµ
ĠâĹŀâĹĤâĹĵ âĹ¨âĸ¦
ĠâĹĢâĹłâĸ¢ âĸª
âĸ´ âĹŀâĸ«
âĸµ "
Ġâĸ· âĸªâĸ¢
ĠâĹ§ âĹĲâĸ±
âĹİâĹª âĹİâĸµ
âĸŃ âĸ´âĹİ
ĠâĹķâĹĩ âĸ«âĸ©âĹĵ
ĠâĹĹâĹŀâĸ« âĹ«âĹ³âĹ§âĹĵ
âĸ±âĹ«âĸ¨ âĸ«âĹª
ĠâĹłâĹ³âĸ¦ âĹ¬
âĸ« âĹ«âĹĵâĸµ
âĹŀ âĸł
ĠâĹī âĹŃâĸ¦âĸ¨âĸ©
âĹİâĹª âĸ±
âĹ¨âĸ¢ âĸł
âĹİâĹ¬ âĸ½âĹĤâĹĵâĹ¨âĹİâĸµ
âĹĲâĸªâĸ¦ âĸª
ĠâĹłâĸ« âĸ´âĹĴ
âĸ±âĹ«âĸ¨ âĸ«âĸ´
ĠâĹŀâĹłâĹī âĹİâĹł
âĸ¯âĹłâĹŀâĸª âĸ±âĹĪâĹ¬?
âĸ± âĹŃâĸ¨
âĹ³ âĸªâĸ¢âĸµ
ĠâĹĪ âĹĤâĸ¨
âĸ· âĸ´âĹĵ
ĠâĹª âĹĵ
âĹŀâĹĹâĸ¦ âĸ´
âĸ¾âĹİ ?
ĠâĹĢâĹ«âĸ¢ âĹ«âĹİ
âĹ© âĸ¢
ĠâĹŀâĹ§âĹĵ âĹ¨âĸ¦
ĠâĹĢâĹªâĸ¨ âĸ±âĸ´
Ġâĸ± âĸ©âĸ«âĹįâĸ´âĸ¦
ĠâĹķâĹĩâĹŀâĸ« âĸ´âĹĵ
Ġâĸ· âĹłâĸ¦
ĠâĹī âĸ©âĸ¦âĸ¨âĹŃ
ĠâĹĪâĹª âĹļ
âĸ±âĸ´âĹĵ âĹ«âĸ¦âĹ«
ĠâĹłâĹĵ âĹłâĹİ
âĹŀâĸ¾âĸ¦ âĹĪâĹł
âĹŀâĹ¬âĸ¦ âĸł
ĠâĸŃ âĹªâĹĵ
ĠâĹłâĹİâĹł âĸµâĸµâĸµ
ĠâĹķâĹĩâĹĵ âĸ©âĹĴ
ĠâĹĻ âĹłâĸ·âĹł
ĠâĹĤâĸ±âĹĪâĹ¨âĹĲ âĸ¾âĸ¦âĸ¾
âĹĪ âĹłâĸ±
âĹŀ âĸ¨
âĸ±âĹł âĹī
âĹĤâĹĵ âĸ¨
ĠâĹ³ âĹłâĸ±âĹłâĸ¦
âĹĪâĸ´ âĹ³
âĹŀâĹĹâĸ¦ âĹ«âĸ¢âĸµ
âĸ¾âĹİ âĸ¾âĸ¢
âĹİâĹłâĹİ âĹ¬âĸ¢
Ġâĸ¨âĹªâĸ¦ âĹĪâĹĹâĸ¦
âĹĪâĹ«âĹİ âĸł
ĠâĹŀâĹłâĸ· âĹ«âĸ»
âĸ± âĹ¨âĸ¨
âĹŀ âĸµ
âĸ©âĸ¦ âĹĪâĸ´âĸ¦
âĹ¨âĹİ âĸ¾âĸ¢
âĹŀâĹ¬âĸ¦ âĸª
ĠâĹįâĹłâĹĵâĸ¨ âĸ±âĹ¬
âĸ®âĹłâĸ¦âĸªâĹĵ âĹ¬âĹİ
âĹİ âĹłâĸ¦âĹł
âĹĹ âĸ½âĹ§âĹĵâĹ¨âĹİâĸµ
âĹ¬ âĸ±âĹłâĸ¦
âĹ¬ âĸ½âĹĤâĹĵâĸµ
âĹŀ âĹłâĸ«
âĸ© âĹİâĸµ
âĹĹâĸ¦ âĹĪâĹªâĸ¦
ĠâĹł âĸ±âĹłâĹĢâĹĹâĸ±
âĹ¢ âĹłâĸ¦
ĠâĹłâĹĵ âĸ¨âĹłâĹŀ
ĠâĹĢ âĹ¨âĸ¦âĹł
âĸ® âĹ£
âĸ±âĸ´âĹĵ âĹ«âĸ¦âĹĹ
âĸ±âĸª âĸ½âĹ§âĹĵ
ĠâĹķâĹĹ âĹĪâĹª
ĠâĹ§âĸ±âĹĪâĸ¾âĹĲ âĸ¾âĸ¦âĹ¨
ĠâĹ§âĸ±âĹĪâĹ¨âĹĲ âĹ¨âĸ¦âĸ¾
âĸŃâĹł âĹĪâĹĹ
âĹĪ âĹ¨âĹĵâĸµ
ĠâĹŀ âĸ´âĸ¨
ĠâĹŀ âĸªâĹĵ
âĸ® âĹĩ
ĠâĹ§âĸ±âĹİâĹł âĸ¢
ĠâĹªâĸ« âĸ«âĹ«
Ġâĸ¨âĹªâĸ¦ âĹĪâĹ«âĸ¦
âĸ± âĸ©âĸ¨
âĹ³ âĹ¬âĸ¢âĸµ
âĹĤ âĹĪ
ĠâĹĪ âĹ«âĸ±
âĹĹâĹİ âĹª
Ġâĸ¬ âĹłâĹĵ
Ġâĸ¨âĹłâĹī âĸªâĹĵ
ĠâĹĪâĹĹ âĹ³âĹª
ĠâĹ³âĹłâĸ¨ âĸ±âĹłâĹĴ
âĹĵâĹ¬ âĸ¼âĹł
Ġ 9
ĠâĹ ĥ
âĹłâĸ¦ âĸł
âĸ´âĸ¦ âĸ¦
âĹłâĹİâĹł âĸ¢âĸµ
âĸ½âĹĤâĹĵ âĹŀâĹ¨âĸ¦?
Ġâĸ¼ âĹªâĹļ
Ġâĸ¼ âĸ´âĹļ
âĹĪâĸ© âĸµ
Ġâĸ¨âĸ´âĸ¦ âĹĪâĹ«âĸ¦
ĠâĹĢâĹĩ âĹ³âĸ±âĸ´
ĠâĹłâĹ³âĸ¦ âĸª
ĠâĹŀ âĹªâĸ¨
âĹĿ âĸ©
âĹĪâĹĹ âĹĲâĹĹ
âĸ´âĹİ âĸ±âĹ«
Ġâĸ¼ âĹĹâĸ¦
ĠâĹĢâĹłâĸ¨ âĹłâĹĵ
âĸªâĸ¦âĹĪâĹł âĸµ
Ġâĸ¨âĹ§ âĹ³
Ġâĸ·âĹłâĹĵ âĹªâĸ¨
ĠâĹĪâĹĹ âĸ½âĸ´
ĠâĹķâĹ«âĹĢâĹĹ âĸµ
âĹĨâĸ´âĹĵ âĹīâĸ´âĸ¨
Ġâĸ¨ âĹ¨âĸ«
ĠâĹŀ âĹªâĹį
âĹ«âĸ¦ âĹĪâĹªâĸ¦
Ġâĸ´âĸ« âĸ«âĹ«
âĹĪâĹŃ âĸµ
ĠâĹ§âĸ±âĹĪâĸ¾âĹĲ âĸ¾âĸ¦âĸ¾
ĠâĹķâĹ«âĹĢâĹ« âĸµ
ĠâĹĢâĸ© âĹ³âĹŃâĸ¨
ĠâĹĹâĸ¦âĹŀâĹłâĸ¦ âĸ±âĹłâĹĵ
âĹİâĸ© âĹĴâĸ«
âĸ© âĸ»âĸ·
Ġâĸ· âĹłâĹİ
ĠâĹĴâĹª âĸ·
Ġâĸ´âĸ« âĹİâĹª
ĠâĹ§âĸ±âĹĪâĹ¨âĹĲ âĸ¾âĸ¦âĸ¾
âĹ¬âĸ±âĹĪ âĸª
âĹ¬ âĹ³âĹ§âĹĵâĸµ
âĸ´âĸ¦ âĹª
Ġâĸ· âĹĹâĸ¨
ĠâĹ§ âĸ½âĸ¦
âĹĵâĹł âĸ¼âĹłâĸ¨
ĠâĹĢâĹ¨ âĹĵâĹłâĹĪâĹłâĸ¦
âĸ©âĹĵ âĹŃ
âĹłâĸ¼âĹłâĹĲ âĹ¬âĸ¢âĸµ
ĠâĹĤâĸ±âĹĪâĸ¾âĹĲ âĸ¾âĸ¦âĹ¨
âĹģ âĹłâĹİâĹłâĸ¦
ĠâĹĪâĹ«âĸ¨ âĸ¨âĹłâĸ«
âĸ´âĸ¦ âĸ´
âĸ±âĹªâĹĵ âĹĹâĸ¦âĹĹ
âĸ±âĸ´âĹĵ âĸ´
ĠâĹļâĹłâĹĵ âĹŀâĹł
âĹİâĹ« âĸ¨
âĸ©âĸ¢ âĸµ
ĠâĹłâĸ« âĹªâĹĴ
ĠâĹŀâĸ´ âĹį
ĠâĹĢ âĹłâĸ«
âĹ§ âĸ±âĹł
âĹī âĹ«
âĹĿ âĹ¬âĹĵâĹłâĸ¨
âĹĬ âĹĴâĸ«âĸ´
ĠâĹĢâĹ£ âĹ³âĸ±âĸ´
Ġâĸ¨âĹ«âĹİ âĹŀâĸ´
Ġâĸ¨âĹĹâĹĴ âĹĹ
Ġâĸ¨âĸ©âĹī âĸ©âĸ¨
âĸ« âĹĹâĹĵâĸµ
âĹĢ âĹĤ
âĹŃâĸ¦ âĹĪâĸ´
âĸ±âĸ´âĹĵ âĹĹâĸ¦âĹĹ
âĹŀâĸªâĸ¦ âĹĪâĹł
âĹĦ âĹł
ĠâĹĢâĹĹâĸ¢ âĹĹâĹİ
Ġâĸ±âĹŃâĸ« âĹįâĹªâĸ¦
âĹĹâĹİ !
âĹŃâĸ¦ âĹª
âĹĪâĹª âĹ³
âĸ±âĹªâĹĵ âĸ´
ĠâĹĢâĸ¾ âĹĵâĹłâĹĪâĹłâĸ¦
ĠâĹĢâĹłâĹĴ âĹłâĹĵ
ĠâĹķâĹĹâĹĢâĹĹ âĸµ
âĹĹ âĹĴâĸ«âĹ«âĹĵ
ĠâĹķ âĹĹâĸ¢
ĠâĹİ âĹªâĹİ
âĹĹâĸ± âĸ´
âĹķ âĹĹâĸ¦
âĹķ âĹ«âĸ¦
ĠâĹ«âĹīâĹĹâĸ¦ âĸµ
ĠâĹĪâĹ« âĸ½âĹª
ĠâĹĪâĹ« âĸ½âĸ´
ĠâĹĢ âĸ¾âĸ¦âĹł
Ġâĸ· âĹ¬âĸ¢
ĠâĹ§ âĹ³âĸ¦
âĹ«âĹİ âĹª
âĹłâĸ¢ âĹłâĹĵ
ĠâĹĢâĹ¨ âĹĵ
âĸ©âĹĵ âĹŃâĸ¢âĸµ
ĠâĹĢâĹ«âĸ± âĹ«âĸ½âĹ§âĹĵ
ĠâĹķâĹ£âĹĵ âĹŃâĹĴ
Ġâĸ¼ âĸ´âĹŀ
âĸ±âĹłâĹİâĹł âĸ¢âĸµ
ĠâĹªâĸ« âĹİâĸ´âĸ¨
Ġâĸ¨âĸª âĹŀ
ĠâĹķ âĹ«âĸ¢
âĹĿ âĸ¾âĸ¦âĹł
âĹ§âĹĵ âĸ¨
âĹłâĹ³ âĸ´âĸ«
Ġâĸ´âĸ« âĸ«âĹĹ
ĠâĹĪâĹ« âĹ³âĹª
ĠâĹķâĹĹâĹĢâĹ« âĸµ
Ġ2 0
âĹ« âĸ½âĹª
âĹ« âĸ½âĹ§âĹĵâĹ¨âĹİâĸµ
ĠâĹĴâĹª âĸ½âĹ«
âĹħ âĹŃâĸ¦âĸ¨âĸ©
âĸ² âĸ©âĸ«âĹįâĹªâĸ¦
Ġâĸ½âĹłâĸ¨ âĹłâĸ±âĹł
ĠâĹ§âĸ±âĹĪâĹ¨ âĸµ
âĸ©âĸ«âĸ· âĹĹâĹĴ
âĹĵ âĹ§âĸ¦
âĹłâĸ± âĸªâĹİ
âĹ«âĸ± âĸ´âĸ¦
âĸŃ âĹªâĹİ
ĠâĹĢâĸ¾ âĹĵ
âĹĭ âĹĪâĹłâĹİ
âĹłâĸ±âĹłâĹĵ âĹĪâĹł
âĹİâĹ«âĹĴâĸ« âĹĹâĹİâĸµ
ĠâĹĢâĹłâĸ· âĹŀâĸ´âĸ«
ĠâĹĢâĹłâĸ· âĹŀâĹªâĸ«
âĹª '
ĠâĹĪ âĹ«âĸ½âĹĤâĹĵ
âĹ¨âĸ¦ âĸ¾âĸ¦
ĠâĹī âĹªâĹļ
Ġâĸ® âĸ«
ĠâĹķâĹ£âĹĵ âĸ©âĸ¦
âĹłâĸ¼âĹłâĹĲ âĸªâĸ¢âĸµ
ĠâĹªâĸ« âĹİâĹªâĸ¨
ĠâĹĪâĹŃâĹĴ âĹŃâĸ¦âĸ©
âĸ´âĸ½ âĸł
ĠâĹŀ âĹłâĸ»
âĹī âĹĹ
âĸ±âĹł âĸł
ĠâĹī âĸ´âĹļ
ĠâĹª âĸ¨
âĹĪâĸ´ ?
âĸ±âĹªâĹĵ âĹ«âĸ¦âĹĹ
âĸ±âĹªâĹĵ âĹĹâĸ¦âĹ«
ĠâĹĴâĹª âĸ½âĹĹ
ĠâĹķâĹ« âĹĪâĹª
âĹŀâĹ¬âĸ¦ âĹĪâĹł
âĹħ âĸ©âĸ¦âĸ¨âĹŃ
Ġâĸ¼ âĹ«âĸ¦
ĠâĹªâĸ« âĹİâĹª
Ġâĸ¨âĹĹâĹİ âĹŀâĸ´
âĹĪ âĹ³
âĸ« âĸªâĸ¦
ĠâĹĪ âĹ«âĹ³âĹĤâĹĵ
âĸ® âĹłâĹĲ
âĹĪâĹ« âĹĲâĹ«
âĹłâĸ· âĸ«âĹłâĹĵ
âĹŀâĹł âĹį
ĠâĹĴâĸ´âĸ½ âĸ±âĸ´âĹĵ
ĠâĹĢâĸ´âĸ¨ âĸ±âĹª
ĠâĹĤâĸ±âĹĪâĹ¨ âĸµ
âĹĨâĸ´âĹĵ âĹīâĹªâĸ¨
âĸ±âĸ´âĹį âĹĤâĸ¦
âĹ« âĹ³âĸ´
ĠâĹł âĸ·
ĠâĹĤ âĸ±âĹłâĹ³
âĹĵâĹł âĸ¼âĹłâĹĲ
âĹŃâĸ¦ âĹĪâĹª
âĹłâĹŀ âĹ¬âĸ¦âĹł
âĹĨ âĸ´âĹī
ĠâĹĴâĹªâĸ½ âĸ±âĸ´âĹĵ
Ġâĸ¨âĹ«âĹİ âĹŀâĹª
Ġâĸ«âĹłâĹĵâĹłâĹį âĸªâĸ¦âĹĪâĹłâĸ¦
ĠâĹĢâĹŃ âĹ³âĸ©âĸ¨
Ġâĸ± âĸ©âĸ«âĹįâĹªâĸ¦
âĹİâĹŃ âĹĴâĸ«
Ġâĸ¨âĹŃâĹī âĸ©âĸ¨
âĹİâĹł âĸ¢âĸµ
ĠâĹł âĸ±âĹłâĹĢâĹ«âĸ±
ĠâĹĤ âĹ³âĸ¦
ĠâĹĤ âĹĲâĸ±
âĸ±âĹªâĹĵ âĹª
âĹĨ âĹŃâĸ¢
âĸ©âĹĵ âĸµ
ĠâĹĢâĹĹâĸ± âĹİâĹ«
ĠâĹªâĸ« âĸ«âĹĹ
âĹĳ âĹłâĹĵ
Ġâĸ«âĹłâĸ¦ âĹ¬
ĠâĹĪâĹ« âĹ³âĸ´
âĸ±âĸ´âĹį âĹ§âĸ¦
âĸ´âĹĵ âĸł
âĹ«âĸ¦ !
âĹĹâĹĵ âĸ¨
âĸ¶ âĸ´âĹĴ
âĸ©âĸ¦ âĹĪâĸ´
âĹªâĸ± âĹ«
âĹħ âĹŃâĸ¦âĸ¨âĹŃ
ĠâĹŀâĹłâĸ± âĹĪâĸªâĹĵ
âĸ®âĹłâĸ¦âĸªâĹĵ âĸªâĹİ
ĠâĹķâĹ£âĸ¦ âĹĪâĸ´âĹĵ
âĸ®âĹłâĸ¦âĹ¬âĹĵ âĸªâĹİ
âĹĹ âĹĴâĸ«âĹĹâĹĵ
âĸ« âĸ¾âĸµ
ĠâĹĪ âĹĤâĸ±
âĸ¼ âĸ´âĸ±
âĹķ âĹĵâĹłâĹİ
âĸ±âĹª âĹİ
Ġâĸ¢âĹłâĹİâĹłâĸ¦ âĸµ
Ġâĸ´âĸ« âĹİâĹªâĸ¨
ĠâĹłâĸ¦âĸ±âĹł âĹİâĹ¬
Ġâĸ«âĹłâĸ« âĸ±âĸª
âĹŁâĹłâĸ¦ âĹ«
âĸ« âĹ¬âĸ¦
âĹī âĹĤâĸ¨
âĸ±âĹł âĹŀâĸª
âĸ· âĹłâĹİ
âĹ«âĸ± âĹªâĸ¦
âĹłâĹŀ âĹ¬âĸ¦âĹĪâĹł
âĹİâĸ´ âĹİâĸµ
ĠâĹłâĸ± âĹ¬âĹĵ
Ġâĸ½âĹłâĸ» âĹłâĸ¼âĹłâĸ¨
âĸ±âĹłâĹĵâĹ¬âĸ¦ âĹĪâĹłâĸ¦
Ġâĸ¨âĹ§ âĸ½
ĠâĹķâĸ´âĸ±âĹĪ âĹĹ
Ġâĸ¨âĹ£ âĸ»
Ġâĸ¨âĹ«âĹĴ âĹĹ
Ġâĸ¨âĸ©âĹī âĹŃâĸ¨
Ġ âĸ±âĹĹ
âĹ« âĹĴâĸ«âĹĹâĹĵ
âĸª âĸ½âĹ§âĹĵâĸµ
Ġâĸ¨ âĹĹâĸ«
Ġâĸ¨ âĹĹâĸµ
Ġâĸ´ âĹİ
âĹĭ âĹī
Ġâĸ¦âĹª ?
âĹŀâĹª âĹĪâĹĹ
Ġâĸ¨âĹĤ âĸ½
ĠâĹĢâĹ«âĸ¢ âĹĹâĹİ
ĠâĹ§âĸ±âĹĪ âĸ¾âĸµ
Ġ âĸ¾âĸ¦âĸ¾
âĸª âĹ³âĹ§âĹĵâĸµ
âĹĤ âĸ¢
âĹłâĹŀ âĸªâĸ¦âĹĪâĹł
âĹĪâĸª âĹĲâĹ¬
ĠâĹĪâĹŃâĹĴ âĸ©âĸ¦âĹŃ
âĸ±âĹĹâĸ¨ âĸ±âĹª
ĠâĹĪâĹĹ âĸ½âĹª
âĹ«âĹį âĸ«
' âĸ«âĹł
âĹ§ âĸ¢
ĠâĹĪ âĹłâĸ¦âĹŀ
ĠâĹĴâĸ´ âĸ½âĹĹ
ĠâĹłâĸ¦âĸ±âĹł âĹ³
ĠâĹĴâĹªâĹ³ âĸ±âĸ´âĹĵ
ĠâĹĪâĸ©âĹĴ âĹŃâĸ¦âĹŃ
âĸ«âĹ¨ âĸµ
Ġ 7
âĹª âĸ±âĹª
âĸª âĹ³âĹĤâĹĵâĸµ
Ġâĸ ¸
âĸ´âĸ¦ âĹ«âĸ¦
âĸ±âĹłâĹĵ âĹ¬âĸ¦âĹĪâĹł
âĹį âĸ´âĸ«
âĸ® âĹĤâĹĵ
âĸ©âĸ¦ âĹĪâĹªâĸ¦
âĸ©âĹĵ âĸ©
ĠâĹĴâĹª âĹ³âĹĹ
âĸ®âĹłâĸ¦ âĹİâĹ¬âĸ½âĹĤâĹĵâĹ¨âĹİâĸµ
ĠâĹĢâĸ© âĹ³âĸ©âĸ¨
ĠâĹĢâĹªâĸ¨ âĸ±âĹª
ĠâĹķâĹĩâĸ¦ âĹĪâĸ´âĹĵ
âĹłâĸ¨âĸ¨ âĹłâĹĢ
Ġ âĸ¾âĸ¦âĹ¨
Ġâĸ¨ âĹ«âĸ«
âĸ¼ âĸ©
âĹ«âĸ¦ âĹĪâĸ´âĸ¦
âĸ· âĹłâĸ¦âĹķâĹĹ
âĹļ âĹł
âĹŃâĸ¦ âĹĪâĸ´âĸ¦
âĸŃ âĹłâĸ¢
âĸ±âĸ´âĹĵ âĹĹâĸ¦âĹ«
âĹİâĹĹ âĸ¨
ĠâĹłâĹĵ âĹłâĹ³
ĠâĹĴâĹª âĹ³âĹ«
âĹħ âĸ©âĸ¦âĸ¨âĸ©
ĠâĹ§âĸ± âĹ¨âĹĵâĸµ
Ġâĸ¡ âĹłâĹĵ
ĠâĹĴâĹªâĸ½ âĸµ
ĠâĹłâĸ¢ âĸªâĸ¦âĹĪâĹłâĸ¦
âĹ¤âĹłâĸ¦ âĹ«
ĠâĹĹâĸ·âĸ«âĹĹ âĸ½âĹłâĸ¼
ĠâĹ¨âĸ¦ âĹ¨âĸ«
Ġ 8
âĹ« âĹ³âĹª
âĹĪ âĸ½
ĠâĹĪ âĹ§âĸ¨
Ġâĸ¨ âĹĵâĹłâĸ±
ĠâĹĤ âĸ½âĸ¦
âĸ¶ âĹłâĸ¦
âĸŃ âĹłâĸ¨
âĸªâĸ¢ âĹĪâĹł
âĹ¨âĹİ ?
âĹ¨âĹİ âĹ¨âĸ¢
ĠâĹĴâĸ´âĹ³ âĸ±âĸ´âĹĵ
Ġâĸ«âĸ´âĹĴ âĸ´âĸ¨âĸ¨âĹŃâĹĵ
ĠâĹķâĹ£âĸ¦ âĹĪâĹªâĹĵ
Ġâĸ¨âĹŃâĹī âĹŃâĸ¨
Ġâĸ±âĹŃâĸ« âĹįâĸ´âĸ¦
âĹ¬ âĹ³âĹĤâĹĵâĸµ
âĸ½ âĹ¬âĸ¢âĸµ
ĠâĹ³ âĹłâĹŀ
âĹŀâĹ«âĸ¦ âĹĹâĸ¢âĸµ
ĠâĹĪâĹł âĹ«âĹĵ
âĹŀâĹĹâĸ¦ âĹĹâĸ¢âĸµ
âĸ¿ âĹĵâĹłâĹĪâĹł
ĠâĹ§âĸ±âĹİâĹł âĸ±âĸª
ĠâĹļâĹªâĹĵ âĸµ
Ġâĸ«âĹłâĹĵ âĸ«
âĸ´âĹ³ âĸł
ĠâĹķâĸ´âĸ±âĹĪ âĹ«
ĠâĹķâĹĩâĸ¦ âĹĪâĹªâĹĵ
Ġâĸ¦âĹ¨âĹİ âĹłâĹĵ
ĠâĹļâĹłâĸ¢ âĹķ
âĹĹ âĹĢ
âĸ« âĹĤâĸ¦
âĹłâĸ¦ âĸµ
âĹªâĸ¦ âĸ¦
âĸ¾âĸ¦ âĸ¾âĸ¦
ĠâĹłâĸ± âĸªâĹĵ
âĸ±âĹłâĹĵâĸªâĸ¦ âĹĪâĹłâĸ¦
âĹªâĸ½ âĸł
Ġâĸ¨âĹłâĸ¦ âĸªâĸ«
ĠâĹĪâĹĹ âĹ³âĸ´
ĠâĹįâĹłâĹĵâĸ¨ âĸ±âĸª
ĠâĹķâĹªâĸ±âĹĪ âĹĹ
ĠâĹĹâĸ·âĸ«âĹ« âĸ½âĹłâĸ¼
âĹİ âĸ´âĸ«
âĸ©âĸ¦ âĸ´
âĸ©âĸ¦ âĹª
ĠâĹłâĹĵ âĸ¨âĹł
âĸ¨âĹł âĹĪâĹłâĹĵ
Ġâĸ½âĹłâĸ» âĸªâĹ³âĹĤâĹĵ
ĠâĹļâĸ´âĹĵ âĸµ
âĸ±âĹłâĹĴ âĹİâĹł
ĠâĹĢâĸ© âĸ½âĹŃâĸ¨
âĸ» âĸł
âĹķ âĹªâĹĵ
ĠâĹĿ âĹłâĸ½âĹłâĸ¦
âĹĪâĸª âĹĲâĸª
ĠâĹķâĹ« âĹĪâĸ´
Ġâĸ¦âĸ´ ?
Ġâĸ¼ âĹªâĹŀ
âĸ¿âĸ¦ âĸ¾âĸ¦
âĸ±âĹĹâĸ¨ âĸ±âĸ´
âĹªâĹ³ âĸł
ĠâĹ³âĹłâĸ¨ âĹłâĸ±âĹł
âĸ®âĹłâĸ¦âĹ¬âĹĵ âĹ¬âĹİ
ĠâĹķâĸ´âĸ¦ âĹī
âĹĵ âĹĤâĸ¦
âĸª âĸ½âĹĤâĹĵâĸµ
âĹªâĸ« âĹª
âĸ¯ âĹªâĹĵâĹª
âĹ¦ âĹ³
âĹ¦ âĹī
ĠâĹĢâĹ«âĸ± âĹķ
ĠâĹĢâĹĹâĸ± âĹ«âĸ½âĹ§âĹĵ
Ġâĸ¨âĹĤ âĹ³
ĠâĹĢâĹĹâĸ¢ âĹ«âĹİ
ĠâĹĪâĹ« âĹĲâĸ´âĹĵ
ĠâĹĢâĹ¨âĸ± âĹ¨âĸ¦
âĹĨâĹªâĹĵ âĹīâĸ´âĸ¨
âĹ« âĹĢ
âĹ¬ âĸ½âĹ§âĹĵâĸµ
Ġâĸ¨ âĹĤâĸ¨
ĠâĹİ âĹł
ĠâĹª âĹİ
âĹ¢ âĹĩ
âĹ¢ âĹłâĸ·
ĠâĹĵ âĹłâĸ»
ĠâĹĤâĸ¦ âĸ±âĹłâĹĵâĹ¬
ĠâĹłâĹ³ âĹĵ
ĠâĹĢâĹĹâĸ¢ âĹª
Ġâĸ«âĹłâĹĵâĹłâĹį âĹ¬âĸ¦âĹĪâĹłâĸ¦
ĠâĹĢâĹŃ âĹ³âĹŃâĸ¨
ĠâĹłâĹĲ âĸ¢
âĹŁâĹłâĸ¦ âĹĹ
ĠâĹŀâĹłâĸ± âĹĪâĹ¬âĹĵ
âĹ« âĸ½âĸ´
âĹ§ âĸ±âĹĪ
âĹªâĸ¦ âĹ«âĸ¦
âĸ±âĹł âĹŀâĹ¬
ĠâĹĤ âĸ±âĹłâĸ½
ĠâĹī âĹ£âĸ¢
ĠâĹª âĹİâĹ«âĸ¦
âĹĪâĹª ?
âĹ³âĹ§âĹĵ âĹŀâĹ¨âĸ¦?
ĠâĹĪâĸ´ âĹļ
ĠâĹķâĹª âĸ¢
ĠâĹ§âĸ¦ âĸ±âĹłâĹĵ
âĹ² âĹ³âĹĹ
Ġâĸ·âĹ«âĹŀ âĹŀâĸ´
ĠâĹŀâĹ¬ âĹĵâĹł
ĠâĹĢ âĹªâĹĴ
ĠâĹŀ âĹ«âĸ¦
ĠâĹĿ âĹłâĹ³âĹłâĸ¦
âĹĨ âĹªâĹĵâĹĹ
ĠâĹ«âĹĴ âĸ´
ĠâĹ«âĹĴ âĹª
ĠâĹĪâĸ©âĹĴ âĸ©âĸ¦âĸ©
ĠâĹĢâĹŃâĸ« âĹŃâĸ¦
âĸ« âĸ«
âĸª âĸ±âĹłâĸ¦
âĹ³ âĹ¨âĸ¦
Ġâĸ½ âĹłâĹŀ
ĠâĹĴâĸ´ âĸ½âĹ«
ĠâĹĢâĹłâĹĴ âĸªâĸ¦âĹł
ĠâĹĤâĸ¦ âĸ±âĹłâĹĵâĸª
ĠâĹĤâĸ± âĹ¨âĹĵâĸµ
ĠâĹ«âĹīâĹ«âĸ¦ âĸµ
ĠâĹŀâĹĤâĹĵ âĸ¾âĸ¦
ĠâĹİâĸ© ?
âĸ¶âĹªâĹĴ âĹªâĸ¨âĸ¨âĹŃâĹĵ
âĸ¨ âĹīâĹł
âĹłâĸ« âĸ«
Ġâĸ» âĹªâĹĴ
âĹĪâĹ¬ âĹĲâĹ¬
ĠâĹį âĹ¬âĹĵ
ĠâĹĤâĸ± âĸ¾âĹĵâĸµ
âĹĬ âĹ³âĹĹ
âĹ² âĹĴâĸ«âĹª
âĸ±âĹ«âĸ¨ âĸ±âĹª
ĠâĹĤâĸ±âĹĪ âĸ¾âĸµ
âĹĿâĹ¨âĸ¦ âĸ¾âĸ¦
ĠâĸŃâĹłâĸ½ âĹ¬âĹĵâĸł
âĹĹ âĸ½âĸ´
âĹĪ âĹłâĸ±âĹłâĹĵ
âĹĪ âĹŃâĹİ
âĹ¬ âĸł
âĹĻ âĸ¾âĹĵ
âĹ¦ âĸ½
âĹĨ âĹŃâĸ¦
âĸ±âĹ¬ âĹ³âĹ§âĹĵ
ĠâĹĴâĸ´ âĹ³âĹĹ
âĹĦ âĸ´âĹĵ
Ġ1 9
âĹ§âĹĲ âĹĵâĹłâĹį
âĹłâĸ¦ âĹĪâĹł
âĹİâĸµ âĸµâĸµ
âĹĹâĹİ âĸ´
âĸ±âĸ´âĹĵ âĹ«âĹİ
ĠâĹĢâĹłâĹĴ âĹ¬âĸ¦âĹł
ĠâĹĵ âĹłâĹĲ
Ġâĸ¼ âĹĹâĹĪ
ĠâĹ§âĸ¦ âĸ±âĹłâĹĵâĹł
ĠâĹĢâĹłâĸ¨ âĹİâĹłâĹ³
ĠâĹķâĸ´âĸ± âĸµ
ĠâĹİâĹŃ ?
' âĹĪâĸ´âĸ¦
âĸ½ âĹ¨âĸ¦
âĸ½ âĹłâĸ¼âĹłâĸ¨
âĹ³ âĹªâĸ¦
âĸ´âĸ¦ âĹĹâĸ¦
âĹłâĸ¨ âĸ«âĹł
âĹ¢ âĹ£
ĠâĹķâĹ£âĹĵ âĸ©
ĠâĹķâĹ£âĹĵ âĹŃâĸ¦
âĹĦ âĸ©âĸ«âĸ·âĹĹâĹĴ
âĹĬ âĹĴâĸ«âĹª
âĹĤâĹĲ âĹĵâĹłâĹį
âĹĹâĹį âĸ«
âĹ§âĸ¨âĸ« âĹĤâĹĵ
âĹĹ âĹ³âĹª
âĹłâĸ¦ âĹ«
ĠâĹİ âĹªâĹŀ
âĹ¬âĸ¦ âĹ¬âĸ¢
âĸ±âĸ´ âĹİ
âĸ¯ âĸ´âĹĵâĸ´
âĹĭ âĹ³
âĹ± âĹĵâĹłâĹĪâĹł
âĸ«âĹł âĸ¸
ĠâĹ§âĸ±âĹİâĹł âĸ±âĸªâĸµ
Ġâĸ´âĸ« âĹİâĸ´âĸ¨
âĹĲâĹ«âĹİ âĹĹ
ĠâĹĢâĹĤ âĸ¢
Ġâĸ¦âĸ¾âĹİ âĹłâĹĵ
âĹ« âĹĴâĸ«âĹ«âĹĵ
âĸ« âĹ§âĸ¦
ĠâĹ§ âĸ±âĹłâĹ³
ĠâĹī âĹĩâĸ¢
âĸ½âĹ§âĹĵ âĹŀâĸ¾âĸ¦?
âĹĻ âĸ´
ĠâĹĴâĸ´ âĹ³âĹ«
ĠâĹłâĹİâĹł âĸł
Ġâĸ¨âĹĹâĹİ âĹŀâĹª
âĸ¶âĹłâĸ¦âĹĵ âĸª
âĹĴ âĹ¬
Ġâĸ¨ âĹĤâĸ±
ĠâĹİ âĸ´âĹŀ
âĹį âĹªâĸ«
âĸ´âĸ« âĹª
âĹ¢ âĹ§
âĹħ âĹłâĸ±
Ġâĸ´âĸ« âĸµ
ĠâĹĪâĸ©âĹĴ âĸ©âĸ¦âĹŃ
Ġ âĸªâĹĴ
âĸ´ âĹİâĹ«
âĸ¨ âĸ©âĸ¦
ĠâĹĪ âĹ§âĸ±
Ġâĸ½ âĹ£âĸ¦
âĹŃâĸ¦ âĹĪâĹªâĸ¦
âĸ©âĸ¦ âĹĪâĹª
ĠâĹĢâĹłâĹĴ âĸ±âĹłâĸ½
ĠâĹİâĹĹ âĹŀâĹĹâĸ¦
ĠâĹķâĸ´ âĸ¢
ĠâĹ§âĸ¦ âĸ±âĹłâĹĵâĹ¬
âĹłâĸ±âĹłâĹĵ âĹł
ĠâĹłâĹĪâĹłâĹİ âĸª
ĠâĹĴâĹªâĹ³ âĸµ
ĠâĹĴâĸ´âĹ³ âĸ±âĹªâĹĵ
ĠâĹĪâĹĹ âĹĲâĸ´âĹĵ
âĸ§ âĸ¢
ĠâĹķâĹªâĸ±âĹĪ âĹ«
ĠâĸŃâĹłâĹ³ âĹ¬âĹĵâĸł
Ġâĸ¨âĹĹâĹĴ âĹ«
âĹĪ âĸ©âĹİ
âĹĤ âĸ±âĹł
Ġâĸ¨ âĹ«âĸ±
Ġâĸ½ âĹªâĸ¦âĹ«
âĹŀâĸ« âĹłâĸ¦
ĠâĹĢâĹ«âĸ± âĹĹâĸ½âĹ§âĹĵ
ĠâĸŃ âĸ´âĹĵ
ĠâĹķâĹĩâĹĵ âĹŃâĸ¦
Ġâĸ«âĹłâĸ¦ âĸªâĹĴ
ĠâĹĴâĹªâĸ½ âĸ±âĹªâĹĵ
âĹĲâĸªâĸ¦ âĹł
ĠâĹĪâĹŃâĹĴ âĸ©âĸ¦âĸ©
âĹ±âĸ¦ âĹ¨âĸ¦
Ġ âĸªâĹŀ
âĹĪ âĹŃâĸ¨
ĠâĹĪ âĹĹâĸ¦
Ġâĸ¨ âĹĹâĸ±
âĹĪâĹĹ âĹĲâĹĹâĸ¦âĹ«
âĹ«âĸ¢ âĸ´
âĹ«âĸ¢ âĹª
âĹ¦ âĹĪâĹłâĹİ
âĹĨ âĹĹ
âĸ±âĹ¬ âĹ³âĹĤâĹĵ
ĠâĹĢâĹłâĹĴ âĸ±âĹłâĹİâĹł
ĠâĹĤâĸ± âĹŀâĹł
ĠâĹĦ âĹł
ĠâĹĴâĸ´âĸ½ âĸ±âĹªâĹĵ
ĠâĹ¬ âĹŀ
ĠâĹĴâĹłâĹĵâĸ¨ âĸª
âĹĦâĸ©âĸ«âĸ·âĹĹâĹĴ âĸµ
âĸ¦ âĹ¨âĸ¦
âĸ« âĸ´âĸ¨
ĠâĹĢ âĸ´âĹĴ
âĹ«âĸ¦ âĸ¼âĹª
âĸ· âĹłâĹĵ
âĸ® âĹ§âĹĵ
âĹłâĹŀ âĸªâĸ¦âĹł
âĸ±âĹªâĹĵ âĹ«âĸ¦âĹ«
âĹİâĸ´ âĹĪâĸ´âĸ¦
ĠâĹĢâĹ«âĸ± âĹİâĹ«
âĸ«âĹłâĸ¦ âĸµ
ĠâĹĪâĸ©âĹĴ âĹŃâĸ¦âĸ©
âĹĪâĹ¬âĸ¦ ?
Ġâĸ·âĹłâĸ« âĹł
ĠâĹłâĹĵâĸ« âĸªâĸ¨âĸµ
Ġâĸ½âĹłâĹĵ âĹłâĸ«
ĠâĹ«âĸ·âĸ«âĹĹ âĹ³âĹłâĸ¼
ĠâĹİâĹªâĹĵ âĹłâĸ¨
Ġâĸ¼âĸ´âĹļ âĹłâĸ»
âĸ´ âĹĢâĹĹâĸ±
ĠâĹĪ âĹłâĸ¦
Ġâĸ¨ âĹ«âĸµ
âĹĢ âĹłâĸ¦âĹł
âĸ¾âĸ¦ âĸ¾âĸ¢
âĹķ âĸ´
ĠâĹĴ âĹŃâĸ»âĸ·
âĹİâĹª âĹĪâĹªâĸ¦
âĹ¢ âĹ¨âĹŀ
ĠâĹłâĹĵ âĹłâĸ½
âĹ¦ âĹĵâĸ«âĸªâĸ¨
âĹĨ âĹªâĹī
âĹŀâĹ¬âĸ¦ âĹ¬âĸ¢âĸµ
ĠâĹĤâĸ±âĹİâĹł âĸ¢âĸµ
âĹłâĹļ âĹłâĸ±
ĠâĹĪâĹŃâĹĴ âĹŃâĸ¦âĹŃ
Ġâĸ¬âĸ· âĹłâĹĵ
âĸŃâĹł âĹĪâĹ«
ĠâĹĢâĹŃâĸ« âĸ©âĸ¦
âĸ±âĹªâĹį âĹĤâĸ¦
ĠâĹ ¥
âĸ± âĹ³
âĸ· âĹłâĸ¦âĹķâĹ«
ĠâĹ§ âĸ±âĹłâĸ½
âĹłâĹŀ âĹ¬âĸ¦âĹ¬
ĠâĹłâĸ½ âĹĵ
ĠâĹĢâĹ«âĸ¢ âĹª
ĠâĹĢâĹŃ âĸ½âĸ©âĸ¨
' âĹĪâĹªâĸ¦
âĸ´ âĹĢâĹ«âĸ±
ĠâĹĪ âĹĹâĸ±
ĠâĹĪ âĹĤâĸ¨âĸ«
âĹªâĹĵ âĸł
âĸ±âĹłâĹĵ âĸªâĸ¦âĹĪâĹł
âĹķ âĸ´âĹĵ
âĸ±âĸ´ âĸ½
âĹĨ âĹĩâĸ¢
âĹĦ âĹªâĹĵ
âĹŀâĹª âĹĪâĹ«
ĠâĹłâĸ¦âĸ±âĹł âĹİâĸª
âĸ±âĹ«âĸ¨ âĸ±âĸ´
ĠâĹĢâĹ«âĸ¢ âĹĹ
âĹĪâĹĹâĹĵ ?
ĠâĹĿâĹłâĹĴ âĸ¨âĹłâĸ¦
ĠâĹĹâĸ·âĸ«âĹĹ âĹ³âĹłâĸ¼
ĠâĹ ¯
âĹª âĹĢâĹ«âĸ±
âĹłâĸ± âĸ¨
Ġâĸ« âĹł
âĹĵâĹł âĹĪâĹłâĸ¨âĹĹ
ĠâĹİâĹ¬ âĹŀâĸªâĸ¦?
âĸŃ âĹłâĹŀâĸ«
âĹłâĹ³ âĹªâĸ«
âĹĪâĹłâĸ¦ âĸµ
âĸ±âĹİâĹł âĸ¢
ĠâĹłâĸ¦ âĸ¼âĹłâĸ¨
Ġâĸ¨âĹłâĸ± âĹĢ
âĸ¡ âĹłâĸ«
ĠâĹĹâĹīâĹĹâĸ¦ âĸµ
âĹłâĹļ âĹł
âĹĲâĹĹâĹİ âĹĹ
ĠâĹĴâĹªâĹ³ âĸ±âĹªâĹĵ
âĸ¿âĸ¦ âĹ¨âĸ¦
âĹĿâĹĹâĸ± âĹ«âĸ½âĹ§âĹĵ
ĠâĹĢâĹĹâĸ¢ âĸ´
ĠâĹłâĹĴ âĹłâĹĲâĸª
Ġâĸ¨âĹłâĸ¦ âĹ¬âĸ«
âĹİâĹĹâĹĴâĸ« âĹĹâĹİâĸµ
ĠâĹłâĸ¢ âĹ¬âĸ¦âĹĪâĹłâĸ¦
âĸ¡âĸ´âĸ¨ âĹĹ
Ġâĸ¶âĹłâĸ¦âĹĵ âĸª
âĹİâĹłâĹĵ âĸªâĹİ
Ġâĸ¼âĹªâĹļ âĹłâĸ»
âĹĿ âĹłâĹ³âĹłâĸ¦
âĸ±âĹłâĹĵ âĸµâĸµâĸµ
ĠâĹ³ âĹ£âĸ¦
Ġâĸ½ âĸ´âĸ¦âĹ«
âĹ¨âĸ¦ âĹ¨âĸ¢
âĸ±âĸ´âĹĵ âĹª
ĠâĹĪâĹł âĹĹâĹĵ
âĸ±âĸª âĸ½âĹĤâĹĵ
ĠâĹİâĹĹ âĹŀâĹ«âĸ¦
Ġâĸ·âĹ§âĹĴ âĸ±âĹłâĸ¦
ĠâĹ«âĸ·âĸ«âĹ« âĸ½âĹłâĸ¼
âĸ¦ âĸ¾âĸ¦
âĹİ âĸ¨
âĹĹ âĸ½âĹª
âĸ½ âĸªâĸ¢âĸµ
âĹĢ âĸ´âĹĵ
âĹ«âĹİ âĸ´
âĸ±âĸª âĹ³âĹ§âĹĵ
âĸ±âĹĹ âĸµ
ĠâĹ«âĹŀâĸ« âĹĹâĸ½âĹ§âĹĵ
âĹłâĸ¼âĹłâĹĲ âĸªâĹİ
âĹłâĹĵâĸª âĹĪâĹł
Ġâĸ¨âĸ´âĸ¦ âĹĪâĹ«âĹİ
ĠâĹĪâĹ¨âĹĵ âĹ¨âĹİ
âĹĴ âĸª
âĹªâĸ¦ âĹĹâĸ¦
Ġâĸ½ âĹĩâĸ¦
âĹŀâĸ« âĸ´âĹĵ
ĠâĹİâĹ« âĹŀâĹĹâĸ¦
âĹ±âĸ¦ âĸ¾âĸ¦
ĠâĹĢâĸ¾âĸ¦ âĹ¨âĸ¦
ĠâĹĢâĹ¨âĸ¦ âĹ¨âĸ¦
Ġâĸ¨âĹ«âĹĴ âĹ«
ĠâĹłâĹĵâĹłâĹĴ âĸ«âĸªâĹĵ
âĹªâĸ¦ âĸ´
ĠâĹĤ âĸ¨âĹ¨
âĹĹâĸ¢ âĹª
âĹĪâĹ¬ âĹĲâĸª
ĠâĹłâĸ± âĹ¬âĸ¦
âĸ±âĹ¬ âĸ½âĹ§âĹĵ
ĠâĹĢâĹłâĹĴ âĸ±âĹłâĹ³
ĠâĹ§âĸ± âĸµ
Ġâĸ¨âĹłâĸ± âĹĪâĹ¬âĹĵ
âĹĬ âĸ±âĸ¨
ĠâĹ§âĸ±âĹİâĹł âĸ±âĹ¬
Ġâĸ»âĹłâĹĵ âĸ«âĹĹ
âĹĲâĹ¬âĸ¦ âĹł
ĠâĹĢâĹ«âĸ¢ âĸ´
ĠâĹĢâĸ¾âĸ± âĸ¾âĸ¦
ĠâĹĢâĹ§ âĸ¢
âĹİâĹłâĹĵ âĹ¬âĹİ
Ġâĸ«âĹªâĹĵ âĸ¨
âĹ« âĸ¼âĸ·
âĹĪ âĸ´âĸ«
âĸ« âĹĹâĹİ
âĹŀ âĸ©âĸ¦
ĠâĹŀ âĸ»
âĹĹâĸ¦ âĸ¼âĸ´
âĹĿ âĸ´âĸ¨
ĠâĹİâĹ¬ âĸ½
ĠâĹĪâĹł âĸł
âĹ¦ âĹĵâĸ«âĹ¬âĸ¨
âĹĭ âĹĵâĸ«âĸªâĸ¨
Ġâĸ® âĹĤâĸ¦
ĠâĹ§âĸ± âĹŀâĹł
ĠâĹ§âĸ±âĹİâĹł âĸ¢âĸµ
Ġâĸ¨âĹĩ âĸ»
Ġâĸ«âĹłâĹĢ âĹĹ
âĹĪâĹ¬âĹĲâĸªâĸ¦ âĸª
ĠâĹīâĹłâĹĲ âĹ¬âĹĵ
ĠâĹķâĹªâĸ¦ âĹī
âĸ± âĸ½
âĹ³ âĹłâĸ¼âĹłâĸ¨
âĹ§ âĹĪ
âĸ¼ âĹĹâĸ±
âĹĪâĹ« âĹĲâĹ«âĸ¦âĹĹ
âĹĹâĸ¢ âĸ´
âĹłâĸ½ âĹªâĸ«
Ġâĸ´ âĹĪâĹ«âĸ±
ĠâĹĢâĹĹâĸ± âĹķ
ĠâĹ§âĸ± âĸ¾âĹĵâĸµ
ĠâĹİâĸª âĸ½
ĠâĹķâĹĩâĹĵ âĸ©âĸ¦
âĹ² âĸ½âĹĹ
ĠâĹĪâĹĤ âĸ±âĹłâĹĵ
ĠâĹĢâĹ¨âĸ¦ âĸ¾âĸ¦
ĠâĹłâĹĪâĹł âĹİâĸµ
âĸ±âĹªâĹį âĹ§âĸ¦
ĠâĹĢ âĹĤâĹĵ
Ġâĸ¨ âĹ§âĸ¨
Ġâĸ· âĹłâĹŀ
Ġâĸ» âĸ´âĹĴ
Ġâĸ¨âĹłâĹĵ âĹłâĸ¦
ĠâĹķâĹ£âĹĵ âĹİâĹªâĸ¨
âĹŁ âĹłâĸ¨
ĠâĹĹâĹīâĹ«âĸ¦ âĸµ
ĠâĹĹâĹĴ âĹ«
ĠâĹ³âĹĤâĸ¨ âĹŀâĹł
âĹİâĹ«âĹĴâĸ« âĹ«âĹİâĸµ
ĠâĹķâĸ´âĹĵâĹªâĸ¨ âĸµ
ĠâĹĢâĸ© âĸ½âĸ©âĸ¨
ĠâĹĢâĸ´âĸ¨ âĸ±âĹ«
ĠâĹłâĸ±âĸ« âĸªâĸ¦âĹĪâĹł
âĸ±âĹłâĹĴâĸ« âĸªâĹĵ
âĹĪâĹ¬âĹĲâĸªâĸ¦ âĹ¬
ĠâĹ¨âĸ¦ âĸ¾âĸ«
ĠâĹĢâĸ©âĸ« âĸ©âĸ¦
ĠâĹĢ âĹ§âĹĵ
Ġâĸ¨ âĹª
âĸ¼ âĹŃ
ĠâĹŀ âĹĹâĸ¦
âĹªâĸ¦ âĸł
âĹ«âĸ¦ âĸ¼âĸ´
âĹĿ âĹłâĸ½âĹłâĸ¦
âĹ¬âĸ¦ âĹĪâĹłâĸ¨âĹ«
âĸ· âĹłâĹĢâĹł
ĠâĹ³ âĹªâĸ¦âĹĹ
âĹį âĸµ
Ġâĸ´ âĹĪâĹĹâĸ±
ĠâĹłâĸ± âĹĪâĹ¬âĹİâĸµ
âĹĨ âĸ´âĸ±
ĠâĹĢâĹłâĹĴ âĸ¨âĹłâĸ¦
Ġâĸ»âĹłâĹĵ âĹİâĹłâĸ¨
âĹĲâĹ«âĹİ âĹ«
âĹĿâĸ¾âĸ¦ âĹ¨âĸ¦
ĠâĹ«âĸ·âĸ«âĹ« âĹ³âĹłâĸ¼
ĠâĹĢâĸ©âĸ« âĹŃâĸ¦
' âĸ¾
âĹĪ âĹ¬âĹİâĸł
âĹ³ âĸ´âĸ¦
âĹ¬âĸ¦ âĸªâĸ¢
Ġâĸ« âĹłâĹŀ
ĠâĹĴ âĹ«âĹĵâĸ¨
âĹłâĸ½ âĸ´âĸ«
âĸ¯ âĹªâĹĵâĸ´
ĠâĹį âĹĤâĸ«
ĠâĹĢâĹłâĹĴ âĸ¨
ĠâĹİâĸª âĹŀâĹ¬âĸ¦?
âĸ¿âĸ¦ âĸ±âĹłâĹĵ
ĠâĹĢâĹĹâĸ¢ âĹĹ
ĠâĹĪâĹĹ âĹĲâĹªâĹĵ
ĠâĹĢâĸ¾âĸ¦ âĹĪâĹłâĸ¦
Ġâĸ¾âĸ¢ âĸ¾âĸ¦
Ġâĸ·âĹĤâĹĴ âĸ±âĹłâĸ¦
ĠâĹīâĹłâĹĲ âĸªâĹĵ
âĹĹ âĹ³âĸ´
âĸ« âĹªâĸ¨
âĹĢ âĹ§âĸ±
âĹĿ âĹªâĹĢ
ĠâĹ§ âĸ¨âĸ¾
âĸ±âĹ« âĸµ
âĹŀâĹ¬âĸ¦ âĸªâĸ¢âĸµ
âĹ² âĸ±âĸ¨
ĠâĹĹâĹĴ âĸ´
âĹİâĸ´âĸ± âĹĹ
âĹĿâĹ¨âĸ¦ âĹ¨âĸ¦
Ġâĸ·âĹĹâĹŀ âĹŀâĸ´âĸ«
âĹİâĹłâĹŀâĸªâĸ¦ âĹł
âĹ§âĸ¨âĸ« âĹ§âĹĵ
ĠâĹįâĹĹâĸ¨ âĹĵ
ĠâĹ«âĸ·âĸ«âĹĹ âĸ½âĹłâĸ¼
ĠâĹİâĸ´âĹĵ âĹłâĸ¨
âĸ« âĹ«âĹİ
âĹĢ âĹłâĸ¨
ĠâĹł âĸ«âĹ¬
ĠâĹ³ âĹĩâĸ¦
âĹĪâĹ« âĹĲâĹĹâĸ¦âĹ«
âĹłâĹŀ âĸªâĸ¦âĹ¬
âĹĪâĸª âĹĲâĹ¬âĸ¦âĸª
Ġâĸ¢âĹłâĹİâĹłâĸ¦ âĸ±âĹłâĹĵ
ĠâĹĤâĸ¦ âĸ±âĹłâĹĵ
ĠâĹĤâĸ±âĹİâĹł âĸ±âĸª
ĠâĹĢâĸ¾âĸ¦ âĸ¾âĸ¦
ĠâĹ¨âĸ¢ âĸ¾âĸ¦
âĹ¤âĹłâĸ¦ âĹĹ
ĠâĹ³âĹŃâĸ¢ âĹĪâĹªâĸ¦
âĹĹ âĸ¼âĸ·
âĸª âĸ¼âĸª
âĹŀ âĹŃâĸ¦
ĠâĹĢ âĹªâĹ³
âĹĴ âĹ¬âĸ¨
ĠâĹİ âĹłâĸ¦âĸ«
âĸªâĸ¦ âĸªâĸ¢
âĸ¾âĸ¦ âĹ¨âĸ¢
âĸ±âĹª âĸł
ĠâĹİâĹ¬ âĹ³
âĹİâĹª âĹĪâĸ´âĸ¦
âĹĭ âĹĵâĸ«âĹ¬âĸ¨
ĠâĹķâĹĹ âĹĪâĸ´
Ġâĸ¢âĹłâĹİâĹłâĸ¦ âĸł
ĠâĹİâĸª âĹŀâĸªâĸ¦?
ĠâĹĻ âĹłâĹļ
ĠâĹŀâĹłâĸ¦ âĹİâĸª
Ġâĸ«âĹłâĸ¦ âĹ¬âĹĴâĸ«
âĹĲâĹĹâĹİ âĹ«
ĠâĹŀâĹŃâĹĵ âĹª
âĹİâĹĹâĹĴâĸ« âĹ«âĹİâĸµ
Ġâĸ«âĹĤâĸ» âĸ±âĹłâĸ¦
Ġâĸ·âĹł ?
Ġâĸ¨âĹłâĹİ âĸ»
âĹª âĹķ
âĹ³ âĹłâĸ±âĹłâĹĵ
ĠâĹŀ âĹ¬âĹĵ
âĹ¬âĸ¦ ?
âĸªâĸ¦ âĹ¬âĸ¢
ĠâĹ³ âĹªâĸ¦âĹ«
âĹ«âĸ± âĹª
âĹ³âĹĤâĹĵ âĹŀâĹ¨âĸ¦?
ĠâĹİâĹ¬ âĹŀâĹ¬âĸ¦?
âĹ³âĹ§âĹĵ âĹŀâĸ¾âĸ¦?
âĹªâĸ± âĹªâĸ¦
âĹ¦ âĹĵâĹł
âĹĭ âĸ½
ĠâĹİâĹ« âĹŀâĹ«âĸ¦
ĠâĹĢâĹĹâĸ± âĹĹâĸ½âĹ§âĹĵ
âĹ¤ âĹłâĹĴ
âĸ¸ âĹ«
âĹłâĹĵâĸ¨ âĸ´âĸ¦
âĹĮ âĹĵâĹłâĸ¦
âĸ¨âĸ´âĸ¦ âĸł
ĠâĹ¨âĸ¢ âĹ¨âĸ¦
ĠâĸŃâĹłâĸ½ âĸªâĹĵâĸł
ĠâĹĹâĸ·âĸ«âĹ« âĹ³âĹłâĸ¼
ĠâĹłâĸ¼ âĹłâĹĢâĹł
âĹĵ âĹ¨
âĸ± âĸ¾âĹĲ
âĸ± âĸ¾âĸ±
âĹ« âĹķ
âĸ½ âĹłâĸ±âĹłâĹĵ
âĹĴ âĸªâĸ¨
âĹĹâĸ¦ âĸ¼âĹª
Ġâĸ« âĹªâĹŀ
âĸ¾âĸ¦ âĹ¨âĸ¦
ĠâĹĴ âĹłâĹĵ
âĸ«âĹł âĹĪâĹł
ĠâĹķâĹĩâĹĵ âĹİâĸ´âĸ¨
âĸ±âĹłâĹİâĹł âĹİ
ĠâĹłâĸ¦âĸ±âĹł âĸ½
Ġâĸ«âĹłâĸ¦ âĹ¬âĹĴ
Ġâĸ¡ âĹªâĸ¨
Ġâĸ«âĹłâĹĵ âĸ¢
ĠâĹ³âĹ§âĸ¨ âĹŀâĹł
âĹĪâĸ¾âĸ¦ ?
âĸŃâĹłâĹĵ âĹ«âĸ¨âĹłâĸ½
ĠâĹĴâĹłâĹĵâĸ¨ âĹ¬
' âĹ¨
âĸ´ âĹķ
âĸ½ âĹĪâĹ«âĸµ
âĸªâĸ¦ âĹĪâĹłâĸ¨âĹĹ
âĸ¶ âĹłâĸ¨
âĹĪâĹĹ âĹĲâĹĹâĸ¦âĹĹ
âĹĪâĹĹ âĹĲâĹ«âĸ¦âĹ«
âĹĪâĸª âĹĲâĹ¬âĸ¦âĹ¬
âĹĻ âĹ¬âĹĴ
ĠâĹłâĸ± âĸªâĸ¦
Ġâĸ¨âĹłâĹĵ âĸ«
ĠâĹŀâĹłâĸ¦ âĹİâĹ¬
âĸ² âĸ©âĸ«âĹįâĸ´âĸ¦
ĠâĹĹâĹĴ âĹª
âĹĵ âĸ½
âĹĵ âĹ³
âĹĹ âĹķ
Ġâĸ¨ âĸ´âĸ±
Ġâĸ¨ âĹ§âĸ¼
âĹĿ âĹłâĹĵ
ĠâĹŀâĸ´âĸ¦ ?
ĠâĹĻ âĹĵâĸµ
ĠâĹ° âĸ±
âĹİâĹłâĹ³ âĹłâĸ¼âĹłâĸ¨
Ġâĸ¨âĹªâĸ¦ âĹĪâĹĹâĹİ
âĹİâĸ´âĸ± âĹ«
ĠâĹķâĸ´âĹĵâĸ´âĸ¨ âĸµ
ĠâĹķâĹªâĹĵâĹīâĹªâĸ¨ âĸ«âĹªâĸ¦
âĸ± âĹ¨âĸ±
âĹ¬ âĸ¼âĹ¬
âĸ¾ âĹ³
ĠâĹĢ âĸ´âĸ½
ĠâĹ³ âĹŃâĸ¨
Ġâĸ½ âĹªâĸ¦âĹĹ
âĹĵâĹł âĹĪâĹłâĸ¨âĹ«
âĸ´âĸ« âĸ´
âĸ±âĹłâĸ¦ âĹĪ
âĹĻ âĹĹ
Ġâĸ® âĸ´
ĠâĹķâĹ£âĹĵ âĹİâĸ´âĸ¨
Ġâĸ¼ âĹ«âĹĪ
Ġâĸ·âĹłâĸ¨ âĸ±âĸª
âĹİâĹłâĸ½ âĹłâĸ¼âĹłâĸ¨
âĸ¼âĸ´âĹĲ âĹ«âĸ¢âĸµ
Ġâĸ·âĹ«âĹŀ âĹŀâĸ´âĸ«
âĸ²âĹŃâĸ« âĹįâĹªâĸ¦
ĠâĹ³ âĸ´âĸ¦âĹ«
ĠâĹ³ âĸ´âĸ¦âĹĹ
âĹ¨âĸ¦ âĹ¨âĸ¦
âĹ¨âĸ¦ âĸ¾âĸ¢
Ġâĸ« âĸ´âĹĵâĸ¨
âĹĪâĹĹ âĹĲâĹ«âĸ¦âĹĹ
ĠâĹª âĹĪâĹ«âĸ±
âĹ¨âĹĵ âĸ¾
âĹĭ âĹĵâĹł
ĠâĹ³âĹłâĸ» âĹ¬âĸ½âĹĤâĹĵ
âĹ± âĸ·âĸł
Ġ1 2
ĠâĹĪâĹ« âĹĲâĹªâĹĵ
ĠâĹŀâĹĹâĸ¢ âĸ´
ĠâĹŀâĸ©âĹĵ âĸ´
âĸ¡âĹªâĸ¨ âĹłâĸ±âĹłâĸł
ĠâĹ³âĸ©âĸ¢ âĹĪâĸ´âĸ¦
ĠâĹĤâĸ« âĸ¾âĹĵ
ĠâĹłâĹĵâĹłâĹŀ âĸªâĸ¦âĹĪâĹł
Ġâĸ·âĹªâĹİ âĸ´âĸ¦
âĸ« âĹ¬âĹĵâĸµ
Ġâĸ¨ âĹĤâĸ¼
âĹĪâĹł âĸ·âĹł
ĠâĹł âĸ±âĹłâĸ¨
âĹĨ âĹ£âĸ¢
âĸ±âĹ¬ âĸ½âĹĤâĹĵ
âĹŀâĸªâĸ¦ âĹ¬âĸ¢âĸµ
Ġâĸ¶ âĸ·
Ġâĸ»âĹłâĹĵ âĸ«âĹ«
ĠâĹłâĹĪâĹłâĹİ âĹ¬
ĠâĹ«âĹĴ âĹ«
âĹİâĹ«âĹĴâĸ« âĹĹâĸµ
ĠâĸŃâĹłâĹ³ âĸªâĹĵâĸł
Ġâĸ¶âĹłâĸ¦âĹĵ âĹ¬
âĹĪâĹ¨âĸ¦ âĸµ
Ġâĸ·âĹªâĹİ âĹªâĸ¦
Ġâĸ«âĹłâĸ«âĸ±âĹ¬ âĹİâĸµ
âĸŃâĹłâĹĵâĹ«âĸ¨âĹłâĸ½ âĹĪâĸªâĸµ
âĹ¨ âĸ½
ĠâĹĪ âĹ«âĸ¦
âĸ¼ âĹ«âĸ±
ĠâĹİ âĹłâĹĪ
ĠâĹ§ âĸ¨âĹ¨
Ġâĸ½ âĸ´âĸ¦âĹĹ
âĸ½âĹ§âĹĵ âĹŀâĹ¨âĸ¦?
âĹĨ âĹĹâĸ«
âĹŀâĸªâĸ¦ âĸªâĸ¢âĸµ
ĠâĹ¢ âĹ«âĹİ
Ġâĸ¡ âĸ´âĸ¨
Ġâĸ¤ âĹ§
Ġâĸ¾ âĸ±âĹłâĹĴ
ĠâĹłâĹĴ âĹłâĹĲâĹ¬
âĹĤ âĸ±âĹĪ
ĠâĹĪ âĹłâĹĲ
Ġâĸ½ âĹłâĸ±âĸ¦âĹ¬âĸ¢
âĹį âĹªâĹŀ
ĠâĹĹâĹŀâĸ« âĹĹâĸ½âĹ§âĹĵ
ĠâĹĪâĹªâĹĲâĹ«âĸ± âĸł
ĠâĹŃ âĸ±âĸ¨
âĸ±âĹłâĹĴâĸ« âĹ¬âĹĵ
ĠâĹķâĸ´âĹĵâĹīâĸ´âĸ¨ âĸ«âĸ´âĸ¦
' âĸ±âĹª
Ġ âĹłâĸ¦âĹł
ĠâĹ Ķ
âĹ¬ âĸ¼âĸª
âĹ¨ âĹ³
ĠâĹĪ âĹ«âĸ±âĹªâĹĵ
ĠâĹŀ âĹĹâĹŀâĸ«
ĠâĹİ âĸ´âĸ¨
ĠâĹī âĹłâĸ«
âĹłâĹŀ âĸªâĸ¦âĸª
âĹ¢ âĹłâĸ«
âĹĭ âĸ½âĸ¦
âĹĨ âĹªâĸ±
ĠâĹĢâĹłâĹĴ âĹłâĹĵâĸª
Ġâĸ¨âĹłâĹĵ âĸªâĹĴ
Ġâĸ¨âĹłâĸ± âĸ»
Ġâĸ¨âĹ§âĸ¦ âĸ«âĹĵâĹ§âĸ±
Ġâĸ¨âĹĤâĸ¦ âĸ«âĹĵâĹĤâĸ±
ĠâĹŀâĹ«âĸ¢ âĸ´
Ġâĸ½âĹŃâĸ¢ âĹĪâĹªâĸ¦
âĹĪâĹ¨âĸ¦ ?
âĸª âĸ¼âĹ¬
âĸ¾ âĸł
âĹĤ âĸ¥
âĹłâĸ« âĹłâĸ¦
âĸ±âĹĪ âĸ´
âĹĪâĸª âĸ±âĹłâĹĵâĸµ
âĹĻ âĹ«
ĠâĹķâĹ£âĹĵ âĹİâĸ´
ĠâĹĻ âĹ§
âĹ² âĹĴâĸ«âĸ´
'âĸ¦ âĹ¨âĸ¦
âĸ¨âĹªâĸ¦ âĸł
Ġâĸ¾âĸ¢ âĹ¨âĸ¦
âĸ¡âĸ´âĸ¨ âĹ«
âĸ¾âĹĴâĸ« âĸ¾âĹĵ
ĠâĹĢâĸ¾âĸ± âĹ¨âĸ¦
Ġ *
âĹłâĹĵ âĸ±âĹł
âĹĴ âĹł
ĠâĹĪ âĹ«âĸ±âĸ´âĹĵ
âĹİâĹł âĹİâĸµ
âĸ® âĹłâĹĢ
ĠâĹª âĹĲâĹªâĹĵ
âĹ³âĹĤâĹĵ âĹŀâĸ¾âĸ¦?
âĹłâĹŀ âĹ¬âĸ¦âĸª
ĠâĹĹâĹŀâĸ« âĹ«âĸ½âĹ§âĹĵ
Ġâĸ¨âĹłâĸ± âĹİâĹłâĸ¨
ĠâĹĤâĸ¦ âĸ±âĹłâĹĵâĹł
âĹ² âĸ½âĹ«
ĠâĹĤâĸ±âĹİâĹł âĸ±âĹ¬
ĠâĹķâĸ´âĸ± âĹİâĸ´
ĠâĹĢâĹĹâĸ¢ âĹ«
ĠâĹłâĸ¦âĸ¦ âĹª
ĠâĹīâĹ§âĸ¼ âĸ¾âĹĲ
ĠâĹĢâĹłâĹĢ âĹłâĸ¦
âĹĪâĸ¾âĸ¦ âĸµ
âĸ¶âĹłâĸ¦âĹĵ âĹ¬
âĹĭâĸ¦ âĸ±âĹłâĹĴ
Ġâĸ¶âĹłâĹİâĹłâĹİ âĸł
' âĸ±âĸ´
âĸ¾ âĸ½
ĠâĹĢ âĹªâĸ½
âĹ³ âĹĪâĸªâĸµ
ĠâĹŀ âĸªâĸ¦
âĹĢ âĹªâĹĵ
Ġâĸ½ âĹª
ĠâĹĴ âĸ©âĸ»âĸ·
Ġâĸ´ âĹĲâĸ´âĹĵ
ĠâĹłâĸ± âĹĪâĸªâĹİâĸµ
ĠâĹłâĸ¦ âĹłâĸ·âĸ«âĹłâĹĵ
âĸ¢âĹķ âĹŃâĹĵ
ĠâĹĤâĸ±âĹİâĹł âĸ±âĸªâĸµ
ĠâĹłâĹĪâĹłâĹİ âĸªâĸ¦
Ġâĸ¨âĹłâĹ³ âĹĢâĸ´âĸ«
ĠâĹłâĸ±âĸ« âĹ¬âĸ¦âĹĪâĹł
ĠâĹĪâĸªâĹĴ âĹłâĹĵâĹ¬
âĹĪâĸªâĹĲâĸªâĸ¦ âĸª
ĠâĹĤâĸ« âĹ¨âĹĵ
ĠâĹķâĹŃâĸ¢âĹªâĸ± âĸµ
ĠâĹķâĹłâĹĵ âĹĹâĸ»
âĹ¢âĹ¨âĹŀ âĹ¨âĹĵâĹł
âĹª âĹĢâĹĹâĸ±
âĸ¨ âĹŃâĸ¦
âĸ½ âĹĹâĹİâĸµ
âĸ½ âĹ«âĹİâĸµ
âĹĤ âĹļ
âĹłâĹŀ âĹ¬âĸµ
ĠâĹĿ âĹłâĹĵ
ĠâĹĪâĸ´ âĸµ
âĹĪâĹ¬ âĹĲâĹ¬âĸ¦âĸª
âĹŀâĸ¾âĸ¦ âĹ¨âĸ¢âĸµ
ĠâĸŃ âĹ«âĹī
Ġâĸ¨âĹĤâĸ¦ âĸ«âĹĵâĹ§âĸ±
ĠâĹĪâĸ´âĹĲâĹĹâĸ± âĸł
âĸ¸ âĹĹ
ĠâĹĪâĹ§ âĸ±âĹłâĹĵ
Ġâĸ¨âĹĤ âĸ±âĹłâĹ³
Ġâĸ«âĹłâĸ¨ âĹĹâĸ»
Ġâĸ¨âĸ´âĸ¦ âĹĪâĹĹâĹİ
ĠâĹĢâĹ¨âĸ¦ âĹĪâĹłâĸ¦
ĠâĹĢâĹªâĸ¨ âĸ±âĹ«
âĸ¡âĹªâĸ¨ âĹĹ
Ġâĸ½âĸ©âĸ¢ âĹĪâĸ´âĸ¦
âĹİâĹłâĹŀâĹ¬âĸ¦ âĹł
ĠâĹ«âĹĴâĸ« âĹªâĸµ
ĠâĹªâĹĵâĸ¨ âĹªâĸ¨
âĸ²âĹŃâĸ« âĹįâĸ´âĸ¦
âĹĪ âĸ¾âĸ¨âĸµ
âĸ« âĸªâĹĵâĸµ
âĹŀ âĹ«âĸ¨
Ġâĸ¨ âĹªâĸ±
âĸ±âĹłâĹĵ âĹĪâĹ¬âĸµ
ĠâĹ³ âĹłâĸ±âĸ¦âĹ¬âĸ¢
ĠâĹĤ âĸ¨âĸ¾
âĹĪâĹ« âĹĲâĹĹâĸ¦âĹĹ
âĹĪâĹ« âĹĲâĹ«âĸ¦âĹ«
ĠâĹª âĹĪâĹĹâĸ±
âĸ±âĹªâĹĵ âĸ±âĸ´
ĠâĹļâĹłâĹĵ !
âĹªâĹİ âĹĹâĸ¦
ĠâĹ§âĸ¦ âĸ±âĹłâĹĵâĸª
ĠâĹİâĸ¾ âĸ·
âĸ¼âĹªâĹĲ âĹĹâĸ¢âĸµ
Ġâĸ½âĹłâĸ¨ âĸ±âĹłâĹĴ
ĠâĹĢâĹłâĸ¨âĹłâĸ± âĸªâĹİâĸµ
âĹĪâĸªâĹĲâĸªâĸ¦ âĹ¬
âĸ¾âĸ· âĹłâĹį
ĠâĹªâĹĵâĸ¨ âĸ´âĸ¨
âĹŀ âĹĹâĸ¨
âĹ³ âĹĪâĹ¬âĸµ
âĸ±âĹł âĹĢ
âĹĿ âĹłâĹĢâĹłâĸł
âĹ§âĹĵ âĹİâĹłâĸ±
âĹĪâĹł âĸ«
âĸªâĸ¦ âĸ¼âĹł
âĸ±âĹĪ âĹª
âĹłâĸ¼ âĹ¬
ĠâĹłâĹĵ âĹłâĹĵ
âĸ±âĸª âĹ³âĹĤâĹĵ
ĠâĹķâĹ« âĹĪâĸ´âĹĵ
âĹŁ âĹłâĹĴ
ĠâĹŀâĹłâĸ¦ âĹłâĸ«
ĠâĹĪâĹªâĹĲâĹĹâĸ± âĸł
ĠâĹ¡ âĹłâĸ¼âĸ¨
ĠâĹĢâĹĩ âĸ±âĹķ
Ġâĸ«âĹłâĹİâĹłâĹİ âĹªâĸ¦
ĠâĹīâĹĤâĸ¼ âĹ¨âĹĲ
Ġâĸ«âĹłâĸ« âĸ±
âĸ´âĸ¼âĹªâĸ¨ âĸµ
âĸ´âĸ¼âĸ´âĸ¨ âĸµ
Ġâĸ´âĹĵâĸ¨ âĹªâĸ¨
âĹĪâĹ¨âĸ¨ âĸµ
âĸ¦ âĹłâĸ¨
âĹĪ âĸ©âĸ¨
âĸ½ âĹĪâĹĹâĸµ
ĠâĹĢ âĹªâĹĵâĹ«
âĹ¨ âĸ¼âĸ¾
ĠâĹĪ âĸ´âĸ±
âĹªâĸ¦ âĹī
ĠâĹİ âĹłâĹī
âĹĵâĹł âĹİâĹłâĸ¦
âĸ±âĸ´âĹĵ âĹĹâĹİ
ĠâĹļâĹłâĹĵ âĹĪâĸªâĹĵâĸµ
ĠâĹ¢ âĸ´âĸ¦
ĠâĹĵ âĹ¨âĸ·
âĸ±âĹłâĹİâĹł âĹ³âĹł
âĹŀâĹ¬ âĸµ
ĠâĹķâĹĹâĸ« âĸ«âĹ«
Ġ1 5
ĠâĹīâĹĤâĸ¼ âĸ¾âĹĲ
âĹģ âĹłâĸ«
ĠâĹķâĹªâĹĵâĸ´âĸ¨ âĸµ
âĹªâĸ¼âĹªâĸ¨ âĸµ
Ġâĸ«âĹªâĹĴ âĹªâĸ¨âĸ¨âĸ©âĹĵ
ĠâĹİâĸ¾âĸ« âĸ±âĹ¨
ĠâĹįâĹ«âĸ¨ âĹĵ
ĠâĹłâĹĵâĹłâĹĴ âĸ«âĹ¬âĹĵ
ĠâĹİâĹª âĹŀâĹłâĸ¸
ĠâĹĢ âĹłâĸ½âĹłâĸ¦
ĠâĹĢ âĹłâĹ³âĹłâĸ¦
âĹ³ âĹ«âĹİâĸµ
âĹ³ âĹĪâĹĹâĸµ
ĠâĹĪ âĹĹâĸ¦âĸ±âĹª
ĠâĹ³ âĹłâĸ±âĸ¦âĸªâĸ¢
Ġâĸ¨âĹł âĸ±âĹłâĸ¼âĹłâĹĲ
âĹªâĸ± âĸ´âĸ¦
âĸ±âĹ« âĹį
âĹĨ âĹ«âĸ«
âĹİâĹłâĸ¨ âĸµ
ĠâĹķâĹĩâĹĵ âĹªâĹļ
âĹĹâĹī âĹĹâĸ¦
'âĸ¦ âĸ¾âĸ¦
ĠâĹ«âĹĴ âĹĹ
Ġâĸ½âĹłâĹĴ âĹł
ĠâĹŀâĹĹâĸ¢ âĹª
ĠâĹ£âĸ¢ âĸ´âĸ±
ĠâĹ³âĹŃâĸ¢ âĹĪâĸ´âĸ¦
Ġâĸ½âĹŃâĸ¢ âĹĪâĸ´âĸ¦
Ġ '
âĹŀ âĹłâĹŀ
ĠâĹĢ âĸ´âĹ³
ĠâĹŀ âĹ¬âĸ¦
âĸ© âĸ±âĹĪ
âĹĢ âĹ§
âĹĢ âĹĤâĸ±
ĠâĹł âĸ±âĹłâĹİâĹł
ĠâĹł âĸ«âĸª
âĸ±âĸ´âĹĵ âĹĪâĸ´
âĹªâĸ« âĸ´âĹĵ
âĸ¾âĹĵ âĸ«
âĹĻ âĹ¨âĹĵ
âĹĭ âĸ«
âĹĨ âĹªâĹĵâĹ«
ĠâĹ¢ âĹĹâĹİ
Ġâĸ¢âĹłâĹİâĹłâĸ¦ âĹ¬
ĠâĹ§âĸ¦ âĹĪâĹłâĸ¦
ĠâĹ§âĸ±âĹİâĹł âĸ±âĹ¬âĸµ
Ġâĸ¨âĹ§âĸ¦ âĸ«âĹĵâĹĤâĸ±
ĠâĹŀâĹłâĸ¨ âĸ±âĹłâĸ¦
âĸ¾âĹŀ âĹ¨
ĠâĹĢâĹ¨âĸ± âĸ¾âĸ¦
âĹĿâĸ¾âĸ¦ âĸ¾âĸ¦
âĹħâĹĤâĸ¼âĸ¾âĸ¨ âĸ±âĹłâĹĵ?
âĸª âĸł
âĹŀ âĸ±âĹł
âĸ½ âĹŀâĹª
ĠâĹĢ âĹłâĸ±
ĠâĹĢ âĹªâĹĵâĹĹ
ĠâĹİ âĹªâĸ¨
âĸ´âĸ« âĹ«
âĹĪâĹª âĸ«
âĹĪâĹ¬ âĹĲâĹ¬âĸ¦âĹ¬
âĹĻ âĹŃâĹĴ
âĹ¦ âĸ«
Ġâĸ½âĹłâĸ» âĹ¬âĹ³âĹ§âĹĵ
ĠâĹķâĹ£âĹĵ âĹªâĹļ
Ġâĸ¨âĹłâĸ± âĹĪâĸªâĹĵ
âĸ«âĹł âĹĪâĹłâĸ¦
ĠâĹķâĹĩâĹĵ âĹŃ
ĠâĹĻ âĹª
ĠâĹĦ âĸ¼
Ġâĸ«âĹłâĸ¨ âĹ«âĸ»
Ġâĸ«âĹłâĹĢ âĹ«
Ġâĸ¾âĸ¦âĸ¾ âĸ«
âĸ½ âĹłâĹĵ
ĠâĹł âĹĹâĸ«
ĠâĹī âĹ«âĸ¢
âĸ¶ âĹª
âĸ±âĹªâĹĵ âĹ«âĹİ
âĹŀâĹ¨âĸ¦ !
ĠâĹłâĸ± âĸµ
âĹĨ âĸ©âĸ¦
ĠâĹ«âĹŀâĸ« âĹ«âĸ½âĹ§âĹĵ
Ġâĸ´âĸ« âĹĵâĹłâĹį
Ġâĸ·âĹłâĸ¨ âĸ±âĹ¬
Ġâĸ·âĹªâĹĵ âĸ¨âĹªâĹŀ
ĠâĹłâĹĵâĸ¨âĹłâĹĪâĹłâĹĴ âĸªâĹİ
âĸ±âĹ¨ âĹĲ
ĠâĹĪâĹ¨âĹĵ âĸ¾âĹİ
ĠâĹ£âĸ± âĸ©âĹİ
âĹĶ âĹī
ĠâĹłâĹĵâĹłâĹŀ âĹ¬âĸ¦âĹĪâĹł
Ġâĸ±âĹłâĸ¦ âĹªâĸ«
âĸ¶âĹłâĹĢ âĹĹ
Ġâĸ´âĹĵâĸ¨ âĸ´âĸ¨
ĠâĹĢ âĸ´âĹĵâĹĹ
âĹĤ âĹŀâĸ«
ĠâĹĪ âĹĹâĸ±âĸ´âĹĵ
ĠâĹĪ âĹ«âĸ¦âĸ±âĸ´
âĸ´âĸ¦ âĹī
Ġâĸ¨âĹł âĸ±âĹłâĸ¼âĹłâĸ¨
ĠâĹª âĹŀâĸ¨âĹĹ
âĹĨ âĸ©
âĸ¢âĹķ âĸ©âĹĵ
ĠâĹķâĹĩâĹĵ âĸ´âĹļ
ĠâĹĤâĸ¦ âĹĪâĹłâĸ¦
ĠâĹłâĹĪâĹłâĹİ âĹ¬âĸ¦
ĠâĹĹâĹĴ âĹĹ
ĠâĹłâĹĵâĸ¨âĹłâĹĪâĹłâĹĴ âĹ¬âĹİ
âĸ®âĹł âĹłâĸ«
Ġâĸ¨âĹªâĸ¦ âĹĪâĹ«âĹİ
ĠâĹĪâĸ¾âĹĵ âĹ¨âĹİ
ĠâĹŀâĹ«âĸ¢ âĹª
âĸ¡âĸ´âĸ¨ âĹłâĸ±âĹłâĸł
ĠâĹłâĹĵâĹł âĹĪâĹł
Ġâĸ·âĹĹâĹŀ âĹŀâĸ´
Ġâĸ½âĸ©âĸ¢ âĹĪâĹªâĸ¦
ĠâĹķâĸ´âĹĵâĹīâĹªâĸ¨ âĸ«âĸ´âĸ¦
ĠâĹĿâĹłâĹĴ âĸ¨âĹł
âĸ± âĹ«âĸ±
âĸ½ âĹłâĸ±
ĠâĹł âĹĪâĸª
âĹłâĸ¼ âĸ·
âĹłâĸ¦âĹł âĹļâĹłâĹĵ
ĠâĹĩ âĸ»
ĠâĹķâĹĩâĹĵ âĹİâĹªâĸ¨
âĹ¤ âĹłâĸ¨
âĹĬ âĸ½âĹĹ
âĹĲâĹ«âĹİ !
ĠâĹĺ âĸ±
Ġâĸ«âĹłâĹİâĹłâĹİ âĸ´âĸ¦
ĠâĹĢâĸ´âĸ¨ âĸ±âĹĹ
ĠâĹ³âĸ©âĸ¢ âĹĪâĹªâĸ¦
ĠâĹ§âĸ±âĹłâĹĢâĹ«âĸ± âĹ«âĹĵ
Ġâĸ·âĸ´âĹİ âĸ´âĸ¦
ĠâĹķâĹ£âĹĵâĸ©âĹĴ âĸ©âĹĵâĹŃâĸ¢âĸµ
âĹł âĹĪâĹłâĹİ
âĸ½ âĹĪâĸªâĸµ
âĹ³ âĹĹâĹİâĸµ
âĹłâĸ¦ âĸ±âĹłâĹĵ
ĠâĹĪ âĹ«âĸ¦âĸ±âĹª
ĠâĹİ âĹŃâĸ¢
âĹļ âĹĹ
ĠâĹ³ âĹª
ĠâĹ³ âĸ©âĸ¨
âĹ«âĸ± âĸ´
ĠâĹļâĹłâĹĵ âĹĪâĹ¬âĹĵâĸµ
ĠâĹ£ âĸ»
âĹĭ âĹĵâĸ¨âĹłâĹĪâĹłâĹĴ
ĠâĹĵ âĹłâĸ¦
âĸ±âĹłâĹİâĹł âĸ½âĹł
ĠâĹĨ âĹªâĹĵ
ĠâĹ³âĹłâĹĴ âĹł
ĠâĹķâĹªâĹĵâĹªâĸ¨ âĸµ
âĹ¨âĹĴâĸ« âĸ¾âĹĵ
ĠâĹ£âĸ± âĹŃâĹİ
1 0
âĹĪ âĹĵâĹł
âĸ¾ âĸ¼
âĹ³ âĹłâĹĵ
âĹİâĹł âĹİâĹł
ĠâĹī âĹ£
âĸ±âĸ´ âĸł
ĠâĹĪâĹª âĸµ
âĹ¢ âĹ¬
âĸ±âĹłâĸ¦ âĹĪâĹ¬âĹĵ
ĠâĹłâĹĵ âĸ¨
âĹĪâĹ¬ âĸ±âĹłâĹĵâĸµ
ĠâĹį âĹ§âĸ«
ĠâĹĵ âĸ©
ĠâĹĤâĸ¦ âĸ¾âĸ¦âĸ±âĹł
âĹĬ âĸ½âĹ«
ĠâĹĨ âĹŃ
âĹłâĹĵâĸ¨ âĹªâĸ¦
Ġâĸ© âĸ±âĸ¨
Ġâĸ·âĹªâĹĵ âĸ¨âĸ´âĹŀ
âĸ®âĹł âĹī
âĹİâĸ´âĸ± âĹĹâĸ½
ĠâĹŀâĹ«âĸ¢ âĹĹâĸ¦
âĸªâĸ½âĹĤâĹĵ âĹ¨âĹİâĸµ
âĹŀâĹłâĹİ âĸł
âĹªâĸ¼âĸ´âĸ¨ âĸµ
ĠâĹ§âĸ« âĸ¾âĹĵ
Ġâĸ·âĸ´âĹİ âĹªâĸ¦
âĹĵ âĸ¾
âĹİ âĸł
âĸº âĸ¶âĹªâĹĴâĹªâĸ¨âĸ¨âĹŃâĹĵ
ĠâĹª âĹŀâĸ¨âĹ«
âĹĻ âĹłâĹļ
âĸ±âĹĹ âĹĴ
ĠâĹĢâĹłâĹĴ âĹłâĹĵâĹ¬
âĹĲâĹ«âĸ¦ âĸ´
âĹĬ âĸ¦âĹłâĸ¦
âĹ² âĹ³âĹ«
ĠâĹªâĸ« âĹĵâĹłâĹį
ĠâĹĤâĸ±âĹİâĹł âĹĪâĹłâĸ¦
ĠâĹĭ âĸ¦âĸ¦
âĹŀâĹ« âĸµ
Ġâĸ·âĸ´âĹĵ âĸ¨âĸ´âĹŀ
âĹ±âĸ¦ âĸ±âĹłâĹĵ
Ġâĸ¨âĸ¾âĹĵ âĸ«
Ġâĸ¨âĹłâĸ½ âĹĢâĹªâĸ«
âĹĽ âĸ¢
âĹĪâĸ©âĹĲ âĸ©âĹİ
Ġâĸ·âĹłâĹŀâĸ« âĹł
ĠâĹĢâĸ´âĸ± âĸ¨âĹ«
ĠâĹķâĹªâĹĵâĹīâĸ´âĸ¨ âĸ«âĸ´âĸ¦
" âĸµ
âĹ³ âĹłâĸ»
âĹ³ âĹŀâĸ´
ĠâĹł âĹ«âĸ«
Ġâĸ½ âĹŃâĸ¨
Ġâĸ« âĸ´âĹŀ
âĸ´âĹİ âĹĹâĸ¦
ĠâĹ§âĸ¦ âĹ¨âĸ¦âĸ±âĹł
ĠâĹ§âĸ±âĹİâĹł âĹĪâĹłâĸ¦
ĠâĹİâĹ¨ âĸ·
ĠâĹ¦ âĸ¦âĸ¦
ĠâĹłâĹī âĹ¬
âĸ¬ âĹłâĸ¦
Ġâĸ¨âĹ§ âĸ±âĹłâĸ½
âĹłâĹŀâĸª âĸµ
ĠâĹĢâĹ£ âĸ±âĹķ
ĠâĹķâĹªâĸ±âĹĪ âĹĹâĸµ
Ġâĸ¨âĹłâĹ³ âĹĢâĹªâĸ«
ĠâĹ£âĸ¢ âĸ©âĹĵ
ĠâĹĪâĹ¬âĹĴ âĹłâĹĵâĹ¬
ĠâĹĢâĸ´âĸ± âĸ¨âĹĹ
ĠâĹĢâĹłâĸ¨âĹİâĹłâĹ³ âĸªâĸ¦âĸµ
âĸºâĸ¶âĹªâĹĴâĹªâĸ¨âĸ¨âĹŃâĹĵ âĸ±âĹªâĹĵâĸµ
âĹ³ âĹłâĸ±
Ġâĸ¨ âĹĹâĹĵ
Ġâĸ« âĹłâĸ±
âĹªâĸ¨ âĸ±âĹĹ
âĹ¢ âĹ¨âĹĵ
âĸ±âĹłâĸ¦ âĹĪâĸªâĹĵ
ĠâĹ£ âĹĪâĸ´
âĹĹâĸ¨ âĸµ
âĹĨ âĸ´âĹĵâĹĹ
âĹĿâĹ¨ âĹķâĹŃâĸ¦
ĠâĹĵ âĸ¾âĸ·
âĹ² âĸ¨âĹĹ
Ġâĸ«âĹłâĸ¦ âĸªâĹĴâĸ«
âĸ¼âĸ´âĹĲ âĹĹâĸ¢âĸµ
ĠâĹ³âĹłâĹĵ âĹłâĸ«
âĸªâĸ±âĹĪ âĸª
ĠâĹĵâĹłâĸ·âĹłâĸ« âĹŀâĹ¬âĸ¢
Ġâĸ«âĹ§âĸ» âĸ±âĹłâĸ¦
3 0
âĸ± âĹĹâĸ±
âĸ½ âĹªâĸ¦
ĠâĹĪ âĹłâĸ½âĹłâĸ¦
âĹ«âĸ¦ âĹī
âĹ¬âĸ¦ âĹĪâĹłâĸ¨âĹĹ
Ġâĸ· âĹ«âĸ¨
ĠâĹī âĹ«âĹįâĸ«
ĠâĹĴ âĹĹâĹĵâĸ¨
ĠâĹª âĹįâĸ´âĸ¦
âĸ¯ âĸ´âĹĵâĹª
ĠâĹ¢ âĹłâĸ«
Ġâĸ¼ âĹªâĸ¢
âĸ¡ âĹ§
ĠâĹ¨ âĸ±âĹłâĹĴ
ĠâĹĤâĸ± âĸµ
Ġâĸ¡ âĹł
ĠâĹłâĹī âĸª
ĠâĹĢâĹ«âĸ¢ âĹ«
Ġâĸ¦âĹłâĹŀâĸªâĸ± ?
ĠâĹķâĸ´âĸ±âĹĪ âĹĹâĸµ
ĠâĹŀâĸ´ âĹĢ
ĠâĹłâĹĪ âĹ¬âĹİ
âĸªâĸ±âĹĪ âĹ¬
âĹĿâĹłâĹĢ âĹłâĸ¦
âĹĪâĹŃâĹĲ âĹŃâĹİ
Ġâĸ·âĹ«âĹŀ âĹŀâĹªâĸ«
ĠâĹĩâĸ¢ âĸ´âĸ±
Ġ3 0
ĠâĹķâĸ´âĹĵâĹīâĸ´âĸ¨ âĸ«âĹªâĸ¦
âĸ¶âĹłâĹĢ âĹ«
ĠâĹİâĸ´ âĹŀâĹłâĸ¸
âĹª âĹĪâĹª
âĹ³ âĹŀâĹª
âĹĲ âĸ´âĸ¦
âĹį âĸ´âĹŀ
âĸ¶ âĸ´
âĹªâĸ± âĸ±
Ġâĸ´ âĹŀ
âĹĨ âĹ«
Ġâĸ® âĹłâĹĵ
âĸ±âĹĹ âĹį
ĠâĹĢâĹ«âĸ± âĹİâĹĹ
ĠâĹİâĸª âĹ³
âĸ´âĹİ âĹ«âĸ¦
âĸ«âĹĹ âĹį
âĸªâĸ± âĹ¬âĸ¨
âĹĹâĹī âĹ«âĸ¦
âĹŀâĸª âĸµ
ĠâĹłâĸ¨ âĸªâĸ±
ĠâĹĺ âĹļâĹªâĸ«âĸł
ĠâĹŀâĹĹâĸ¢ âĹĹâĸ¦
âĹ¬âĹ³âĹ§âĹĵ âĹ¨âĹİâĸµ
Ġâĸ¨âĹłâĹļ âĹķâĹł
âĸ¦ âĹªâĸ«
âĸ´ âĹĪâĹª
âĸ½ âĸ´âĸ¦
âĹ³ âĹłâĸ¼âĹłâĸ¨âĸµ
ĠâĹİ âĹłâĹĵ
âĸ±âĹł âĸ±
âĸªâĸ¦ ?
âĹļ âĹ«
ĠâĹł âĹĪâĹ¬
Ġâĸ¦ âĹłâĸ¢
âĸ±âĸ´âĹĵ âĸ±âĹª
âĹİâĸ´ âĹĪâĹªâĸ¦
Ġâĸ» âĹ«âĹŀ
âĹŀâĸ¾âĸ¦ âĸ¾âĸ¢âĸµ
âĹŀâĹł âĸµ
âĹŀâĹłâĸ¦ âĹ¬âĸ¢
âĹĬ âĸ¨âĹĹ
âĸ©âĹİ âĸł
ĠâĹŀâĹĹâĸ¢ âĹĹ
ĠâĹĢâĹªâĸ¨ âĸ±âĹĹ
ĠâĹĢâĹªâĸ± âĸ¨âĹ«
âĸ¦âĹķ âĹ«âĸ±
Ġâĸ±âĹłâĸ¦ âĸ´âĸ«
âĸ´ âĹį
âĸ´ âĹİâĹĹ
ĠâĹİ âĹŃâĹİ
âĸªâĸ¦ âĹĪâĹłâĸ¨âĹ«
âĹĩ âĸ»
âĹłâĹŀ âĸ½âĹĤâĸ¦
âĹłâĹĲ âĹİ
âĸ±âĸ´âĹĵ âĸ±âĸ´
âĸ±âĸ´âĹĵ âĹĪâĹª
Ġâĸ» âĹłâĹ³
Ġâĸ´ âĹŀâĸ¨âĹĹ
âĹĻ âĹĵâĸµ
ĠâĹłâĸ± âĹ¬âĸ»
âĹ¦ âĸ¨
Ġâĸ® âĹ§âĸ¦
âĸ¿ âĸ·âĸł
ĠâĹ¢ âĹĵâĹłâĸ±
ĠâĹķâĹ£âĹĵ âĹŃ
ĠâĹķâĹĩâĹĵ âĸ©
âĸ«âĹĹ ?
âĸ¾âĸ¨ âĹłâĹĵâĹ¬
ĠâĹķâĹªâĸ± âĹİâĹª
Ġâĸ·âĸ´âĹĵ âĸ¨âĹªâĹŀ
Ġâĸ¤ âĹĤ
ĠâĹłâĸ¨ âĹ¬âĸ±
ĠâĹŀâĹĹâĸ¢ âĹ«
Ġâĸ«âĹª âĹŀâĸ«
ĠâĹĵâĹłâĸ·âĹłâĸ« âĹŀâĸªâĸ¢
âĸ±âĹłâĹİ âĸł
âĸ¦âĹķ âĹĹâĸ±
âĸ± âĹĹâĹİ
âĹĪ âĸªâĹİâĸł
âĹ§ âĸł
âĹĿ âĹłâĸ·
Ġâĸ½ âĸ©âĸ¨
Ġâĸ½ âĸªâĸ±âĹĪ
ĠâĹī âĹĹâĹįâĸ«
ĠâĹª âĹĲâĸ´âĹĵ
Ġâĸ´ âĹĲâĹªâĹĵ
Ġâĸ´ âĹŀâĸ¨âĹ«
âĹªâĹİ âĹ«âĸ¦
âĹ«âĸ¨ âĸµ
ĠâĹ§âĸ±âĹİâĹł âĹŀâĹ¬
âĸ±âĹłâĹĵâĹ¬ âĸµ
âĹŀâĹĹ âĸµ
ĠâĹ° âĹļâĹªâĸ«âĸł
ĠâĹķâĹªâĸ±âĹĪ âĹ«âĸµ
ĠâĹīâĹªâĸ¨ âĹ«âĸ±
âĹ® âĸ¢
ĠâĹĤâĸ±âĹłâĹĢâĹĹâĸ± âĹ«âĹĵ
Ġâĸ¢âĹłâĸ«âĹªâĸ¦ âĸµ
âĸ½ âĹĪâĹ¬âĸµ
ĠâĹĢ âĹĤâĸ¨
âĹĤ âĸł
ĠâĹİ âĹªâĸ«
âĹłâĸ± âĸ±
âĸ±âĹłâĹĵ âĹĪâĸªâĸµ
ĠâĹł âĹĲâĹĵ
ĠâĹī âĹĹâĸ¢
âĹķ âĹ«âĸ±
ĠâĹĴ âĸ¾âĸ¦âĹ¨
âĸ® âĹªâĹļ
âĹħ âĹªâĸ¨
âĸ«âĹ« âĹį
Ġâĸ¢âĹłâĹİâĹłâĸ¦ âĸª
âĹ² âĸ¦âĹłâĸ¦
ĠâĹĤâĸ±âĹİâĹł âĸ±âĹ¬âĸµ
ĠâĹłâĹĪâĹłâĹİ âĸ±âĹłâĹĵ
Ġâĸ¨âĹ§ âĹĴ
Ġâĸ·âĹłâĸ± âĹĪâĸ´
âĸ¡âĹªâĸ¨ âĹ«
ĠâĹĩâĸ± âĸ©âĹİ
ĠâĹķâĸ´âĹĵâĹīâĹªâĸ¨ âĸ«âĹªâĸ¦
ĠâĹłâĹŀâĸ± âĹ¬âĸ¦âĹĪâĹł
' âĹĪâĹłâĸ¨âĹ«
ĠâĹİ âĸ©âĸ¢
âĹ¨âĸ¦ âĹī
ĠâĹī âĹłâĸ¨
ĠâĹĴ âĹłâĸ·
Ġâĸ» âĹłâĸ½
âĹĻ âĸ©âĹĴ
ĠâĹĢâĹĹâĸ± âĹİâĹĹ
ĠâĹĢâĹªâĸ¦ âĸµ
ĠâĹķâĹĩâĹĵ âĹİâĸ´
ĠâĹĢâĹłâĸ¦âĹł âĸł
ĠâĹĪâĸ´âĹĲâĹ«âĸ± âĸł
ĠâĹŃ âĸ¢âĹķ
ĠâĹªâĹļ âĹª
Ġâĸ½âĹłâĹĴ âĹłâĹİ
ĠâĹĢâĹªâĸ± âĸ¨âĹĹ
ĠâĹĤâĸ±âĹłâĹĢâĹ«âĸ± âĹĹâĹĵ
ĠâĹĴâĹªâĸ¨âĹ«âĸ± âĹĪâĹª
ĠâĹĢ âĹ§âĸ¨
âĹ³ âĹĹâĸ¦
ĠâĹĪ âĹ«âĸ½âĹ§âĹĵ
âĹļ âĹĵ
ĠâĹł âĸ¸âĹłâĸ¦
Ġâĸ½ âĹ¬âĸ±âĹĪ
âĸ±âĸ´ âĹĴâĸ«âĹ«âĹĵ
âĹłâĹŀ âĹ³âĹ§âĸ¦
Ġâĸ¨âĹłâĹĵ âĹ¬âĹĴ
ĠâĹķâĹ£âĹĵ âĹĪâĹŃâĹİâĸµ
Ġâĸ¶ âĹłâĹĢ
âĸ±âĹłâĹĵâĸª âĸµ
âĹĿâĹ«âĹĵ âĸ¨âĹłâĹī
âĹ«âĹī âĹ«âĸ¦
Ġâĸ´âĹļ âĹª
âĹİâĹĹâĹĴâĸ« âĹĹâĸµ
ĠâĹ§âĸ« âĹ¨âĹĵ
ĠâĹ§âĸ±âĹłâĹĢâĹĹâĸ± âĹĹâĹĵ
âĹĿâĹłâĸ¢ âĸª
âĹ¨âĸ· âĹłâĹį
âĹĨâĸ©âĸ¢ âĹªâĸ±
Ġâĸ¾âĸ¦âĹ¨ âĸ«
âĹª âĹĢâĹ«âĸ±âĹĹâĹĵ
âĹ« âĸ¼âĸ¨
âĸ¾ âĹŀâĸ«
âĹ¨ âĸ¼âĹ¨
âĹ§ âĸ¥
âĸ» âĸ´âĹĵ
âĹĪâĹł âĸ½
Ġâĸ½ âĹłâĹļâĹłâĹĴ
âĹķ âĹłâĹĵ
âĸ´âĸ« âĹĹ
âĸ½âĹĤâĹĵ âĹŀâĸ¾âĸ¦?
âĹłâĸ½ âĸ±âĹł
âĹªâĸ± âĹ«âĹİâĸµ
ĠâĹłâĸ± âĹ¬âĹĴ
âĹ¦ âĹĵâĸ¨âĹłâĹĪâĹłâĹĴ
Ġâĸ¨âĹłâĹĵ âĸªâĹĴâĸ«
ĠâĹĢâĹłâĸ¨ âĸł
âĹ² âĸ¦
ĠâĹĨ âĸ´âĹĵ
ĠâĹİâĹ¨ âĸ·âĸ«
âĹ¨âĸ¨ âĹłâĸ«
âĸ±âĹŃ âĹĲ
Ġâĸ·âĹłâĸ½ âĹļâĹłâĸ¦
Ġâĸ½âĹ§âĸ¨ âĹŀâĹł
âĹĪâĹ«âĹĵ ?
ĠâĹīâĹ§âĸ¼ âĹ¨âĹĲ
Ġâĸ·âĹĹâĹŀ âĹŀâĹªâĸ«
Ġ5 0
ĠâĹĪâĹĩ âĹĵâĸ«
ĠâĹįâĹĹâĸ± âĹİ
âĹª âĸ¼
âĸ« âĸł
âĸ« âĹ¬âĸ¨
âĹŀ âĸ·
âĸ½ âĹŀâĸ´
âĹ³ âĹĪâĹ«âĸµ
âĸ¼ âĸ¾âĸ±
ĠâĹ³ âĸªâĸ±âĹĪ
âĹĹâĸ± âĸ±
âĸ´âĸ¨ âĸ±âĹĹ
âĹŀâĸ« âĹªâĹĵ
âĹĪâĹª âĹļ
ĠâĹĿ âĸ´âĸ±
ĠâĹ£ âĹĵ
ĠâĹĩ âĹĵ
âĹĭ âĸ¨
âĹĭ âĹŀâĸ±âĸªâĸ¦âĹĪâĹł
ĠâĹķâĹĹ âĹĪâĹªâĹĵ
âĹĲâĹĹâĸ¦ âĹª
Ġâĸ¡ âĸ·
ĠâĹĴâĸ´âĹ³ âĸµ
Ġâĸ¨âĹĤ âĹĴ
Ġâĸ·âĹłâĸ± âĸ¨
Ġâĸ·âĹłâĸ± âĸ±âĸ´
âĹİâĸ´âĸ± âĹ«âĹ³
ĠâĹŀâĹĹâĸ¢ âĹ«âĸ¦
ĠâĹŀâĹ«âĸ¢ âĹĹ
Ġâĸ»âĸ±âĹłâĸ¦ âĹ¬âĹİ
ĠâĹ£âĸ¢ âĹªâĸ±
ĠâĹŀâĹ¬ âĸ¼âĹłâĸ¨
ĠâĹªâĹĲ âĸ±âĹªâĸ¦
ĠâĹĪâĹ«âĸ½âĹĤâĹĵ âĹŀâĹ¨âĸ¦?
ĠâĹĪâĹ«âĹ³âĹĤâĹĵ âĹŀâĹ¨âĸ¦?
âĹĹ âĸ¼âĸ¨
âĹĪ âĹĵ
âĸ« âĹ¬âĹİ
âĹ¨ âĹĢ
Ġâĸ¨ âĹ«âĹĵ
âĹĹâĸ¦ âĹī
âĹ«âĸ± âĸ±
ĠâĹĴ âĸ¾âĸ¦âĸ¾
âĹ¢ âĹłâĸ¢
âĸ±âĹªâĹĵ âĹĹâĹİ
âĸ±âĹªâĹĵ âĸ±âĹª
