{
  "version": "1.0",
  "truncation": null,
  "padding": null,
  "added_tokens": [
    {
      "id": 0,
      "content": "<|endoftext|>",
      "single_word": false,
      "lstrip": false,
      "rstrip": false,
      "normalized": true,
      "special": true
    },
    {
      "id": 1,
      "content": "[BOS]",
      "single_word": false,
      "lstrip": false,
      "rstrip": false,
      "normalized": false,
      "special": true
    },
    {
      "id": 2,
      "content": "[EOS]",
      "single_word": false,
      "lstrip": false,
      "rstrip": false,
      "normalized": false,
      "special": true
    },
    {
      "id": 3,
      "content": "[PAD]",
      "single_word": false,
      "lstrip": false,
      "rstrip": false,
      "normalized": false,
      "special": true
    }
  ],
  "normalizer": null,
  "pre_tokenizer": {
    "type": "ByteLevel",
    "add_prefix_space": false,
    "trim_offsets": true,
    "use_regex": true
  },
  "post_processor": {
    "type": "ByteLevel",
    "add_prefix_space": true,
    "trim_offsets": false,
    "use_regex": true
  },
  "decoder": {
    "type": "ByteLevel",
    "add_prefix_space": true,
    "trim_offsets": true,
    "use_regex": true
  },
  "model": {
    "type": "BPE",
    "dropout": null,
    "unk_token": null,
    "continuing_subword_prefix": "",
    "end_of_word_suffix": "",
    "fuse_unk": false,
    "byte_fallback": false,
    "ignore_merges": false,
    "vocab": {
      "<|endoftext|>": 0,
      "[BOS]": 1,
      "[EOS]": 2,
      "[PAD]": 3,
      "!": 4,
      "\"": 5,
      "#": 6,
      "$": 7,
      "%": 8,
      "&": 9,
      "'": 10,
      "(": 11,
      ")": 12,
      "*": 13,
      "+": 14,
      ",": 15,
      "-": 16,
      ".": 17,
      "/": 18,
      "0": 19,
      "1": 20,
      "2": 21,
      "3": 22,
      "4": 23,
      "5": 24,
      "6": 25,
      "7": 26,
      "8": 27,
      "9": 28,
      ":": 29,
      ";": 30,
      "<": 31,
      "=": 32,
      ">": 33,
      "?": 34,
      "@": 35,
      "A": 36,
      "B": 37,
      "C": 38,
      "D": 39,
      "E": 40,
      "F": 41,
      "G": 42,
      "H": 43,
      "I": 44,
      "J": 45,
      "K": 46,
      "L": 47,
      "M": 48,
      "N": 49,
      "O": 50,
      "P": 51,
      "Q": 52,
      "R": 53,
      "S": 54,
      "T": 55,
      "U": 56,
      "V": 57,
      "W": 58,
      "X": 59,
      "Y": 60,
      "Z": 61,
      "[": 62,
      "\\": 63,
      "]": 64,
      "^": 65,
      "_": 66,
      "`": 67,
      "a": 68,
      "b": 69,
      "c": 70,
      "d": 71,
      "e": 72,
      "f": 73,
      "g": 74,
      "h": 75,
      "i": 76,
      "j": 77,
      "k": 78,
      "l": 79,
      "m": 80,
      "n": 81,
      "o": 82,
      "p": 83,
      "q": 84,
      "r": 85,
      "s": 86,
      "t": 87,
      "u": 88,
      "v": 89,
      "w": 90,
      "x": 91,
      "y": 92,
      "z": 93,
      "{": 94,
      "|": 95,
      "}": 96,
      "~": 97,
      "¡": 98,
      "¢": 99,
      "£": 100,
      "¤": 101,
      "¥": 102,
      "¦": 103,
      "§": 104,
      "¨": 105,
      "©": 106,
      "ª": 107,
      "«": 108,
      "¬": 109,
      "®": 110,
      "¯": 111,
      "°": 112,
      "±": 113,
      "²": 114,
      "³": 115,
      "´": 116,
      "µ": 117,
      "¶": 118,
      "·": 119,
      "¸": 120,
      "¹": 121,
      "º": 122,
      "»": 123,
      "¼": 124,
      "½": 125,
      "¾": 126,
      "¿": 127,
      "À": 128,
      "Á": 129,
      "Â": 130,
      "Ã": 131,
      "Ä": 132,
      "Å": 133,
      "Æ": 134,
      "Ç": 135,
      "È": 136,
      "É": 137,
      "Ê": 138,
      "Ë": 139,
      "Ì": 140,
      "Í": 141,
      "Î": 142,
      "Ï": 143,
      "Ð": 144,
      "Ñ": 145,
      "Ò": 146,
      "Ó": 147,
      "Ô": 148,
      "Õ": 149,
      "Ö": 150,
      "×": 151,
      "Ø": 152,
      "Ù": 153,
      "Ú": 154,
      "Û": 155,
      "Ü": 156,
      "Ý": 157,
      "Þ": 158,
      "ß": 159,
      "à": 160,
      "á": 161,
      "â": 162,
      "ã": 163,
      "ä": 164,
      "å": 165,
      "æ": 166,
      "ç": 167,
      "è": 168,
      "é": 169,
      "ê": 170,
      "ë": 171,
      "ì": 172,
      "í": 173,
      "î": 174,
      "ï": 175,
      "ð": 176,
      "ñ": 177,
      "ò": 178,
      "ó": 179,
      "ô": 180,
      "õ": 181,
      "ö": 182,
      "÷": 183,
      "ø": 184,
      "ù": 185,
      "ú": 186,
      "û": 187,
      "ü": 188,
      "ý": 189,
      "þ": 190,
      "ÿ": 191,
      "Ā": 192,
      "ā": 193,
      "Ă": 194,
      "ă": 195,
      "Ą": 196,
      "ą": 197,
      "Ć": 198,
      "ć": 199,
      "Ĉ": 200,
      "ĉ": 201,
      "Ċ": 202,
      "ċ": 203,
      "Č": 204,
      "č": 205,
      "Ď": 206,
      "ď": 207,
      "Đ": 208,
      "đ": 209,
      "Ē": 210,
      "ē": 211,
      "Ĕ": 212,
      "ĕ": 213,
      "Ė": 214,
      "ė": 215,
      "Ę": 216,
      "ę": 217,
      "Ě": 218,
      "ě": 219,
      "Ĝ": 220,
      "ĝ": 221,
      "Ğ": 222,
      "ğ": 223,
      "Ġ": 224,
      "ġ": 225,
      "Ģ": 226,
      "ģ": 227,
      "Ĥ": 228,
      "ĥ": 229,
      "Ħ": 230,
      "ħ": 231,
      "Ĩ": 232,
      "ĩ": 233,
      "Ī": 234,
      "ī": 235,
      "Ĭ": 236,
      "ĭ": 237,
      "Į": 238,
      "į": 239,
      "İ": 240,
      "ı": 241,
      "Ĳ": 242,
      "ĳ": 243,
      "Ĵ": 244,
      "ĵ": 245,
      "Ķ": 246,
      "ķ": 247,
      "ĸ": 248,
      "Ĺ": 249,
      "ĺ": 250,
      "Ļ": 251,
      "ļ": 252,
      "Ľ": 253,
      "ľ": 254,
      "Ŀ": 255,
      "ŀ": 256,
      "Ł": 257,
      "ł": 258,
      "Ń": 259,
      "âĹ": 260,
      "âĸ": 261,
      "âĹł": 262,
      "ĠâĹ": 263,
      "âĸ¦": 264,
      "âĹĵ": 265,
      "âĸ±": 266,
      "âĹİ": 267,
      "âĸ´": 268,
      "âĹª": 269,
      "âĹĹ": 270,
      "âĹ«": 271,
      "âĸ¨": 272,
      "âĹĪ": 273,
      "âĸµ": 274,
      "âĸ«": 275,
      "âĹ¬": 276,
      "âĸª": 277,
      "âĹŀ": 278,
      "âĸ½": 279,
      "âĸ¾": 280,
      "ĠâĹĢ": 281,
      "âĹ¨": 282,
      "âĸ¢": 283,
      "âĹłâĹĵ": 284,
      "âĹ³": 285,
      "âĹłâĸ¦": 286,
      "âĹĴ": 287,
      "Ġâĸ": 288,
      "âĹĲ": 289,
      "âĹ§": 290,
      "âĹĤ": 291,
      "ĠâĹĪ": 292,
      "Ġâĸ¨": 293,
      "âĹİâĹł": 294,
      "âĸ¼": 295,
      "ĠâĹķ": 296,
      "âĹŃ": 297,
      "ĠâĹŀ": 298,
      "âĸł": 299,
      "âĸ©": 300,
      "âĹī": 301,
      "âĸ´âĸ¦": 302,
      "âĹİâĸµ": 303,
      "âĹĢ": 304,
      "âĹªâĸ¦": 305,
      "âĸ´âĹĵ": 306,
      "âĹĹâĸ¦": 307,
      "âĹ«âĸ¦": 308,
      "ĠâĹİ": 309,
      "âĹªâĹĵ": 310,
      "âĸ±âĹł": 311,
      "âĹĿ": 312,
      "âĸ»": 313,
      "âĹłâĸ¨": 314,
      "âĹ«âĹĵ": 315,
      "âĹłâĸ±": 316,
      "âĹĹâĹĵ": 317,
      "âĹ§âĹĵ": 318,
      "âĹĤâĹĵ": 319,
      "âĸ±âĹłâĹĵ": 320,
      "âĹĪâĹł": 321,
      "âĹ¬âĸ¦": 322,
      "âĸªâĸ¦": 323,
      "âĸ·": 324,
      "Ġâĸ·": 325,
      "âĸº": 326,
      "ĠâĹļ": 327,
      "âĹļ": 328,
      "ĠâĹł": 329,
      "ĠâĹ³": 330,
      "ĠâĹ§": 331,
      "Ġâĸ½": 332,
      "âĹ¨âĸ¦": 333,
      "ĠâĹĹ": 334,
      "ĠâĹ«": 335,
      "âĹĹâĸ±": 336,
      "âĹ«âĸ±": 337,
      "ĠâĹĤ": 338,
      "Ġâĸ«": 339,
      "âĸ¾âĸ¦": 340,
      "ĠâĹī": 341,
      "âĹķ": 342,
      "âĹªâĸ¨": 343,
      "âĸ´âĸ¨": 344,
      "âĸµâĸµ": 345,
      "ĠâĹĴ": 346,
      "âĹŀâĸ«": 347,
      "âĹłâĸ«": 348,
      "âĹłâĸ»": 349,
      "âĸ±âĹĪ": 350,
      "âĹĵâĹł": 351,
      "ĠâĹĢâĹ«âĹĵ": 352,
      "ĠâĹĢâĹĹâĹĵ": 353,
      "âĹĩ": 354,
      "âĹ£": 355,
      "âĹį": 356,
      "âĹ«âĹİ": 357,
      "âĹĹâĹİ": 358,
      "âĸ®": 359,
      "âĸ±âĸ´": 360,
      "âĸ±âĹª": 361,
      "Ġâĸ¦": 362,
      "âĸ¶": 363,
      "âĹłâĹİâĹł": 364,
      "âĹĪâĹĹ": 365,
      "Ġâĸ¨âĹł": 366,
      "âĹĪâĹ«": 367,
      "âĹŃâĸ¦": 368,
      "âĸ½âĹ§âĹĵ": 369,
      "âĹłâĹİ": 370,
      "âĸ´âĸ«": 371,
      "ĠâĹª": 372,
      "âĹ«âĸ¢": 373,
      "âĹĹâĸ¢": 374,
      "âĸ´âĸ±": 375,
      "âĹ³âĹĤâĹĵ": 376,
      "âĹłâĹĴ": 377,
      "ĠâĹİâĹ¬": 378,
      "âĹłâĸ·": 379,
      "âĹĪâĹª": 380,
      "âĹłâĹŀ": 381,
      "âĸ½âĹĤâĹĵ": 382,
      "âĹłâĹĢ": 383,
      "âĹ³âĹ§âĹĵ": 384,
      "âĹĪâĸ´": 385,
      "âĹ¬âĹĵ": 386,
      "ĠâĹĪâĹª": 387,
      "âĸªâĹĵ": 388,
      "âĹĴâĸ«": 389,
      "âĹİâĹª": 390,
      "ĠâĹĿ": 391,
      "âĸŃ": 392,
      "âĹłâĹĲ": 393,
      "âĸªâĹİ": 394,
      "ĠâĹĪâĸ´": 395,
      "âĹłâĹİâĹłâĹİ": 396,
      "âĹ¬âĹİ": 397,
      "âĹłâĹ³": 398,
      "âĸ©âĸ¦": 399,
      "ĠâĹİâĹ¬?": 400,
      "âĹłâĸ½": 401,
      "âĹ¢": 402,
      "âĸ±âĹªâĹĵ": 403,
      "âĹĪâĹłâĸ¦": 404,
      "âĸ±âĸ´âĹĵ": 405,
      "âĹłâĸ¢": 406,
      "âĹİâĸ´": 407,
      "âĹłâĸ¼": 408,
      "âĸ¶âĹłâĹİâĹłâĹİ": 409,
      "âĹĤâĸ¦": 410,
      "âĹ§âĸ¦": 411,
      "âĸªâĸ¢": 412,
      "âĹłâĸ¦âĹł": 413,
      "âĹ¬âĸ¢": 414,
      "âĹªâĸ«": 415,
      "Ġâĸ»": 416,
      "ĠâĹļâĹłâĹĵ": 417,
      "âĸ±âĹłâĸ¦": 418,
      "âĸ±âĹİâĹł": 419,
      "âĸ¼âĹª": 420,
      "âĸµâĸµâĸµ": 421,
      "ĠâĹĢâĹ¨": 422,
      "Ġâĸ¢": 423,
      "ĠâĹĢâĸ¾": 424,
      "âĸ¯": 425,
      "âĹĤâĸ¨": 426,
      "âĸªâĸ¨": 427,
      "âĸ¼âĸ´": 428,
      "âĹ§âĸ¨": 429,
      "âĹªâĸ±": 430,
      "âĹ¬âĸ¨": 431,
      "âĹŀâĹ¨âĸ¦": 432,
      "âĹ¨âĹİâĸµ": 433,
      "âĹİâĹĹ": 434,
      "ĠâĹłâĹĵ": 435,
      "âĸ¾âĹĵ": 436,
      "âĹ¨âĹĵ": 437,
      "âĹĪâĹ¬": 438,
      "âĹĪâĸª": 439,
      "ĠâĹ£": 440,
      "âĸ¾âĹİâĸµ": 441,
      "âĹŀâĹ«âĸ¦": 442,
      "ĠâĹĪâĹł": 443,
      "âĹŀâĹĹâĸ¦": 444,
      "âĸ±âĹ«": 445,
      "âĹĪâĸ´âĸ¦": 446,
      "ĠâĹĩ": 447,
      "Ġâĸ´": 448,
      "âĹĪâĹªâĸ¦": 449,
      "âĹĹâĸ¨": 450,
      "âĹĻ": 451,
      "ĠâĹį": 452,
      "âĹŀâĸ¾âĸ¦": 453,
      "ĠâĹłâĸ±": 454,
      "âĹ¦": 455,
      "ĠâĹĹâĹī": 456,
      "ĠâĹ«âĹī": 457,
      "âĹĭ": 458,
      "âĹİâĹ«": 459,
      "ĠâĹłâĸ¦": 460,
      "âĸ¾âĹİ": 461,
      "ĠâĹ³âĹłâĸ»": 462,
      "âĹĨ": 463,
      "ĠâĹķâĹ£": 464,
      "Ġâĸ®": 465,
      "âĸ±âĸª": 466,
      "âĹŃâĹĵ": 467,
      "âĸ©âĹĵ": 468,
      "âĸ±âĹ¬": 469,
      "ĠâĹķâĹĩ": 470,
      "âĹ¨âĹİ": 471,
      "âĸ¨âĹł": 472,
      "Ġâĸ¨âĹłâĹĪ": 473,
      "Ġâĸ½âĹłâĸ»": 474,
      "ĠâĹļâĹª": 475,
      "âĹİâĹłâĸ¨": 476,
      "ĠâĹļâĸ´": 477,
      "ĠâĹĴâĹª": 478,
      "ĠâĹĪâĹªâĹĲ": 479,
      "âĹłâĸ·âĹł": 480,
      "âĸªâĹĴ": 481,
      "ĠâĹķâĹ«": 482,
      "ĠâĹĴâĸ´": 483,
      "âĹ¬âĹĴ": 484,
      "ĠâĹķâĹĹ": 485,
      "ĠâĹĪâĸ´âĹĲ": 486,
      "ĠâĹİâĹ«": 487,
      "âĸ±âĹĹ": 488,
      "ĠâĹĢâĹłâĹĴ": 489,
      "ĠâĹİâĹĹ": 490,
      "âĹłâĹİâĹłâĸ¦": 491,
      "Ġâĸ¦âĹª": 492,
      "ĠâĹĢâĹ«âĸ±": 493,
      "âĸ¾âĸ¢": 494,
      "âĸ¿": 495,
      "ĠâĹĹâĹŀâĸ«": 496,
      "âĹ±": 497,
      "ĠâĹ«âĹŀâĸ«": 498,
      "âĹŀâĹł": 499,
      "ĠâĹĢâĹĹâĸ±": 500,
      "ĠâĹĢâĹªâĸ¦": 501,
      "âĹŀâĹ¬âĸ¦": 502,
      "Ġâĸ¦âĸ´": 503,
      "âĹĿâĸ¾": 504,
      "ĠâĸŃ": 505,
      "âĹĿâĹ¨": 506,
      "Ġâĸ¨âĹłâĹĪâĹłâĹĵ": 507,
      "ĠâĹłâĹİâĹł": 508,
      "âĹŀâĸªâĸ¦": 509,
      "âĹ³âĹł": 510,
      "ĠâĹĢâĸ´âĸ¦": 511,
      "âĹĵâĹłâĹĪâĹł": 512,
      "âĹħ": 513,
      "âĸ«âĹ«": 514,
      "âĸ¾âĹĲ": 515,
      "âĸ¢âĹķ": 516,
      "âĸ½âĹł": 517,
      "ĠâĹĪâĹłâĸ·âĹł": 518,
      "ĠâĹ¢": 519,
      "Ġâĸ¨âĹłâĹĵ": 520,
      "âĹŃâĸ¦âĹŃ": 521,
      "âĸ±âĹĪâĹ¨": 522,
      "ĠâĹ§âĸ±": 523,
      "Ġâĸ¢âĹłâĹİâĹłâĸ¦": 524,
      "âĹŀâĹłâĸ¦": 525,
      "âĹªâĹİ": 526,
      "ĠâĹİâĸª": 527,
      "âĹĹâĹİâĸµ": 528,
      "âĹ¨âĸ¢": 529,
      "âĸ±âĹłâĸ¼": 530,
      "âĸ´âĹİ": 531,
      "ĠâĹķâĹª": 532,
      "ĠâĹķâĸ´": 533,
      "ĠâĹķâĹ£âĹĵ": 534,
      "ĠâĹŀâĹł": 535,
      "âĸ©âĸ¢": 536,
      "âĹŃâĸ¢": 537,
      "Ġâĸ¨âĹłâĸ±": 538,
      "âĹ¬âĹİâĸµ": 539,
      "âĹªâĹŀ": 540,
      "âĸ«âĹł": 541,
      "ĠâĹĵ": 542,
      "ĠâĹķâĹĩâĹĵ": 543,
      "âĸªâĹİâĸµ": 544,
      "âĹĦ": 545,
      "âĸ«âĹĹ": 546,
      "âĹİâĹłâĸ¦": 547,
      "âĸ´âĹŀ": 548,
      "âĹ¥": 549,
      "âĹ°": 550,
      "ĠâĹŀâĸ´âĸ¦": 551,
      "Ġâĸ¼": 552,
      "âĸ¡": 553,
      "ĠâĹŀâĹªâĸ¦": 554,
      "ĠâĹŀâĹĩ": 555,
      "ĠâĹŀâĹ£": 556,
      "âĹ«âĹİâĸµ": 557,
      "âĹĸ": 558,
      "âĹĺ": 559,
      "âĹ¬âĸ±": 560,
      "Ġâĸ¶": 561,
      "ĠâĹķâĸ´âĹĵ": 562,
      "ĠâĹļâĹłâĹĵâĸµ": 563,
      "ĠâĹĻ": 564,
      "ĠâĹ§âĸ¦": 565,
      "ĠâĹĤâĸ¦": 566,
      "âĹĢâĹ«âĸ±": 567,
      "âĹĲâĹĵ": 568,
      "âĸªâĸ±": 569,
      "âĹ«âĸ¨": 570,
      "ĠâĹĢâĹłâĸ¨": 571,
      "âĹĲâĹĹâĸ¦": 572,
      "ĠâĹķâĹªâĹĵ": 573,
      "âĹĲâĹ«âĸ¦": 574,
      "âĹ¤": 575,
      "ĠâĹīâĹłâĸ±": 576,
      "âĹŁ": 577,
      "âĹİâĸ´âĸ¨": 578,
      "âĹĢâĹĹâĸ±": 579,
      "ĠâĹ¨": 580,
      "ĠâĹĤâĸ±": 581,
      "âĹĬ": 582,
      "âĹłâĸ¼âĹłâĸ¨": 583,
      "âĹİâĹªâĸ¨": 584,
      "âĸ©âĹĴ": 585,
      "âĸ±âĹłâĹİâĹł": 586,
      "âĹłâĸ¼âĹłâĹĲ": 587,
      "âĸ¢âĹķâĹŃâĸ¦âĹŃ": 588,
      "âĹ²": 589,
      "ĠâĹĦ": 590,
      "âĸ¾âĸ¨": 591,
      "âĸ¢âĹķâĹŃâĸ¦âĹŃâĹİâĸµ": 592,
      "ĠâĹ§âĸ±âĹİâĹł": 593,
      "âĹŃâĹĴ": 594,
      "âĹ¬âĸ¦âĹĪâĹł": 595,
      "âĹ¥âĸ¢âĹķâĹŃâĸ¦âĹŃâĹİâĸµ": 596,
      "âĸ½âĸ±âĸ´": 597,
      "âĸªâĸ¦âĹĪâĹł": 598,
      "âĸ½âĸ±âĹª": 599,
      "ĠâĹªâĸ«": 600,
      "âĹ³âĸ±âĹª": 601,
      "ĠâĹĤâĸ±âĹİâĹł": 602,
      "âĹŀâĸ´": 603,
      "Ġâĸ´âĸ«": 604,
      "âĸ¯âĹª": 605,
      "âĹ³âĸ±âĸ´": 606,
      "âĸ«âĸª": 607,
      "ĠâĹĨ": 608,
      "Ġâĸ¯": 609,
      "âĹĪâĹłâĹİ": 610,
      "âĹ³âĸ´": 611,
      "âĹŀâĹª": 612,
      "âĸ¼âĹł": 613,
      "âĸ½âĹª": 614,
      "âĸ¨âĹĹ": 615,
      "âĹłâĹį": 616,
      "âĹ³âĹª": 617,
      "âĹŀâĹ¨âĸ¦?": 618,
      "ĠâĹīâĹĤâĸ¨": 619,
      "âĸ±âĹĪâĸ¾âĹĲ": 620,
      "âĸ¾âĹĴ": 621,
      "ĠâĹīâĹ§âĸ¨": 622,
      "âĸ«âĹłâĸ¦": 623,
      "âĸ«âĹ¬": 624,
      "âĸ½âĸ´": 625,
      "âĹłâĹĵâĹĪ": 626,
      "âĸ±âĹĪâĹ¨âĹĲ": 627,
      "âĹ¨âĹĴ": 628,
      "ĠâĹ«âĹīâĹĹâĸ¦": 629,
      "ĠâĹĹâĹīâĹĹâĸ¦": 630,
      "âĹĤâĸ±": 631,
      "âĸ±âĹłâĹĵâĸª": 632,
      "âĸ±âĹłâĹĵâĹ¬": 633,
      "âĸ¨âĹ«": 634,
      "âĹĿâĸ´âĸ¦": 635,
      "âĹĳ": 636,
      "âĹ§âĸ±": 637,
      "âĹŃâĸ¨": 638,
      "âĹĢâĹĹ": 639,
      "ĠâĹĹâĹīâĹ«âĸ¦": 640,
      "âĸ±âĹłâĹĵâĸµ": 641,
      "ĠâĹİâĹ¨": 642,
      "âĹĿâĹªâĸ¦": 643,
      "ĠâĹİâĸ¾": 644,
      "âĹĢâĹ«": 645,
      "ĠâĹ«âĹīâĹ«âĸ¦": 646,
      "âĹĿâĹ«âĹĵ": 647,
      "âĹĹâĹī": 648,
      "ĠâĹĭ": 649,
      "âĹłâĹļ": 650,
      "âĸ©âĸ¨": 651,
      "âĹªâĹļ": 652,
      "âĹ«âĹī": 653,
      "âĸ±âĹłâĹĵâĹ¬âĸ¦": 654,
      "âĹŀâĹ«": 655,
      "âĸ©âĹİ": 656,
      "âĸ½âĹ«": 657,
      "âĹłâĸ±âĹłâĹĵ": 658,
      "ĠâĹłâĸ¦âĸ±âĹł": 659,
      "âĹ¨âĸ¨": 660,
      "âĹŀâĸ¾âĸ¦?": 661,
      "âĹŀâĹĹ": 662,
      "âĸ±âĹłâĹĵâĸªâĸ¦": 663,
      "ĠâĹļâĸ´âĹĵ": 664,
      "ĠâĹ¦": 665,
      "ĠâĹļâĹªâĹĵ": 666,
      "ĠâĹĢâĹłâĸ¦âĹł": 667,
      "âĹ³âĹĹ": 668,
      "Ġâĸ»âĹłâĹĵ": 669,
      "âĸ´âĹļ": 670,
      "ĠâĹŀâĹłâĸ¦": 671,
      "âĹŃâĹİ": 672,
      "âĸ¼âĸ´âĸ¨": 673,
      "âĹ³âĹ«": 674,
      "âĸ¼âĹªâĸ¨": 675,
      "âĸ½âĹĹ": 676,
      "Ġâĸ«âĹłâĸ¦": 677,
      "âĸ²": 678,
      "âĸ±âĹłâĸ¼âĹłâĸ¨": 679,
      "âĹĿâĹĹâĹĵ": 680,
      "âĸ¾âĸ¦âĸ¾": 681,
      "ĠâĹĪâĹªâĹĲâĹ«âĸ±": 682,
      "âĸ¾âĸ¦âĹ¨": 683,
      "'âĸ¦": 684,
      "Ġâĸ¬": 685,
      "Ġâĸ¦âĹłâĹŀ": 686,
      "âĹĹâĸ«": 687,
      "âĹĲâĹ«âĹİ": 688,
      "Ġâĸ¨âĹ§âĸ¦": 689,
      "âĹĲâĹĹâĹİ": 690,
      "âĹ¨âĸ¦âĹ¨": 691,
      "ĠâĹķâĸ´âĸ±": 692,
      "âĸ¯âĸ´": 693,
      "âĹ¨âĸ¦âĸ¾": 694,
      "Ġâĸº": 695,
      "âĹ«âĸ«": 696,
      "Ġâĸ¨âĹĤâĸ¦": 697,
      "ĠâĹłâĹĪâĹłâĹİ": 698,
      "Ġâĸ¡": 699,
      "âĸ´âĹĴ": 700,
      "ĠâĹİâĸª?": 701,
      "âĹŀâĹ¬": 702,
      "âĸ®âĹªâĸ¦": 703,
      "âĹŀâĸª": 704,
      "âĹİâĹ¬": 705,
      "âĸ®âĸ´âĸ¦": 706,
      "âĹĪâĹłâĸ¨": 707,
      "âĹĹâĹĴ": 708,
      "ĠâĹĪâĸ´âĹĲâĹĹâĸ±": 709,
      "ĠâĹĴâĹªâĸ½": 710,
      "âĸ½âĹ§âĹĵâĹ¨âĹİâĸµ": 711,
      "âĹ¨âĸ±": 712,
      "ĠâĹĪâĹªâĹĲâĹĹâĸ±": 713,
      "ĠâĹĪâĸ´âĹĲâĹ«âĸ±": 714,
      "Ã¢": 715,
      "âĹªâĹĴ": 716,
      "âĸ¾âĸ±": 717,
      "ĠâĹĴâĸ´âĸ½": 718,
      "ĠâĹķâĹªâĸ±": 719,
      "ĠâĹĴâĹªâĹ³": 720,
      "âĸ¦âĹŀâĹłâĸ¦": 721,
      "âĸ¸": 722,
      "âĹłâĹĵâĸ¨": 723,
      "âĹĪâĹ¬âĸµ": 724,
      "ĠâĹĪâĹĤ": 725,
      "âĹłâĸ±âĹł": 726,
      "ĠâĹĴâĸ´âĹ³": 727,
      "âĹİâĸª": 728,
      "âĹ«âĹĴ": 729,
      "ĠâĹİâĹ«?": 730,
      "âĹĪâĹĹâĸ¦": 731,
      "ĠâĹ£âĸ¦": 732,
      "ĠâĹĹâĹĴ": 733,
      "ĠâĹŀâĹ§âĸ¦": 734,
      "ĠâĹŃ": 735,
      "âĹĪâĸ´âĹĵ": 736,
      "âĹĪâĸªâĸµ": 737,
      "ĠâĹłâĹī": 738,
      "âĹĪâĹĹâĸµ": 739,
      "ĠâĹĪâĹ§": 740,
      "âĹĪâĹ«âĸµ": 741,
      "âĹĲâĸªâĸ¦": 742,
      "ĠâĹİâĹĹ?": 743,
      "ĠâĹ«âĹĴ": 744,
      "âĹĲâĹ¬âĸ¦": 745,
      "ĠâĹĪâĸ©âĹĴ": 746,
      "âĸ¬": 747,
      "âĹ«âĹ³âĹĤâĹĵ": 748,
      "ĠâĹŀâĹĤâĸ¦": 749,
      "ĠâĹĪâĹŃâĹĴ": 750,
      "ĠâĹĩâĸ¦": 751,
      "âĹĵâĸ«": 752,
      "âĸ¿âĸ¦": 753,
      "Ġâĸ·âĹłâĸ¨": 754,
      "âĹĪâĹ¨": 755,
      "Ġâĸ©": 756,
      "ĠâĹīâĸªâĸ¨": 757,
      "âĹĪâĹ«âĸ¦": 758,
      "âĹŀâĹ¨âĸ¦âĸµ": 759,
      "âĹ«âĸ½âĹĤâĹĵ": 760,
      "ĠâĹīâĹ¬âĸ¨": 761,
      "âĹļâĸ´âĸ«": 762,
      "âĹĹâĹ³âĹĤâĹĵ": 763,
      "âĹ«âĸµ": 764,
      "âĸ±âĹķ": 765,
      "âĹİâĹ¬âĹĴ": 766,
      "Ġâĸ·âĸ´âĹĵ": 767,
      "âĸ¾âĸµ": 768,
      "âĹ³âĹ§âĹĵâĸµ": 769,
      "âĹ±âĸ¦": 770,
      "âĹİâĸªâĹĴ": 771,
      "Ġâĸ·âĹªâĹĵ": 772,
      "âĹĹâĸµ": 773,
      "âĹĹâĹĵâĸµ": 774,
      "âĸ±âĹłâĹ³": 775,
      "âĸ½âĹ§âĹĵâĸµ": 776,
      "âĸ±âĹłâĸ½": 777,
      "âĹ«âĹĵâĸµ": 778,
      "âĸ±âĹłâĹĴ": 779,
      "âĹļâĹªâĸ«": 780,
      "ĠâĹ¡": 781,
      "âĹĿâĹĹâĸ±": 782,
      "âĹĪâĹªâĹĵ": 783,
      "âĹİâĹ«âĹĴ": 784,
      "âĹĹâĸ½âĹĤâĹĵ": 785,
      "âĸ©âĸ«": 786,
      "âĹ¨âĸ«": 787,
      "âĹĢâĹĹâĹĵ": 788,
      "âĹ«âĹŀ": 789,
      "âĹĹâĹŀ": 790,
      "âĸ±âĹłâĹĵâĹłâĸ¨": 791,
      "âĸ¾âĸ«": 792,
      "âĹĪâĹłâĹĴ": 793,
      "ĠâĹłâĸ«": 794,
      "âĹİâĹĹâĹĴ": 795,
      "Ġâĸ²": 796,
      "âĸ¢âĸµ": 797,
      "âĹ«âĸ¢âĸµ": 798,
      "âĹĤâĸ¼": 799,
      "âĸ«âĸ´": 800,
      "âĸ«âĹª": 801,
      "âĸ±âĹŃ": 802,
      "Ġâĸ¨âĹłâĹī": 803,
      "âĸ±âĹĹâĸ¨": 804,
      "âĹłâĹĢâĹ«âĸ±": 805,
      "âĹĩâĸ¦": 806,
      "Ġâĸ¤": 807,
      "âĹ£âĸ¦": 808,
      "âĸ±âĹłâĹĵâĹł": 809,
      "ĠâĹŀâĹłâĸ¦âĹł": 810,
      "âĸ±âĹ«âĸ¨": 811,
      "âĹĢâĹ«âĹĵ": 812,
      "âĹ¬âĸ¦âĹł": 813,
      "âĹĪâĹ¬âĹĵ": 814,
      "âĸ¨âĹłâĹĪâĹłâĹĴ": 815,
      "âĸªâĸ¦âĹł": 816,
      "ĠâĹłâĸ½": 817,
      "âĹ§âĸ¼": 818,
      "âĹĵâĹłâĸ¦": 819,
      "âĸ¦âĹłâĸ¦": 820,
      "Ġ\"": 821,
      "âĹĪâĸªâĹĵ": 822,
      "âĹłâĹĢâĹĹâĸ±": 823,
      "Ġâĸ¨âĹłâĸ»": 824,
      "ĠâĹķâĹªâĹī": 825,
      "Ġâĸ¾": 826,
      "Ġâĸ«âĹłâĹĵ": 827,
      "âĹłâĸ¢âĸ±âĹł": 828,
      "âĹłâĸ±âĹłâĸ¦": 829,
      "âĹĹâĹ³âĹ§âĹĵ": 830,
      "âĸ¤": 831,
      "âĹ«âĹ³âĹ§âĹĵ": 832,
      "ĠâĹłâĹ³": 833,
      "âĹ¬âĸ¢âĸµ": 834,
      "âĸ¥": 835,
      "ĠâĹķâĸ´âĹī": 836,
      "âĹ¬âĸ½âĹ§âĹĵ": 837,
      "Ġâĸ·âĹĹâĹī": 838,
      "âĹĹâĸ¢âĸµ": 839,
      "âĹĪâĸªâĸ¦": 840,
      "âĹĮ": 841,
      "âĹ«âĸ½âĹ§âĹĵ": 842,
      "âĹĪâĹ¬âĸ¦": 843,
      "âĹŀâĹ«âĸ¦âĸµ": 844,
      "Ġâĸ·âĹ«âĹī": 845,
      "âĹĪâĹŃ": 846,
      "Ġâĸ·âĹłâĸ«": 847,
      "Ġâĸ·âĹłâĹ³": 848,
      "âĸªâĸ¢âĸµ": 849,
      "âĸ±âĸ¨": 850,
      "ĠâĹłâĸ¨": 851,
      "Ġâĸ·âĹłâĸ½": 852,
      "ĠâĹįâĹłâĸ¢âĸ±âĹł": 853,
      "âĸ±âĹłâĸ¼âĹłâĹĲ": 854,
      "âĸ«âĹªâĸ¦": 855,
      "âĹĲâĹĹ": 856,
      "âĹŀâĹĹâĸ¦âĸµ": 857,
      "âĸ´âĸ½": 858,
      "âĸ´âĸ»": 859,
      "âĸ´âĹ³": 860,
      "ĠâĹĺ": 861,
      "âĹĪâĸ©": 862,
      "âĹªâĸ»": 863,
      "âĸŃâĹłâĹ³": 864,
      "âĹīâĹªâĸ¨": 865,
      "âĸ±âĸ´âĸ¦": 866,
      "âĹªâĹ³": 867,
      "Ġâĸ¨âĹ«": 868,
      "âĹªâĸ½": 869,
      "ĠâĹķâĹ«âĸ«": 870,
      "âĸ±âĹªâĸ¦": 871,
      "ĠâĹ§âĸ±âĹĪâĸ¾âĹĲ": 872,
      "Ġâĸ¨âĹ§": 873,
      "âĹłâĹĢâĹł": 874,
      "Ġâĸ¨âĹĹ": 875,
      "ĠâĹĮ": 876,
      "Ġâĸ¨âĹĤ": 877,
      "ĠâĹķâĹĹâĸ«": 878,
      "Ġâĸ·âĹłâĹĵ": 879,
      "âĸ±âĹłâĹĢâĹ«âĸ±": 880,
      "ĠâĹĤâĸ±âĹĪâĸ¾âĹĲ": 881,
      "âĹĲâĹ«": 882,
      "âĹīâĸ´âĸ¨": 883,
      "âĹĪâĹ«âĹİâĸµ": 884,
      "ĠâĹ±": 885,
      "âĹĪâĹ¬âĹİâĸµ": 886,
      "âĹłâĹĵâĹ¬": 887,
      "ĠâĹĤâĸ±âĹĪâĹ¨âĹĲ": 888,
      "âĹĹâĸ»": 889,
      "ĠâĹħ": 890,
      "âĹĲâĸ´âĹĵ": 891,
      "âĸ±âĸ©": 892,
      "ĠâĹ§âĸ±âĹĪâĹ¨âĹĲ": 893,
      "âĹĹâĸ½âĹ§âĹĵ": 894,
      "âĹłâĹĵâĸª": 895,
      "âĸŃâĹłâĸ½": 896,
      "âĹĪâĹĹâĹİâĸµ": 897,
      "ĠâĹłâĹĵâĸ¨âĹłâĹĪâĹłâĹĴ": 898,
      "ĠâĹłâĹŀ": 899,
      "âĸ®âĹł": 900,
      "âĸ«âĸ´âĸ¦": 901,
      "âĸ½âĹĤâĹĵâĸµ": 902,
      "ĠâĹĢâĹ«âĸ¢": 903,
      "âĹłâĹŀâĸ«": 904,
      "ĠâĹªâĸ¦": 905,
      "âĹŀâĸ¾âĸ¦âĸµ": 906,
      "ĠâĹĢâĹĹâĸ¢": 907,
      "âĹ¦âĹİâĹł": 908,
      "âĹĲâĹªâĹĵ": 909,
      "âĹ³âĹĤâĹĵâĸµ": 910,
      "ĠâĹ°": 911,
      "Ġ1": 912,
      "âĹ©": 913,
      "âĸ¼âĸª": 914,
      "Ġâĸ¨âĹłâĹĵâĹĴ": 915,
      "Ġâĸ«âĹłâĸ¨": 916,
      "âĹ«âĸ»": 917,
      "âĹİâĹłâĹ³": 918,
      "ĠâĹªâĹļ": 919,
      "ĠâĹ¤": 920,
      "Ġâĸ´âĸ¦": 921,
      "âĹłâĹŀâĸª": 922,
      "Ġâĸ½âĹłâĹĴ": 923,
      "Ġâĸ·âĹłâĸ¨âĸ¨": 924,
      "âĸ±âĹłâĹĢâĹĹâĸ±": 925,
      "Ġâĸ·âĹłâĸ±": 926,
      "Ġâĸ«âĹªâĸ¨": 927,
      "âĹĭâĹİâĹł": 928,
      "ĠâĹŀâĹªâĹļ": 929,
      "âĹİâĹłâĹİ": 930,
      "âĸ¼âĹ¬": 931,
      "ĠâĹŀâĹĤâĹĵ": 932,
      "âĹĿâĹłâĸ¦âĹł": 933,
      "âĹŀâĹ¬âĸ¦âĸµ": 934,
      "Ġâĸ¿": 935,
      "Ġâĸ«âĸ´âĸ¨": 936,
      "ĠâĹŁ": 937,
      "âĹĲâĸªâĹİ": 938,
      "Ġâĸ¨âĸ´âĸ¦": 939,
      "ĠâĹķâĸ©âĸ¦": 940,
      "ĠâĹŀâĹ§âĹĵ": 941,
      "ĠâĹ³âĹłâĹĴ": 942,
      "âĹłâĸ¦âĹŀ": 943,
      "âĹ³âĹĤâĹĵâĸ¾âĹİâĸµ": 944,
      "Ġâĸ´âĹļ": 945,
      "âĹŀâĸªâĸ¦âĸµ": 946,
      "âĸ±âĹ¨": 947,
      "âĸ«âĹĵ": 948,
      "ĠâĹĳ": 949,
      "âĸ¨âĸ´âĸ¦": 950,
      "ĠâĹłâĹĵâĸ«": 951,
      "âĹ«âĸ¦âĹ«": 952,
      "Ġâĸ½âĹłâĸ¦": 953,
      "ĠâĹŀâĸ´âĹļ": 954,
      "âĸªâĹĵâĸł": 955,
      "âĹ¬âĹĵâĸł": 956,
      "âĹĪâĸªâĹİâĸµ": 957,
      "âĹ«âĸ¦âĹĹ": 958,
      "ĠâĹĪâĸ¾": 959,
      "âĸ®âĹłâĸ¦": 960,
      "âĹ¨âĸ¢âĸµ": 961,
      "ĠâĹķâĹŃâĸ¦": 962,
      "âĹŃâĸ«": 963,
      "Ġâĸ¨âĹªâĸ¦": 964,
      "âĹİâĹłâĸ½": 965,
      "ĠâĹ³âĹłâĸ¦": 966,
      "âĹĹâĸ¦âĹĹ": 967,
      "âĹ¬âĹĵâĹłâĸ¨": 968,
      "ĠâĹķâĹŃ": 969,
      "âĹĹâĸ¦âĹ«": 970,
      "ĠâĹĪâĹĩâĸ¦": 971,
      "âĹĲâĹ¬âĹİ": 972,
      "âĹİâĹĹâĸ½âĹ§âĹĵâĹ¨âĹİâĸµ": 973,
      "âĹªâĹĵâĹª": 974,
      "ĠâĹīâĹłâĸ±âĹ¬âĹĴ": 975,
      "âĹİâĸ´âĸ¦": 976,
      "âĹİâĹªâĸ¦": 977,
      "Ġâĸ¦âĹłâĹŀâĹ¬âĸ±": 978,
      "ĠâĹłâĹĴ": 979,
      "âĹĪâĹ«âĹİ": 980,
      "ĠâĹĪâĹ£âĸ¦": 981,
      "ĠâĹĪâĹ¨âĹĵ": 982,
      "âĸ¨âĹªâĸ¦": 983,
      "Ġâĸ¨âĹłâĸ¦": 984,
      "ĠâĹĢâĹĩ": 985,
      "ĠâĹĪâĹ¨": 986,
      "âĹļâĸ´âĸ«âĸł": 987,
      "ĠâĹĪâĹ«": 988,
      "ĠâĹķâĹ«âĹĢâĹ«": 989,
      "ĠâĹĩâĸ±âĹĪ": 990,
      "ĠâĹķâĹĹâĹĢâĹĹ": 991,
      "âĸ¾âĸ¢âĸµ": 992,
      "âĸ¾âĸ¦âĹĪâĹł": 993,
      "Ġâĸ½âĹĤâĸ¨": 994,
      "ĠâĹīâĹłâĸ±âĸªâĹĴ": 995,
      "âĸ®âĹłâĸ¦âĹł": 996,
      "âĸ±âĹªâĹĵâĸµ": 997,
      "ĠâĹķâĸ©": 998,
      "âĸ¼âĹªâĹĲ": 999,
      "âĸªâĹĵâĹłâĸ¨": 1000,
      "ĠâĹĪâĹĹ": 1001,
      "âĸ«âĹłâĹĵ": 1002,
      "ĠâĹ³âĹĤâĸ¨": 1003,
      "Ġâĸ¦âĹłâĹŀâĸªâĸ±": 1004,
      "âĹįâĹªâĸ¦": 1005,
      "âĹĪâĹĹâĹİ": 1006,
      "ĠâĹĪâĸ¾âĹĵ": 1007,
      "âĹ¬âĸµ": 1008,
      "âĹĤâĹĴ": 1009,
      "ĠâĹĢâĹłâĹĲ": 1010,
      "âĸ´âĹĵâĸ´": 1011,
      "ĠâĹķâĹ«âĹĢâĹĹ": 1012,
      "âĸ´âĹĵâĹª": 1013,
      "âĹªâĹĵâĸ´": 1014,
      "ĠâĹĢâĹ£": 1015,
      "âĹłâĹĵâĹł": 1016,
      "Ġâĸ«âĹłâĹİâĹłâĹİ": 1017,
      "ĠâĹ³âĹ§âĸ¨": 1018,
      "ĠâĹŀâĹ§âĸ¦âĹĵâĹł": 1019,
      "ĠâĹķâĹĹâĹĢâĹ«": 1020,
      "Ġâĸ¨âĹ«âĹİ": 1021,
      "ĠâĹŀâĹŃâĹĵ": 1022,
      "âĹİâĸ´âĸ±": 1023,
      "ĠâĹ²": 1024,
      "âĹ¨âĸ¦âĹĪâĹł": 1025,
      "ĠâĹĢâĹłâĹĴâĸ¨âĹł": 1026,
      "âĸ¼âĸ´âĹĲ": 1027,
      "âĸ±âĹ¬âĸ¨": 1028,
      "ĠâĹ£âĸ±âĹĪ": 1029,
      "âĹ§âĹĴ": 1030,
      "Ġâĸ¨âĹłâĸ«": 1031,
      "âĹªâĹĵâĹ«": 1032,
      "ĠâĹŀâĹĹâĸ¢": 1033,
      "âĸªâĸ¦âĹ¬": 1034,
      "âĹįâĸ´âĸ¦": 1035,
      "âĹłâĸ¦âĹĵ": 1036,
      "âĹ¬âĹ³âĹ§âĹĵ": 1037,
      "âĸ§": 1038,
      "Ġâĸ·âĹłâĸ¢": 1039,
      "âĹ¨âĸ¦âĹł": 1040,
      "Ġâĸ¨âĹłâĸ¢": 1041,
      "Ġâĸ¨âĸªâĸ¢": 1042,
      "âĹĩâĹĵ": 1043,
      "âĹªâĸµ": 1044,
      "âĸªâĸ¦âĸª": 1045,
      "ĠâĹĢâĸ¾âĹĵâĹłâĹĪâĹł": 1046,
      "âĹĿâĹĹâĸ±âĹİâĹĹâĸ½âĹ§âĹĵâĹ¨âĹİâĸµ": 1047,
      "âĹ¡": 1048,
      "âĹłâĹĵâĹĪâĸªâĹİ": 1049,
      "ĠâĹĢâĹ¨âĹĵâĹłâĹĪâĹł": 1050,
      "ĠâĹĬ": 1051,
      "ĠâĹŀâĹ«âĸ¢": 1052,
      "âĹĲâĸª": 1053,
      "âĹªâĹĵâĹĹ": 1054,
      "âĸ¼âĹłâĸ¨": 1055,
      "âĹ¬âĸ»": 1056,
      "Ġâĸ¨âĹ¬âĸ¢": 1057,
      "Ġâĸ½âĹ§âĸ¨": 1058,
      "âĹ¬âĸ½âĹĤâĹĵ": 1059,
      "âĹłâĹĵâĸ«": 1060,
      "âĹ¬âĸ¦âĸª": 1061,
      "ĠâĹŀâĹĤâĸ¦âĹĵâĹł": 1062,
      "âĹŀâĹªâĸ¦": 1063,
      "00": 1064,
      "âĸªâĸ»": 1065,
      "Ġâĸ±âĹł": 1066,
      "âĹĵâĹłâĹ³âĹł": 1067,
      "âĹĹâĸ¦âĸ´": 1068,
      "âĸ¨âĹŃ": 1069,
      "âĹĲâĹ¬": 1070,
      "ĠâĹŀâĹłâĹĲ": 1071,
      "âĸ±âĸªâĸ¨": 1072,
      "Ġâĸ¨âĹĹâĹİ": 1073,
      "âĹłâĹĵâĹĪâĹ¬âĹİ": 1074,
      "ĠâĹįâĹłâĹĵâĸ¨": 1075,
      "âĹİâĹłâĹ³âĹł": 1076,
      "âĹłâĸ¦âĹķ": 1077,
      "âĸ¾âĸ¦âĹł": 1078,
      "ĠâĹŀâĸ©âĹĵ": 1079,
      "âĸ¨âĸ©": 1080,
      "âĸ´âĹĵâĹĹ": 1081,
      "âĹİâĹłâĸ½âĹł": 1082,
      "Ġâĸ¨âĹ¨âĹĵ": 1083,
      "âĹ«âĸ¦âĹª": 1084,
      "âĹİâĹ«âĹĴâĸ«": 1085,
      "Ġâĸ¨âĸ¾âĹĵ": 1086,
      "âĹŀâĸ´âĸ¦": 1087,
      "ĠâĹĹâĹŀâĸ«âĹª": 1088,
      "âĸªâĸ½âĹĤâĹĵ": 1089,
      "ĠâĹĹâĸ¢": 1090,
      "âĹļâĹªâĸ«âĸł": 1091,
      "âĸ¦âĸ¦": 1092,
      "âĸªâĹ³âĹ§âĹĵ": 1093,
      "âĹ«âĸ¦âĸ´": 1094,
      "âĹ£âĹĵ": 1095,
      "âĹĪâĹĹâĹĵ": 1096,
      "âĹ¨âĹŀ": 1097,
      "âĹªâĸ¨âĸ¨": 1098,
      "ĠâĹĤâĸ±âĹłâĸ¦": 1099,
      "âĸ´âĹĵâĹ«": 1100,
      "âĹ¬âĸ¦âĹ¬": 1101,
      "âĹĹâĸ¦âĹª": 1102,
      "ĠâĹĹâĹŀâĸ«âĸ´": 1103,
      "Ġâĸ«âĹłâĹĵâĹłâĹį": 1104,
      "âĹĵâĹłâĹĵ": 1105,
      "Ġâĸ«âĸ´": 1106,
      "ĠâĹ«âĹŀâĸ«âĹª": 1107,
      "ĠâĹłâĸ¦âĸ¦": 1108,
      "âĸ¨âĹłâĸ¦": 1109,
      "ĠâĹĢâĹłâĸ·": 1110,
      "âĹĿâĹłâĹĴ": 1111,
      "ĠâĹīâĹĤâĸ¼": 1112,
      "ĠâĹĢâĸªâĹĵâĹłâĸ¨": 1113,
      "âĸ¼âĹ«": 1114,
      "âĹĤâĸ»": 1115,
      "âĸ±âĸ¾": 1116,
      "âĹĪâĹ«âĹĵ": 1117,
      "Ġâĸ½âĹłâĹĵ": 1118,
      "ĠâĹ«âĹŀâĸ«âĸ´": 1119,
      "ĠâĹ§âĸ±âĹłâĸ¦": 1120,
      "'âĹł": 1121,
      "ĠâĹ«âĸ¢": 1122,
      "Ġâĸ«âĹª": 1123,
      "âĹłâĹŀâĹ¬": 1124,
      "ĠâĹīâĹ§âĸ¼": 1125,
      "âĹ§âĸ»": 1126,
      "âĸŃâĸ´âĹĵ": 1127,
      "âĹŀâĹ«âĸ¦?": 1128,
      "âĹĳâĹª": 1129,
      "âĸªâĹ³âĹĤâĹĵ": 1130,
      "Ġâĸµâĸµâĸµ": 1131,
      "Ġâĸ¢âĹ§âĹĵ": 1132,
      "ĠâĹĢâĹ¬âĹĵâĹłâĸ¨": 1133,
      "ĠâĹ³âĹłâĸ¨": 1134,
      "âĸ¨âĸµ": 1135,
      "âĹĪâĹ¨âĹİâĸµ": 1136,
      "âĸ¼âĹĹ": 1137,
      "âĸªâĹĵâĸµ": 1138,
      "Ġâĸ½âĹłâĸ¨": 1139,
      "âĸªâĸ¦âĸµ": 1140,
      "âĹİâĹĹâĹĴâĸ«": 1141,
      "ĠâĹķâĹªâĸ±âĹĪ": 1142,
      "âĸ´âĸµ": 1143,
      "ĠâĹĿâĸ¾": 1144,
      "âĹħâĹĤâĸ¨": 1145,
      "âĹłâĸµ": 1146,
      "âĹ¬âĸ¦âĸµ": 1147,
      "âĹ¬âĹİâĸł": 1148,
      "âĹĳâĸ´": 1149,
      "âĹłâĹī": 1150,
      "âĹĪâĹłâĸ¨âĹĹ": 1151,
      "âĹĵâĹłâĸ½âĹł": 1152,
      "âĹİâĸ¾âĹĴ": 1153,
      "Ġâĸ¢âĹĤâĹĵ": 1154,
      "ĠâĹĿâĹ¨": 1155,
      "ĠâĹłâĸ¢": 1156,
      "âĹ¬âĹ³âĹĤâĹĵ": 1157,
      "ĠâĹĪâĹłâĹļ": 1158,
      "âĸ«âĹŃ": 1159,
      "ĠâĹķâĸ´âĸ±âĹĪ": 1160,
      "âĹĪâĸ¾âĹİâĸµ": 1161,
      "Ġâĸ¨âĹłâĹ³": 1162,
      "âĹħâĹ§âĸ¨": 1163,
      "ĠâĹĢâĹłâĹĴâĸ±âĹł": 1164,
      "âĹģ": 1165,
      "âĹłâĸ±âĸª": 1166,
      "âĸ±âĹłâĸ¨": 1167,
      "âĹĪâĹ¨âĸµ": 1168,
      "âĸŃâĹªâĹĵ": 1169,
      "Ġâĸ¨âĹĩ": 1170,
      "âĹ¬âĹĵâĸµ": 1171,
      "âĹĵâĹ§": 1172,
      "ĠâĹŀâĹłâĸ¨": 1173,
      "âĹĪâĹłâĸ¨âĹ«": 1174,
      "'âĹĪâĹł": 1175,
      "âĸªâĹİâĸł": 1176,
      "âĹªâĹĢ": 1177,
      "Ġâĸ¨âĹ£": 1178,
      "ĠâĹķâĸ©âĸ¢": 1179,
      "ĠâĹŀâĹłâĹłâĸ«": 1180,
      "âĸ±âĹªâĹĵâĹ«": 1181,
      "ĠâĹĸ": 1182,
      "ĠâĹĪâĹªâĹĲâĹ«âĸ±âĸµ": 1183,
      "âĸ±âĸ´âĹĵâĹĹ": 1184,
      "ĠâĹŀâĹłâĸ·": 1185,
      "âĸ«âĹłâĸ±": 1186,
      "ĠâĹ«âĸ¦âĹŀâĹłâĸ¦": 1187,
      "ĠâĹķâĸ´âĹĵâĸ´âĸ¨": 1188,
      "âĹĿâĹłâĸ¨": 1189,
      "ĠâĹĹâĸ·": 1190,
      "âĹŃâĸ¦âĸ©": 1191,
      "ĠâĹķâĹªâĹĵâĸ´âĸ¨": 1192,
      "ĠâĹĢâĹŃ": 1193,
      "ĠâĹķâĸ´âĹĵâĹªâĸ¨": 1194,
      "âĸ±âĸ´âĹĵâĹ«": 1195,
      "âĹłâĹĪ": 1196,
      "âĸ«âĸ©": 1197,
      "âĸ¾âĹŀ": 1198,
      "ĠâĹĢâĹłâĹĢ": 1199,
      "Ġâĸ¯âĸ´": 1200,
      "âĹŀâĹĹâĸ¦?": 1201,
      "ĠâĹīâĹªâĸ¨": 1202,
      "Ġâĸ¨âĹĤâĹĵ": 1203,
      "âĹĵâĹĤ": 1204,
      "âĹİâĹ¨âĹĴ": 1205,
      "ĠâĹŀâĸ´": 1206,
      "ĠâĹ§âĸ±âĹłâĹĵâĹłâĸ¨": 1207,
      "âĸ©âĸ¦âĸ©": 1208,
      "âĸ¨âĹłâĹī": 1209,
      "ĠâĹķâĹªâĹĵâĹªâĸ¨": 1210,
      "ĠâĹķâĹŃâĸ¢": 1211,
      "âĸªâĸ½âĹ§âĹĵ": 1212,
      "ĠâĹĢâĸ©": 1213,
      "âĹªâĸ¢": 1214,
      "Ġâĸ¨âĹ§âĹĵ": 1215,
      "ĠâĹīâĸ´âĸ¨": 1216,
      "âĹİâĸ´âĸ¢": 1217,
      "Ġâĸ¨âĹłâĸ½": 1218,
      "âĸ±âĸ´âĹĵâĸµ": 1219,
      "ĠâĹĤâĸ±âĹłâĹĵâĹłâĸ¨": 1220,
      "ĠâĹĹâĸ¦âĹŀâĹłâĸ¦": 1221,
      "âĹĪâĸ¾âĸµ": 1222,
      "ĠâĹ«âĸ·": 1223,
      "âĸ±âĹªâĹĵâĹĹ": 1224,
      "âĹİâĹªâĸ¢": 1225,
      "âĹĵâĹłâĹį": 1226,
      "âĹłâĸ·âĹłâĸ«": 1227,
      "âĸ±âĹłâĸ¼âĹłâĸ¨âĸµ": 1228,
      "âĹīâĹł": 1229,
      "âĸ©âĸ¦âĹŃ": 1230,
      "âĸªâĸµ": 1231,
      "âĹĲâĹĵâĸ¾": 1232,
      "âĹĵâĹłâĹĪâĹłâĸ¦": 1233,
      "âĹ¬âĸ±âĹĪ": 1234,
      "ĠâĹ³âĹłâĹĵ": 1235,
      "Ġâĸ´âĸ±": 1236,
      "ĠâĹĢâĸ´âĸ¨": 1237,
      "Ġâĸ°": 1238,
      "âĹĪâĹªâĸ¼âĹª": 1239,
      "âĹĪâĹªâĸ¼âĸ´": 1240,
      "Ġâĸ·âĹłâĹį": 1241,
      "ĠâĹĢâĸ¾âĸ¦": 1242,
      "âĹ¨âĹİâĸł": 1243,
      "âĹĪâĸ´âĸ¼âĹª": 1244,
      "âĸªâĸ¦âĹĪâĹłâĸ¦": 1245,
      "âĹªâĹī": 1246,
      "ĠâĹłâĸ¦âĸ±âĹłâĸ«": 1247,
      "ĠâĹĢâĹ¨âĸ¦": 1248,
      "âĸ±âĹłâĹĵâĸł": 1249,
      "âĸ¾âĹİâĸł": 1250,
      "âĸ½âĹĤâĹĵâĹ¨âĹİâĸµ": 1251,
      "ĠâĹŀâĹłâĹļ": 1252,
      "Ġâĸ¾âĸ¢": 1253,
      "ĠâĹłâĹĪ": 1254,
      "ĠâĹłâĹĲ": 1255,
      "ĠâĹĢâĹªâĸ¨": 1256,
      "âĹİâĹĹâĸ¦": 1257,
      "âĹĹâĸł": 1258,
      "âĸ±âĹłâĹĵâĹĪâĹłâĸ¦": 1259,
      "âĹĻâĹłâĸ·âĹł": 1260,
      "âĹ«âĸł": 1261,
      "âĸ²âĹłâĸ¦": 1262,
      "âĸ´âĸ¢": 1263,
      "âĸ±âĹłâĸ«": 1264,
      "âĹĪâĸ´âĸ¼âĸ´": 1265,
      "âĸªâĸ±âĹĪ": 1266,
      "âĹªâĸł": 1267,
      "ĠâĹ¨âĸ¢": 1268,
      "âĹłâĸ±âĸ¦": 1269,
      "âĹ¬âĸ¦âĹĪâĹłâĸ¦": 1270,
      "âĹłâĸ±âĹ¬": 1271,
      "ĠâĹĢâĹĤ": 1272,
      "âĹİâĹ«âĸ¦": 1273,
      "âĸ±âĹłâĸ·": 1274,
      "ĠâĹĢâĹ«âĹĵâĹłâĸ¢": 1275,
      "ĠâĹķâĹ«âĹĵ": 1276,
      "Ġâĸ½âĹł": 1277,
      "âĹĪâĸ´âĸ¨": 1278,
      "âĸªâĸ¨âĸµ": 1279,
      "ĠâĹĪâĸ´âĹĲâĹĹâĸ±âĸµ": 1280,
      "Ġâĸ¨âĹłâĸ¢âĹłâĸ¦": 1281,
      "Ġ2": 1282,
      "Ġâĸ·âĹłâĹĢ": 1283,
      "ĠâĹĪâĹłâĸ¨": 1284,
      "âĹĲâĹĹâĸ¦âĹ«": 1285,
      "âĹ§âĹĲ": 1286,
      "Ġâĸ¯âĹª": 1287,
      "ĠâĹĹâĸ±âĹķ": 1288,
      "âĹ¨âĸ¢?": 1289,
      "ĠâĹłâĸ±âĸ«": 1290,
      "Ġâĸ±âĹłâĸ¢": 1291,
      "âĸ¼âĸ·": 1292,
      "Ġâĸ½âĸ´âĹĵ": 1293,
      "ĠâĹ§âĸ±âĹĪ": 1294,
      "ĠâĹĢâĹĹâĹĵâĹłâĸ¢": 1295,
      "âĹĲâĹĹâĸ¦âĹĹ": 1296,
      "âĹĲâĹ«âĸ¦âĹ«": 1297,
      "ĠâĹĴâĸ¾": 1298,
      "âĹĹâĸ¨âĹł": 1299,
      "ĠâĹķâĹĹâĹĵ": 1300,
      "ĠâĹ³âĹł": 1301,
      "âĹĲâĹ«âĸ¦âĹĹ": 1302,
      "âĸªâĹĴâĸ«": 1303,
      "âĹªâĹĵâĸµ": 1304,
      "âĹļâĸ´âĸ¦": 1305,
      "âĹĲâĹĵâĹ¨": 1306,
      "âĹ¬âĹĴâĸ«": 1307,
      "âĹĪâĹªâĸ¨": 1308,
      "ĠâĹĢâĹ¨âĸ±": 1309,
      "âĹ«âĸ¨âĹł": 1310,
      "âĹ«âĸ¦âĸµ": 1311,
      "âĸ´âĸ±âĸ´âĹĵ": 1312,
      "âĹİâĹªâĹİ": 1313,
      "âĹİâĹłâĸ±âĸª": 1314,
      "ĠâĹĴâĹ¨": 1315,
      "âĸ´âĸł": 1316,
      "âĹĪâĹ«âĸ±": 1317,
      "âĸ±âĹłâĹĵâĸ±âĹł": 1318,
      "âĸ´âĸ¨âĸ¨": 1319,
      "âĹİâĸ´âĹİ": 1320,
      "âĹĪâĹĹâĸ±": 1321,
      "âĸ¯âĹłâĹŀ": 1322,
      "âĹ¨âĹĴâĸ«": 1323,
      "Ġâĸ¨âĹ¨âĸ±": 1324,
      "âĹłâĸ½âĹł": 1325,
      "Ġâĸ·âĹłâĸ½âĹłâĸ«": 1326,
      "Ġâĸ«âĹłâĹİ": 1327,
      "âĹİâĹłâĸ±âĹ¬": 1328,
      "âĸ½âĸ¦": 1329,
      "ĠâĹ«âĸ±âĹķ": 1330,
      "ĠâĹ³âĹłâĸ»âĹ¬âĸ½âĹ§âĹĵ": 1331,
      "âĸ±âĹłâĹĵâĸªâĹİ": 1332,
      "ĠâĹķâĸ´âĸ«": 1333,
      "Ġâĸ·âĹłâĹ³âĹłâĸ«": 1334,
      "âĹİâĹłâĸµ": 1335,
      "âĹłâĹ³âĹł": 1336,
      "ĠâĹŃâĸ¢": 1337,
      "âĸ²âĹłâĸ¦âĸ´âĸ«": 1338,
      "Ġâĸ±": 1339,
      "âĹªâĸ¦âĹ«": 1340,
      "âĹ³âĹłâĸ¦": 1341,
      "âĹĤâĸ«": 1342,
      "âĹ¢âĹłâĹĵ": 1343,
      "âĹĵâĹª": 1344,
      "âĸ¾âĹĵâĸµ": 1345,
      "Ġâĸ«âĹ¨âĸ«": 1346,
      "âĹ¨âĹĵâĸµ": 1347,
      "ĠâĹŀâĹ£âĹ³âĸ±âĹª": 1348,
      "ĠâĹĪâĹªâĹĲâĹĹâĸ±âĸµ": 1349,
      "ĠâĹªâĸ±": 1350,
      "âĹ§âĸ«": 1351,
      "âĹªâĸ¦âĹĹ": 1352,
      "Ġâĸ¨âĹłâĹĢ": 1353,
      "ĠâĹ§âĸ±âĹŀâĹ¨âĸ¦âĸµ": 1354,
      "ĠâĹĪâĸ´âĹĲâĹ«âĸ±âĸµ": 1355,
      "âĸ´âĸ¦âĹ«": 1356,
      "Ġâĸ«âĹłâĸ«": 1357,
      "âĹ¬âĸ¨âĸµ": 1358,
      "âĹĽ": 1359,
      "Ġâĸ½âĹªâĹĵ": 1360,
      "Ġâĸ¨âĸ¾âĸ±": 1361,
      "ĠâĹĤâĸ±âĹĪ": 1362,
      "ĠâĹŀâĹ£âĸ½âĸ±âĹª": 1363,
      "âĹļâĹªâĸ¦": 1364,
      "âĹĿâĹ«âĸ±": 1365,
      "âĸ¡âĸ´âĸ¨": 1366,
      "âĸ¾âĹĴâĸ«": 1367,
      "âĸ½âĹłâĸ¦": 1368,
      "ĠâĹŀâĹ¨": 1369,
      "âĹļâĹłâĹİ": 1370,
      "ĠâĹĢâĸ¾âĸ±": 1371,
      "ĠâĹĢâĹªâĸ¦âĹĹâĹİ": 1372,
      "ĠâĹ£âĹĲâĹĵ": 1373,
      "Ġâĸ¼âĹłâĸ¦": 1374,
      "âĹłâĸ¼âĹłâĸ¨âĸµ": 1375,
      "âĹ³âĸ±âĹł": 1376,
      "ĠâĹŀâĸ¾": 1377,
      "âĹ³âĹ§âĹĵâĸ¾âĹİâĸµ": 1378,
      "âĹİâĹłâĸ¢": 1379,
      "ĠâĹŀâĹĩâĸ½âĸ±âĸ´": 1380,
      "Ġâĸ¨âĹ¬": 1381,
      "ĠâĹŀâĹĩâĹ³âĸ±âĸ´": 1382,
      "âĹĿâĹłâĹĢ": 1383,
      "âĸ½âĸ±âĹł": 1384,
      "ĠâĹĹâĸ¦âĹłâĸ¦": 1385,
      "Ġâĸ«âĸ¾âĸ«": 1386,
      "âĹĪâĸ¾": 1387,
      "ĠâĹķâĹªâĸ«": 1388,
      "âĹ¨âĹĲ": 1389,
      "âĸ´âĸ¦âĹĹ": 1390,
      "âĹĵâĹĹ": 1391,
      "âĸ±âĹłâĹĵâĹ¬âĹİ": 1392,
      "âĸ®âĹĹâĸ¢": 1393,
      "Ġâĸ«âĹłâĹĴ": 1394,
      "ĠâĹŀâĹĩâĸ½âĸ±âĹª": 1395,
      "Ġâĸ¨âĹłâĹį": 1396,
      "âĸ½âĹłâĸ¼": 1397,
      "ĠâĹĢâĸ´": 1398,
      "âĸ¾âĸ¢?": 1399,
      "âĹ³âĸ¦": 1400,
      "ĠâĹĩâĹĲâĹĵ": 1401,
      "ĠâĹ³âĸ´âĹĵ": 1402,
      "âĸ®âĹ«âĸ¢": 1403,
      "âĸ¡âĹªâĸ¨": 1404,
      "âĸ±âĹłâĹĴâĸ«": 1405,
      "âĹİâĹ¬âĹĴâĸ«": 1406,
      "âĹĤâĹĲ": 1407,
      "ĠâĹ«âĸ¦âĹłâĸ¦": 1408,
      "Ġâĸ¨âĹ¨âĸ±âĸ±âĹłâĸ¦": 1409,
      "âĸ½âĹĤâĹĵâĸ¾âĹİâĸµ": 1410,
      "âĹŁâĹłâĸ¦": 1411,
      "âĹĵâĹ«": 1412,
      "ĠâĹķâĹ£âĸ¢": 1413,
      "'âĸªâĸ¦": 1414,
      "âĹ«âĹİâĹĪâĹ«": 1415,
      "Ġâĸ©âĸ¢": 1416,
      "âĸ»âĸ«âĹłâĸ±": 1417,
      "âĹĹâĹİâĹĪâĹĹ": 1418,
      "âĹĵâĸ´": 1419,
      "âĹ«âĹİâĹĹâĸ¢": 1420,
      "âĸ´âĹĵâĸ¨": 1421,
      "âĹłâĸ½âĹłâĸ¦": 1422,
      "ĠâĹĢâĸ´âĸ¦âĹĹâĹİ": 1423,
      "ĠâĹŀâĹłâĸ±": 1424,
      "ĠâĹ³âĹªâĹĵ": 1425,
      "âĸ·âĸł": 1426,
      "ĠâĹŀâĹ£âĸ½âĸ±âĸ´": 1427,
      "ĠâĹĢâĸ´âĸ¦âĹ«âĹİ": 1428,
      "âĹİâĸªâĹĴâĸ«": 1429,
      "'âĹ¬âĸ¦": 1430,
      "ĠâĹŀâĹ£âĹ³âĸ±âĸ´": 1431,
      "âĹĢâĹ«âĸ±âĹĹâĹĵ": 1432,
      "âĹŀâĸªâĸ¢": 1433,
      "Ġâĸ¨âĸª": 1434,
      "âĹ¯": 1435,
      "ĠâĹŀâĹĩâĹ³âĸ±âĹª": 1436,
      "ĠâĹİâĸ©": 1437,
      "âĹĿâĹ«âĸ¢": 1438,
      "âĹłâĹ³âĹłâĸ¦": 1439,
      "âĹĹâĸ½": 1440,
      "ĠâĹĿâĹ«âĸ±": 1441,
      "âĹİâĹ¬âĹĴâĸµ": 1442,
      "âĹ®": 1443,
      "âĸ¹": 1444,
      "âĹ«âĹİâĹĪâĹĹ": 1445,
      "âĸ½âĹ§âĹĵâĸ¾âĹİâĸµ": 1446,
      "âĹĹâĹ³": 1447,
      "âĹŀâĹ¬âĸ¢": 1448,
      "âĹĹâĸ¦âĸµ": 1449,
      "âĹĹâĹį": 1450,
      "âĹĿâĹ¨âĸ¦": 1451,
      "âĹĢâĹĹâĸ±âĹ«âĹĵ": 1452,
      "ĠâĹĢâĹ§": 1453,
      "ĠâĹĿâĹ«âĹĵ": 1454,
      "âĹ³âĹĤâĹĵâĹ¨âĹİâĸµ": 1455,
      "âĹİâĸªâĹĴâĸµ": 1456,
      "Ġâĸ¨âĸ¾âĸ±âĸ±âĹłâĸ¦": 1457,
      "âĹ«âĹ³": 1458,
      "'âĹĹâĸ¦": 1459,
      "âĹŀâĹłâĹİ": 1460,
      "âĹ«âĸ½": 1461,
      "ĠâĹķâĹĩâĸ¢": 1462,
      "ĠâĹĢâĹªâĸ¦âĹ«âĹİ": 1463,
      "Ġâĸ¨âĹ§âĸ¦âĹ¨âĹĴ": 1464,
      "âĹĹâĹİâĹĪâĹ«": 1465,
      "ĠâĹłâĹĵâĹł": 1466,
      "âĹĪâĹŃâĹĲ": 1467,
      "ĠâĹĪâĹłâĹļâĹĵâĹłâĸ¦": 1468,
      "Ġâĸ·âĹªâĸ»": 1469,
      "âĹĪâĸ©âĹĲ": 1470,
      "Ġâĸ¨âĹ§âĸ¦âĸ¾âĹĴ": 1471,
      "âĹ³âĹłâĸ¼": 1472,
      "âĹļâĹª": 1473,
      "âĸ´âĹĵâĸµ": 1474,
      "âĹĿâĹĹâĸ¢": 1475,
      "âĹ«âĹİâĹ«âĸ¢": 1476,
      "âĹĢâĹĹâĸ±âĹĹâĹĵ": 1477,
      "Ġâĸ¨âĹĤâĸ¦âĸ¾âĹĴ": 1478,
      "âĹĴâĸ«âĹ«âĹĵ": 1479,
      "ĠâĹ³âĹłâĸ¢": 1480,
      "Ġâĸ¨âĹĤâĸ¦âĹ¨âĹĴ": 1481,
      "ĠâĹŀâĹłâĸ«": 1482,
      "ĠâĹĿâĹĹâĹĵ": 1483,
      "âĸ«âĹĹâĸµ": 1484,
      "âĹ¤âĹłâĸ¦": 1485,
      "âĹªâĸ¼âĸ´âĸ¨": 1486,
      "âĸ¨âĹłâĸ«": 1487,
      "âĸ¶âĹłâĹİâĹłâĹİâĸł": 1488,
      "Ġâĸ·âĹłâĹŀâĸ«": 1489,
      "âĹĹâĹİâĹĹâĸ¢": 1490,
      "ĠâĹĵâĹłâĸ·âĹłâĸ«": 1491,
      "âĹ«âĹį": 1492,
      "'âĹ«âĸ¦": 1493,
      "Ġâĸ·âĹ«âĹŀ": 1494,
      "ĠâĹĹâĸ¦": 1495,
      "ĠâĹŀâĹłâĹļâĹłâĹĴ": 1496,
      "âĹĿâĸ¾âĸ¦": 1497,
      "âĹĵâĸ¨": 1498,
      "âĹĢâĹ«âĸ±âĹ«âĹĵ": 1499,
      "âĹłâĸ¨âĹłâĸ«": 1500,
      "ĠâĸŃâĹłâĹ³": 1501,
      "âĹłâĹĲâĸª": 1502,
      "Ġâĸ»âĸ±âĹłâĸ¦": 1503,
      "ĠâĹ³âĹłâĸ»âĸ«": 1504,
      "âĹĹâĹİâĹ«âĸ¢": 1505,
      "âĸ±âĹªâĹĵâĹĹâĸ¦": 1506,
      "ĠâĹİâĹŃ": 1507,
      "âĹļâĸ´": 1508,
      "âĸ±âĹªâĹĵâĹ«âĸ¦": 1509,
      "ĠâĹ³âĸ©âĸ¢": 1510,
      "ĠâĹ£âĸ¦âĸ¼âĹª": 1511,
      "ĠâĹķâĹĩâĹŀâĸ«": 1512,
      "âĸ®âĹĤâĸ¦": 1513,
      "ĠâĹ£âĸ¢": 1514,
      "ĠâĹ«âĸ¦": 1515,
      "Ġâĸ¬âĸ·": 1516,
      "Ġâĸ·âĸ´âĸ»": 1517,
      "ĠâĹ£âĸ¦âĸ¼âĸ´": 1518,
      "ĠâĹĩâĸ¦âĸ¼âĸ´": 1519,
      "âĸ¨âĹ¨": 1520,
      "âĸ´âĸ¼âĹªâĸ¨": 1521,
      "ĠâĹŀâĹªâĸ¦âĹ«âĸ¦": 1522,
      "Ġâĸ¨âĹłâĹĵâĹĴâĹ¬": 1523,
      "âĸ´âĸ¼âĸ´âĸ¨": 1524,
      "âĹĴâĸ«âĹĹâĹĵ": 1525,
      "âĸªâĹİ!": 1526,
      "âĹŀâĹłâĸł": 1527,
      "ĠâĹİâĹ¨?": 1528,
      "âĹŀâĹłâĸ¨": 1529,
      "Ġâĸ¨âĹĹâĹĴ": 1530,
      "ĠâĹ§âĸ¦âĹ¨": 1531,
      "Ġâĸ´âĹĪâĸ´âĹĵ": 1532,
      "Ġâĸ·âĹłâĹļ": 1533,
      "ĠâĹ³âĹŃâĸ¢": 1534,
      "âĸ¦âĹª": 1535,
      "âĹĴâĸ«âĸ´": 1536,
      "ĠâĸŃâĹłâĸ½": 1537,
      "ĠâĹĤâĸ¦âĹ¨": 1538,
      "âĹĥ": 1539,
      "âĹĵâĸª": 1540,
      "âĹļâĹłâĹĵ": 1541,
      "ĠâĹĪâĹªâĸ¦": 1542,
      "ĠâĹĪâĹªâĹĵ": 1543,
      "ĠâĹŀâĹªâĸ¦âĹĹâĸ¦": 1544,
      "Ġâĸ¨âĹłâĹĵâĹĴâĸª": 1545,
      "âĹ³âĹ§âĹĵâĹ¨âĹİâĸµ": 1546,
      "âĹĴâĸ«âĹª": 1547,
      "âĹłâĹĲâĹ¬": 1548,
      "Ġâĸ½âĹŃâĸ¢": 1549,
      "âĸ«âĸªâĸµ": 1550,
      "âĹŀâĹĹâĸ¢": 1551,
      "âĹªâĸ¼âĹªâĸ¨": 1552,
      "ĠâĹŀâĸ´âĸ¦âĹĹâĸ¦": 1553,
      "âĹłâĸ¦âĸ«": 1554,
      "ĠâĹŀâĹ¬": 1555,
      "âĹĢâĹª": 1556,
      "Ġâĸ·âĹĹâĹŀ": 1557,
      "âĹĪâĹ«âĹĵâĸµ": 1558,
      "âĹŀâĹ«âĸ¢": 1559,
      "âĸ¾âĸ»": 1560,
      "Ġâĸ½âĸ©âĸ¢": 1561,
      "Ġâĸ»âĹłâĹĵâĹł": 1562,
      "ĠâĹĩâĸ¦âĸ¼âĹª": 1563,
      "ĠâĹĴâĹłâĸ¦âĹŀ": 1564,
      "ĠâĹķâĹ£âĹŀâĸ«": 1565,
      "âĹĪâĸ¾âĸ¦": 1566,
      "âĹĹâĸ¦âĹĪâĸ´": 1567,
      "ĠâĹİâĸ¾?": 1568,
      "âĹªâĸ¼âĸ´": 1569,
      "ĠâĹİâĹłâĸ·": 1570,
      "âĹ«âĹİâĸł": 1571,
      "âĸ¨âĸ¾": 1572,
      "ĠâĹĿâĸ´âĸ¦": 1573,
      "ĠâĹĢâĹłâĹŀ": 1574,
      "âĸ©âĹī": 1575,
      "âĹĴâĹłâĹİ": 1576,
      "ĠâĹŀâĹłâĹĢ": 1577,
      "ĠâĹ«âĸ½âĹ«": 1578,
      "Ġâĸ¨âĹłâĹĵâĹłâĹĵ": 1579,
      "ĠâĹ«âĹ³âĹĹ": 1580,
      "âĹĪâĹĹâĸ¨": 1581,
      "ĠâĹĪâĸ©âĹĴâĹŃâĸ¦": 1582,
      "âĸ¼âĸ¨": 1583,
      "âĹĹâĹİâĸł": 1584,
      "âĸ¶âĹłâĸ¦âĹĵ": 1585,
      "ĠâĹīâĸªâĸ¨âĹłâĹĵ": 1586,
      "âĹªâĹŀâĹĹâĸ¦": 1587,
      "ĠâĹĹâĹ³âĹ«": 1588,
      "âĹłâĹİâĹłâĸ¢": 1589,
      "âĸ«âĹ¨": 1590,
      "Ġâĸ¨âĹ«âĹĴ": 1591,
      "âĸ¦âĸ´": 1592,
      "âĹŀâĸ±": 1593,
      "âĸ»âĸ·": 1594,
      "ĠâĹĢâĹłâĸ¢": 1595,
      "ĠâĹĢâĹªâĸ¦âĹ«": 1596,
      "âĹĢâĸ´": 1597,
      "ĠâĹĹâĸ½âĹ«": 1598,
      "ĠâĹĩâĸ¢": 1599,
      "ĠâĹĴâĹªâĸ¨": 1600,
      "Ġâĸ·âĹłâĹįâĸ«âĹł": 1601,
      "âĸ«âĹŃâĹĵ": 1602,
      "Ġâĸ½âĹłâĸ¢": 1603,
      "âĹłâĹĵâĹłâĸ¨": 1604,
      "ĠâĹŀâĸ´âĸ¦âĹ«âĸ¦": 1605,
      "âĸ¨âĹĹâĸ¦": 1606,
      "âĸ®âĹ§âĸ¦": 1607,
      "ĠâĹĩâĸ±": 1608,
      "ĠâĹĪâĸ´âĸ¦": 1609,
      "Ġâĸ½âĹłâĸ»âĸ«": 1610,
      "Ġâĸ«âĹłâĹĢ": 1611,
      "ĠâĹłâĹŀâĸ±âĹł": 1612,
      "âĸ«âĹ«âĸµ": 1613,
      "Ġâĸ¶âĹłâĸ¦âĹĵ": 1614,
      "ĠâĹĤâĸ¦âĹł": 1615,
      "ĠâĹĴâĸ´âĸ¨": 1616,
      "âĹĪâĹĹâĹĵâĸµ": 1617,
      "ĠâĹĿâĹªâĸ¦": 1618,
      "âĹİâĹĹâĹĴâĸµ": 1619,
      "âĹĵâĹłâĸ¨": 1620,
      "âĹłâĸ¼âĹłâĹĲâĹ¬âĹİâĸµ": 1621,
      "âĹĪâĹ¬âĹĵâĸµ": 1622,
      "âĹĹâĸ¦âĹĪâĹª": 1623,
      "âĹªâĸ¨âĸ¨âĸ©âĹĵ": 1624,
      "ĠâĹ£âĸ±": 1625,
      "Ġâĸ½âĹĤâĸ¨âĸµ": 1626,
      "ĠâĹĢâĹ«âĸ«": 1627,
      "ĠâĹĪâĸ´âĹĵ": 1628,
      "âĹ«âĸ±âĹªâĹĵ": 1629,
      "âĸ´âĸ¼âĹª": 1630,
      "âĸ±âĹłâĹİ": 1631,
      "ĠâĹłâĸ¦âĹĪâĹł": 1632,
      "ĠâĹĢâĹĹâĸ«": 1633,
      "âĸ±âĸ´âĹĵâĹ«âĸ¦": 1634,
      "ĠâĹĪâĸ©âĹĴâĸ©âĸ¦": 1635,
      "ĠâĹĢâĸ´âĸ¦âĹĹ": 1636,
      "ĠâĹĢâĹłâĸ¨âĹłâĸ±": 1637,
      "âĹ¦âĸ¦": 1638,
      "âĸ«âĹ¬âĸµ": 1639,
      "âĹĪâĸªâĹĵâĸµ": 1640,
      "âĹªâĸ¼âĹª": 1641,
      "âĹĲâĸ±": 1642,
      "ĠâĹĪâĸªâĹĴ": 1643,
      "ĠâĹĢâĹªâĸ¦âĹĹ": 1644,
      "âĹĪâĹ«âĸ¨": 1645,
      "ĠâĹīâĹ¬âĸ¨âĹłâĹĵ": 1646,
      "âĹĵâĹ¬": 1647,
      "âĸŃâĹł": 1648,
      "ĠâĹ³âĹĤâĸ±": 1649,
      "âĹłâĸ¼âĹłâĹĲâĸªâĹİâĸµ": 1650,
      "âĹĪâĹĹâĹĲâĹĹâĹİ": 1651,
      "âĹŃâĹī": 1652,
      "ĠâĹŀâĹłâĸ½": 1653,
      "âĹĹâĸ±âĹªâĹĵ": 1654,
      "ĠâĹĪâĹŃâĹĴâĹŃâĸ¦": 1655,
      "âĹªâĹŀâĹ«âĸ¦": 1656,
      "âĸ±âĹłâĹĵâĹĪâĹł": 1657,
      "ĠâĹ§âĸ±âĹĪâĹ¨": 1658,
      "ĠâĹĢâĸ´âĸ¦âĹ«": 1659,
      "ĠâĹĢâĹªâĸ±": 1660,
      "âĹŀâĹ¬âĸ¦?": 1661,
      "âĹĹâĸ±âĸ´âĹĵ": 1662,
      "Ġâĸ«âĹĤâĸ»": 1663,
      "âĹłâĹ³âĸª": 1664,
      "âĸ´âĸ¼âĸ´": 1665,
      "âĹĪâĹ«âĹĲâĹĹâĹİ": 1666,
      "âĹĪâĹ¨âĸ¦": 1667,
      "ĠâĹĢâĹ¨âĸ¦âĹ¨": 1668,
      "ĠâĹļâĹłâĹĵ?": 1669,
      "ĠâĹ³âĹ§âĸ¨âĸµ": 1670,
      "ĠâĹ§âĸ¦âĹł": 1671,
      "ĠâĹĪâĹ¬âĹĴ": 1672,
      "ĠâĹĪâĹŃâĹĴâĸ©âĸ¦": 1673,
      "ĠâĹİâĸ¾âĹŀâĹ¨âĸ¦?": 1674,
      "Ġâĸ·âĹłâĸ¨âĸ¨âĹ¬âĸ¦âĹĪâĹł": 1675,
      "âĸ´âĹī": 1676,
      "âĸ¼âĹ¨": 1677,
      "âĹĩâĸ¢": 1678,
      "âĹİâĹĹâĹ³âĹĤâĹĵâĸ¾âĹİâĸµ": 1679,
      "âĸ½âĹŃâĸ¨": 1680,
      "âĹĢâĹł": 1681,
      "âĹķâĸ©âĸ¦": 1682,
      "âĹİâĹ«âĹĴâĸµ": 1683,
      "âĸ¾âĸ¦âĸ±âĹł": 1684,
      "âĹĪâĹĹâĹĲâĹ«âĹİ": 1685,
      "ĠâĹ³âĹĤâĸ¨âĸµ": 1686,
      "ĠâĹĢâĸ´âĸ±": 1687,
      "âĹ«âĸ±âĸ´âĹĵ": 1688,
      "âĹ«âĸ¢?": 1689,
      "ĠâĹ§âĸ¦âĸ¾": 1690,
      "ĠâĹĤâĸ¦âĸ¾": 1691,
      "âĹĹâĹŀâĸ«": 1692,
      "âĸ¼âĸ¾": 1693,
      "âĹķâĹŃâĸ¦": 1694,
      "âĹłâĹ³âĹ¬": 1695,
      "ĠâĹĪâĸ¾âĹ³": 1696,
      "ĠâĹĢâĸ¾âĸ¦âĹ¨": 1697,
      "ĠâĹĤâĸ±âĹĪâĹ¨": 1698,
      "ĠâĹ«âĸ½âĹĹ": 1699,
      "ĠâĹ§âĸ±âĹłâĸ¼âĹłâĸ¨": 1700,
      "Ġâĸ«âĹ§âĸ»": 1701,
      "ĠâĹŀâĸ´âĸ¦âĹ«": 1702,
      "ĠâĹłâĸ½âĸ¦": 1703,
      "Ġâĸ·âĹłâĸ±âĹł": 1704,
      "ĠâĹĹâĸ½âĹĹ": 1705,
      "âĹŀâĸªâĸ¦?": 1706,
      "âĹłâĹĢâĹ«âĸ±âĹ«âĹĵ": 1707,
      "ĠâĹĢâĹ¨âĸ¦âĸ¾": 1708,
      "âĸ´âĹŀâĹĹâĸ¦": 1709,
      "âĹŀâĸ´âĸ«": 1710,
      "âĹĪâĹ«âĹĲâĹ«âĹİ": 1711,
      "âĸŃâĹłâĹĵ": 1712,
      "âĹĸâĹ¨": 1713,
      "ĠâĹĢâĸ¾âĸ¦âĸ¾": 1714,
      "Ġâĸ»âĹłâĸ«": 1715,
      "ĠâĹŀâĸ´âĸ¦âĹĹ": 1716,
      "âĹĲâĹ¬âĸ¦âĸª": 1717,
      "âĸ´âĹİâĹª": 1718,
      "ĠâĹĤâĸ±âĹłâĸ¼âĹłâĸ¨": 1719,
      "âĹ¨âĸ½âĹ§âĹĵ": 1720,
      "Ġâĸ«âĸ´âĹĴ": 1721,
      "Ġ3": 1722,
      "ĠâĹŀâĸª": 1723,
      "ĠâĹķâĸ´âĹĵâĹīâĸ´âĸ¨": 1724,
      "ĠâĹĹâĹ³âĹĹ": 1725,
      "ĠâĹ«âĹ³âĹ«": 1726,
      "âĹĹâĸ¢?": 1727,
      "âĹĪâĹ¬âĹĲâĸªâĸ¦": 1728,
      "âĹĭâĸ¦": 1729,
      "âĸ±âĸªâĸµ": 1730,
      "ĠâĹŀâĹ«": 1731,
      "âĹįâĹł": 1732,
      "âĹĹâĹĪ": 1733,
      "âĹłâĹĢâĹ«âĸ±âĹĹâĹĵ": 1734,
      "âĹªâĹİâĹª": 1735,
      "âĹ«âĸ¦âĹĪâĸ´": 1736,
      "âĹ£âĸ¢": 1737,
      "âĸŃâĹĹâĹī": 1738,
      "âĹĪâĸªâĹĲâĸªâĸ¦": 1739,
      "ĠâĹŀâĹłâĹī": 1740,
      "âĹ«âĹĪ": 1741,
      "âĸ´âĸ±âĹªâĹĵ": 1742,
      "âĹĢâĸ¾": 1743,
      "ĠâĹĪâĹ¨âĹ³": 1744,
      "âĸ¨âĹ«âĸ¦": 1745,
      "âĹ¨âĸ»": 1746,
      "âĸŃâĹ«âĹī": 1747,
      "âĹĶ": 1748,
      "âĸ«âĸ©âĹĵ": 1749,
      "Ġâĸ·âĹłâĸ¨âĸ¨âĸªâĸ¦âĹĪâĹł": 1750,
      "âĹŀâĸ¾âĸ¦âĸł": 1751,
      "ĠâĹĪâĸ¾âĸ½": 1752,
      "ĠâĹįâĹłâĸ±âĹłâĸ¦": 1753,
      "Ġâĸ½âĹ§âĸ¨âĸµ": 1754,
      "âĹĵâĹłâĸ±": 1755,
      "Ġâĸ·âĹĤâĹĴ": 1756,
      "âĹĢâĹªâĸ«": 1757,
      "Ġâĸ·âĹ§âĹĴ": 1758,
      "ĠâĹ³âĹłâĹĵâĹĪâĸªâĹİ": 1759,
      "'âĹĪâĹłâĸ¦": 1760,
      "âĹłâĹİâĹłâĹİâĸµ": 1761,
      "âĹĪâĹªâĹĴ": 1762,
      "âĹĿâĹªâĸ±": 1763,
      "ĠâĹļâĹłâĸ¨": 1764,
      "ĠâĹªâĹĪâĹ«": 1765,
      "âĹĪâĸ´âĹĴ": 1766,
      "âĹ¨âĸ¦âĸ±âĹł": 1767,
      "âĸ¦âĹł": 1768,
      "âĸ±âĹłâĹİâĹłâĸ¨": 1769,
      "âĹĪâĹłâĸµ": 1770,
      "âĹ«âĸ¦âĹĪâĹª": 1771,
      "âĹİâĹŃ": 1772,
      "âĹĲâĹ¬âĸ¦âĹ¬": 1773,
      "Ġâĸ·âĹłâĸ«âĹ¬âĹĵ": 1774,
      "ĠâĹĩâĸ±âĹĪâĹŃâĹĵ": 1775,
      "âĹ³âĸ©âĸ¨": 1776,
      "ĠâĹŀâĹªâĸ¦âĹ«": 1777,
      "ĠâĹłâĹĵâĸ«âĸªâĸ¨": 1778,
      "âĸ´âĹŀâĹ«âĸ¦": 1779,
      "ĠâĹ§âĸ±âĹłâĹĢâĹ«âĸ±": 1780,
      "âĹŀâĹ¨âĸ¦âĸł": 1781,
      "âĹ³âĹŃâĸ¨": 1782,
      "âĸ·âĹłâĸ¦": 1783,
      "ĠâĹĩâĸ±âĹĪâĸ©âĹĵ": 1784,
      "âĹłâĹĢâĹĹâĸ±âĹĹâĹĵ": 1785,
      "ĠâĹĪâĹŃâĸ¦": 1786,
      "ĠâĹĪâĸ©âĸ¦": 1787,
      "ĠâĹĤâĸ«": 1788,
      "âĹĸâĸ¾": 1789,
      "ĠâĹĤâĸ±âĹłâĹĢâĹ«âĸ±": 1790,
      "Ġâĸ¢âĹłâĸ«": 1791,
      "âĹĨâĹªâĹĵ": 1792,
      "âĹİâĹłâĹĵ": 1793,
      "âĹŀâĹªâĸ«": 1794,
      "âĹİâĹłâĹĪâĹłâĸ¦": 1795,
      "Ġâĸ«âĹªâĹĴ": 1796,
      "ĠâĹªâĹĪâĹĹ": 1797,
      "âĹķâĹ«": 1798,
      "âĹĪâĹ¬âĹİ": 1799,
      "âĸ«âĹĹâĸ¨": 1800,
      "âĹłâĹĢâĹĹâĸ±âĹ«âĹĵ": 1801,
      "âĹĤâĹŀ": 1802,
      "ĠâĹķâĹŃâĸ¢âĹªâĸ±": 1803,
      "âĸ·âĹł": 1804,
      "âĹķâĹł": 1805,
      "âĹİâĸ¾": 1806,
      "âĹŃâĸ¦âĸ¨âĸ©": 1807,
      "âĸ©âĸ¦âĸ¨âĸ©": 1808,
      "âĸ±âĹ¬âĸµ": 1809,
      "Ġâĸ¨âĹłâĹĪâĹ¬âĸ¦": 1810,
      "ĠâĹķâĹªâĹĵâĹīâĹªâĸ¨": 1811,
      "âĹĵâĹªâĸ«": 1812,
      "âĸ´âĹİâĸ´": 1813,
      "ĠâĹĪâĹ¨âĸ½": 1814,
      "âĹĿâĹ¨âĸ¦âĸ¾": 1815,
      "âĹĿâĸ´âĸ±": 1816,
      "âĹļâĹłâĸ¦": 1817,
      "âĹĨâĸ´âĹĵ": 1818,
      "ĠâĹłâĹ³âĸ¦": 1819,
      "âĹĢâĸ´âĸ«": 1820,
      "âĸ«âĹ«âĸ¨": 1821,
      "Ġâĸ»âĹłâĹĵâĹī": 1822,
      "Ġ?": 1823,
      "âĸ·âĸ«": 1824,
      "âĸ©âĸ¦âĸ¨âĹŃ": 1825,
      "ĠâĹłâĹĵâĹłâĹĢ": 1826,
      "'âĸ¦âĹ«âĸ¦": 1827,
      "âĹ«âĹİ?": 1828,
      "Ġâĸ¨âĹłâĹĪâĸªâĸ¦": 1829,
      "ĠâĹŀâĹªâĸ¦âĹĹ": 1830,
      "âĹŃâĸ¦âĸ¨âĹŃ": 1831,
      "ĠâĹªâĹĪâĹª": 1832,
      "âĹªâĹİâĸ´": 1833,
      "Ġâĸ´âĹĪâĹ«": 1834,
      "âĹĪâĹłâĹĵ": 1835,
      "'âĸ¦âĹĹâĸ¦": 1836,
      "âĹİâĸ©": 1837,
      "Ġâĸ½âĹłâĸ«": 1838,
      "âĹĹâĹİ?": 1839,
      "âĸ±âĸ´âĹĵâĹĹâĸ¦": 1840,
      "ĠâĹķâĸ´âĹĵâĹīâĹªâĸ¨": 1841,
      "ĠâĹ£âĸ±âĹĪâĹŃâĹĵ": 1842,
      "âĹĪâĹłâĸł": 1843,
      "ĠâĹĤâĸ±âĹłâĹĢâĹĹâĸ±": 1844,
      "ĠâĹĢâĹª": 1845,
      "ĠâĹ³âĹ§âĸ±": 1846,
      "Ġâĸ·âĹłâĸ¢âĹ¬âĹĵ": 1847,
      "âĹİâĹłâĸ±": 1848,
      "Ġâĸ«âĹŃâĹİ": 1849,
      "ĠâĹĤâĸ±âĹİâĹłâĸ¨": 1850,
      "âĹĵâĸ´âĸ«": 1851,
      "âĹİâĹłâĹŀâĹ¬": 1852,
      "âĹĪâĹĹâĹĲâĹĹâĸ¦": 1853,
      "âĹĿâĸ¾âĹĵâĹłâĹĪâĹł": 1854,
      "ĠâĹ¨âĸ½": 1855,
      "âĹİâĹłâĹŀâĹ¬âĸ¦": 1856,
      "âĹİâĹłâĹŀâĸªâĸ¦": 1857,
      "âĹįâĹį": 1858,
      "ĠâĹłâĹĵâĹłâĹŀ": 1859,
      "âĹ°âĸ¦": 1860,
      "âĹĵâĹłâĹŀâĹ¬": 1861,
      "âĸ¨âĹªâĹŀ": 1862,
      "âĹĢâĹ¨": 1863,
      "Ġâĸ«âĹªâĹĵ": 1864,
      "Ġâĸ´âĹĪâĹĹ": 1865,
      "Ġâĸ·âĹłâĸ¢âĸªâĹĵ": 1866,
      "âĹłâĸ½âĹ¬": 1867,
      "âĹ¢âĹ«âĹİ": 1868,
      "âĸ±âĹİâĹłâĸ¨": 1869,
      "ĠâĹĢâĹĹâĸ±âĸ´": 1870,
      "ĠâĹ£âĸ±âĹĪâĸ©âĹĵ": 1871,
      "âĹĪâĹ«âĹĲâĹĹâĸ¦": 1872,
      "ĠâĹ¬": 1873,
      "Ġâĸ¨âĹłâĸ·": 1874,
      "ĠâĹĢâĹ«âĸ±âĸ´": 1875,
      "âĹĿâĹ¨âĹĵâĹłâĹĪâĹł": 1876,
      "ĠâĹİâĹ¨âĹŀâĹ¨âĸ¦?": 1877,
      "âĸ¨âĸ´âĹŀ": 1878,
      "âĹ§âĹŀ": 1879,
      "âĹĤâĹİ": 1880,
      "âĹĪâĹ«âĹĲâĹ«âĸ¦": 1881,
      "ĠâĹķâĹªâĹĵâĹīâĸ´âĸ¨": 1882,
      "âĹ©âĸ¦": 1883,
      "âĸ©âĹĲ": 1884,
      "âĸ¶âĹłâĸ«": 1885,
      "âĹĲâĹł": 1886,
      "ĠâĹĢâĹĹâĸ±âĹª": 1887,
      "âĹłâĸ¦âĸª": 1888,
      "âĹłâĸ¦âĸªâĸ¦": 1889,
      "âĹªâĸ¨âĸ¨âĹŃâĹĵ": 1890,
      "âĹĪâĹĹâĹĲâĹ«âĸ¦": 1891,
      "âĹ¬âĸ¢âĸª": 1892,
      "ĠâĹ§âĸ±âĹłâĸ¼âĹłâĹĲ": 1893,
      "âĸªâĸ¢âĹ¬": 1894,
      "âĹİâĹłâĹŀâĸª": 1895,
      "ĠâĹĢâĹ«âĹĵâĹĹ": 1896,
      "âĹĿâĹ¨âĸ¦âĹ¨": 1897,
      "âĸ±âĹłâĹĵ?": 1898,
      "âĹ«âĸ±âĹ«": 1899,
      "âĸªâĸ¢âĸª": 1900,
      "âĹłâĸ¼âĹłâĹĲâĹ¬âĹİ": 1901,
      "ĠâĹłâĹĪâĹł": 1902,
      "Ġâĸ½âĹ§âĸ±": 1903,
      "ĠâĹĿâĹłâĹĴ": 1904,
      "âĹ¢âĸ´âĸ¦": 1905,
      "ĠâĹ§âĸ±âĹİâĹłâĸ¨": 1906,
      "âĹĪâĹĹâĸ¦âĸµ": 1907,
      "âĹłâĸ¦âĹ¬": 1908,
      "ĠâĹķâĸ©âĸ¢âĹªâĸ±": 1909,
      "âĹ¢âĹªâĸ¦": 1910,
      "âĹĿâĸ¾âĸ¦âĸ¾": 1911,
      "âĹĪâĸªâĹİ": 1912,
      "âĹ³âĹ¬": 1913,
      "ĠâĹ§âĸ«": 1914,
      "ĠâĹīâĹłâĹĲ": 1915,
      "âĹłâĹļâĹłâĹĴ": 1916,
      "âĸ±âĹłâĹİâĹłâĸ¢": 1917,
      "âĸ±âĹłâĹĵâĹ¬âĸ¦âĸª": 1918,
      "Ġâĸ´âĹĪâĹª": 1919,
      "ĠâĹİâĹ¨âĹŀâĸ¾âĸ¦?": 1920,
      "ĠâĹłâĸ¨âĹĴâĹłâĹİ": 1921,
      "âĹĿâĸ¾âĸ¦âĹ¨": 1922,
      "âĹłâĸ½âĸª": 1923,
      "âĹ¬âĸ¢âĹ¬": 1924,
      "âĹ°âĹļâĸ´âĸ«âĸł": 1925,
      "âĸ«âĹĹâĹĵ": 1926,
      "âĹ«âĸ¢âĹĹ": 1927,
      "ĠâĹłâĹīâĹ¬âĸ¨": 1928,
      "âĹŀâĸ«âĹª": 1929,
      "ĠâĹŀâĹłâĹĪâĹªâĸ¼âĸ´": 1930,
      "Ġâĸ¨âĹłâĸ»âĹłâĸ«": 1931,
      "ĠâĹªâĹĪâĸ´": 1932,
      "âĹ§âĸ¨âĸ«": 1933,
      "âĹŀâĹ§âĸ¦": 1934,
      "âĹŃâĹĲ": 1935,
      "âĹĢâĹłâĹĴ": 1936,
      "Ġâĸ·âĹł": 1937,
      "ĠâĹ§âĸ±âĹłâĹĢâĹĹâĸ±": 1938,
      "âĸŃâĹłâĹ³âĹ¬âĹĵâĸł": 1939,
      "ĠâĹĹâĸ·âĸ«âĹĹ": 1940,
      "ĠâĹłâĸ»âĸ«âĹłâĸ±": 1941,
      "Ġâĸ«âĸ©âĹİ": 1942,
      "ĠâĹķâĸ´âĸ¼âĹª": 1943,
      "ĠâĹŀâĹłâĹĪâĹªâĸ¼âĹª": 1944,
      "Ġâĸ½âĹĤâĸ±": 1945,
      "ĠâĹĢâĹĹâĹĵâĹĹ": 1946,
      "ĠâĹĤâĸ±âĸ¾âĹĵ": 1947,
      "ĠâĹĿâĹ«âĸ±âĹİâĹĹâĹ³âĹĤâĹĵâĸ¾âĹİâĸµ": 1948,
      "âĸ½âĸª": 1949,
      "ĠâĹ³âĹłâĹĵâĹĪâĹ¬âĹİ": 1950,
      "âĹĪâĹ«âĸ¦âĸµ": 1951,
      "âĹķâĹĹ": 1952,
      "âĸ½âĸ©âĸ¨": 1953,
      "Ġâĸ·âĹªâĹİ": 1954,
      "ĠâĹ«âĸ±âĸ´": 1955,
      "âĸ±âĹªâĸ«": 1956,
      "Ġ5": 1957,
      "âĹ¨âĹĵâĹł": 1958,
      "âĹŀâĹĹâĸ¦âĹ«": 1959,
      "Ġâĸ®âĹªâĸ¦": 1960,
      "âĸŃâĹłâĹ³âĸªâĹĵâĸł": 1961,
      "ĠâĹĹâĸ·âĸ«âĹ«": 1962,
      "ĠâĹĹâĸ±âĸ¨": 1963,
      "ĠâĹĢâĹĹâĹĵâĹ«": 1964,
      "âĹĤâĸ¨âĸ«": 1965,
      "ĠâĹ§âĸ±âĸ¾âĹĵ": 1966,
      "âĹªâĹİâĸ±âĹ«": 1967,
      "ĠâĹĤâĸ±âĹ¨âĹĵ": 1968,
      "âĸ¯âĹłâĹŀâĹ¬âĸ±": 1969,
      "âĹŀâĹĤâĸ¦": 1970,
      "ĠâĹ³âĹłâĸ«": 1971,
      "âĹĹâĸ±âĹĹ": 1972,
      "âĹ«âĸ¢âĹ«": 1973,
      "ĠâĹķâĹ«âĹĪâĹĹ": 1974,
      "ĠâĹłâĸ¦âĸ±âĹłâĹĴ": 1975,
      "âĹ³âĸª": 1976,
      "âĹªâĹŀâĹ«": 1977,
      "âĸŃâĹłâĸ½âĸªâĹĵâĸł": 1978,
      "âĸ´âĸ¨âĸ¨âĹŃâĹĵ": 1979,
      "âĹŀâĹ«âĸ¦âĹĹ": 1980,
      "âĸ·âĹłâĸ±": 1981,
      "ĠâĹłâĹļ": 1982,
      "Ġâĸ¨âĹĤâĹĵâĸ¨": 1983,
      "âĸ©âĸ±": 1984,
      "ĠâĹİâĹłâĹŀ": 1985,
      "Ġâĸ·âĸ´âĹİ": 1986,
      "âĹķâĹłâĸ¦": 1987,
      "Ġâĸ®âĸ´âĸ¦": 1988,
      "Ġâĸ¨âĹłâĹİ": 1989,
      "ĠâĹŀâĹ¨âĹī": 1990,
      "âĹŀâĸ¨âĹĹ": 1991,
      "ĠâĹŀâĸ¾âĹī": 1992,
      "ĠâĹģ": 1993,
      "âĹĹâĸ±âĹ«": 1994,
      "âĹİâĹªâĸ±âĹĹ": 1995,
      "âĹĹâĸ¦âĸ±âĹª": 1996,
      "âĹŀâĹĹâĸ¦âĹĹ": 1997,
      "âĸ®âĹªâĸ¦âĹĹ": 1998,
      "Ġâĸ·âĹłâĸ«âĸªâĹĵ": 1999,
      "âĹ§âĹİ": 2000,
      "âĹļâĹłâĸ±": 2001,
      "âĸªâĸ«": 2002,
      "âĸ±âĹłâĹĵâĹ¬âĸ¦âĹ¬": 2003,
      "âĹīâĹłâĸ¨": 2004,
      "ĠâĹłâĹĵâĸ«âĹ¬âĸ¨": 2005,
      "âĸ±âĹłâĹĵâĸªâĸ¦âĸª": 2006,
      "ĠâĹªâĹĪâĹªâĹĵ": 2007,
      "âĹ°âĹļâĹªâĸ«âĸł": 2008,
      "âĸ©âĸ«âĹįâĹªâĸ¦": 2009,
      "âĹ«âĸ¦âĸ±âĹª": 2010,
      "ĠâĹĹâĸ±âĸ´": 2011,
      "ĠâĹĢâĹ«âĹĵâĹ«": 2012,
      "âĹªâĹŀâĹĹ": 2013,
      "âĹĪâĹªâĸµ": 2014,
      "ĠâĹķâĸ´âĹĵâĹ«": 2015,
      "âĹĴâĹª": 2016,
      "Ġâĸ½âĹłâĹĵâĹĪâĹ¬âĹİ": 2017,
      "âĹĵâĹłâĹŀâĸª": 2018,
      "'âĸ¦âĹ¬âĸ¦": 2019,
      "ĠâĹĪâĹ§âĹŀâĸ«": 2020,
      "âĹ«âĸ¦âĸ±âĸ´": 2021,
      "Ġâĸ½âĹłâĹĵâĹĪâĸªâĹİ": 2022,
      "âĸªâĸ¢âĹł": 2023,
      "ĠâĹĢâĹ«âĸ±âĹª": 2024,
      "ĠâĹķâĹªâĹĵâĹ«": 2025,
      "âĸ®âĹłâĸ¦âĸªâĹĵ": 2026,
      "âĸ°": 2027,
      "âĹĪâĹ¬âĸ¨": 2028,
      "ĠâĹ«âĸ±âĸ¨": 2029,
      "âĹĪâĸ´âĸµ": 2030,
      "âĹłâĸ±âĸ¦âĸªâĸ¢": 2031,
      "âĹ³âĹĤâĸ¦": 2032,
      "âĸºâĸº": 2033,
      "âĹĪâĹĹâĸł": 2034,
      "ĠâĹķâĹ«âĹĪâĹ«": 2035,
      "âĹ¢âĹĹâĹİ": 2036,
      "Ġâĸ¦âĸ´âĹĪâĹªâĸ¦": 2037,
      "ĠâĹķâĸ©âĸ¢âĸ´âĸ±": 2038,
      "âĹłâĸ±âĸ¦âĹ¬âĸ¢": 2039,
      "âĹ³âĹ§âĸ¦": 2040,
      "ĠâĹłâĸ¼": 2041,
      "âĹłâĹĲâĹł": 2042,
      "ĠâĹķâĹĹâĹĪâĹ«": 2043,
      "âĹłâĸ¦âĹ¬âĸ¦": 2044,
      "ĠâĹ§âĹĵâĸ«": 2045,
      "'âĸ¦âĸªâĸ¦": 2046,
      "'âĹĹ": 2047,
      "âĹłâĸ¦âĸ¦": 2048,
      "ĠâĹķâĹ£âĸ¦": 2049,
      "ĠâĹķâĹĹâĹĪâĹĹ": 2050,
      "âĸ±âĹŃâĸ«": 2051,
      "âĸ½âĹ¬": 2052,
      "ĠâĹ§âĸ±âĹ¨âĹĵ": 2053,
      "ĠâĹķâĸ´âĹĵâĹĹ": 2054,
      "ĠâĹķâĹŃâĸ¢âĸ´âĸ±": 2055,
      "Ġâĸ¨âĸ©âĹī": 2056,
      "âĹİâĹªâĸ½âĸ´": 2057,
      "ĠâĹŀâĹłâĹĪâĸ´âĸ¼âĹª": 2058,
      "âĸ½âĹĤâĸ¦": 2059,
      "ĠâĹĤâĹĵâĹłâĹĪâĹł": 2060,
      "ĠâĹłâĹīâĸªâĸ¨": 2061,
      "ĠâĹįâĹĹâĸ¨": 2062,
      "ĠâĹīâĹĤâĸ¼âĸ¾âĸ¨": 2063,
      "ĠâĹīâĹ§âĸ¼âĹ¨âĸ¨": 2064,
      "ĠâĹ«âĸ·âĸ«âĹ«": 2065,
      "âĹĹâĸ¢âĹ«": 2066,
      "âĹİâĹªâĹ³âĹª": 2067,
      "âĹİâĸ´âĸ½âĹª": 2068,
      "âĹĪâĸ¾âĹĵ": 2069,
      "âĹİâĹªâĹ³âĸ´": 2070,
      "ĠâĹķâĹĩâĸ¦": 2071,
      "ĠâĹŀâĹłâĹĪâĸ´âĸ¼âĸ´": 2072,
      "âĹĹâĸ¦âĸ±âĸ´": 2073,
      "ĠâĹ«âĸ·âĸ«âĹĹ": 2074,
      "'âĸ±âĹł": 2075,
      "ĠâĹ«âĸ±âĹª": 2076,
      "Ġâĸ¦âĹªâĹĪâĹªâĸ¦": 2077,
      "ĠâĹķâĹªâĹĵâĹĹ": 2078,
      "ĠâĹłâĹ«âĸ±": 2079,
      "ĠâĹļâĹłâĹĵâĸł": 2080,
      "âĹĨâĹĩâĹĵ": 2081,
      "ĠâĹİâĹ«âĹŀâĹ«âĸ¦?": 2082,
      "âĹĪâĸªâĸ¨": 2083,
      "ĠâĹŀâĹĹ": 2084,
      "ĠâĹłâĸ±âĹİâĹłâĸ¨": 2085,
      "âĹłâĹĵâĸ´âĸ«": 2086,
      "âĹŃâĸ±": 2087,
      "âĹ«âĸ±âĹĹ": 2088,
      "âĹİâĹªâĸ½âĹª": 2089,
      "âĸªâĸ¢?": 2090,
      "ĠâĹŀâĹ¬âĸ¨": 2091,
      "âĸ¡âĹłâĹĵ": 2092,
      "âĹĿâĹłâĹĴâĸ¨âĹł": 2093,
      "'âĸ´": 2094,
      "'âĹ«": 2095,
      "Ġâĸ¦âĸ´âĹĵâĹª": 2096,
      "âĸ±âĹłâĹĵâĸªâĸ¦âĹ¬": 2097,
      "âĸ¼âĸ´âĹĲâĹĹâĹİâĸµ": 2098,
      "âĹİâĹªâĸ±âĹ«": 2099,
      "âĸªâĹİ?": 2100,
      "âĹ¬âĸ¢âĹł": 2101,
      "ĠâĹŀâĹłâĹĢâĹłâĸ·": 2102,
      "ĠâĹ±âĸ¦": 2103,
      "âĹŀâĸ¨âĹ«": 2104,
      "âĹĵâĹłâĹİ": 2105,
      "ĠâĹĿâĹłâĹ³": 2106,
      "âĹĺâĹļâĸ´âĸ«âĸł": 2107,
      "âĹĹâĸ¢âĹĹ": 2108,
      "âĹĺâĹļâĹªâĸ«âĸł": 2109,
      "âĸ½âĹ§âĸ¦": 2110,
      "Ġâĸ»âĹ§": 2111,
      "âĸ´âĹŀâĹĹ": 2112,
      "ĠâĹīâĹĤâĸ¼âĹ¨âĸ¨": 2113,
      "âĹĪâĸ¾âĹĲ": 2114,
      "ĠâĹŃâĹŀâĸ«": 2115,
      "âĹİâĹ«âĹ³âĹĤâĹĵ": 2116,
      "ĠâĹĭâĹİâĹł": 2117,
      "Ġâĸ©âĹŀâĸ«": 2118,
      "âĸ©âĸ«âĹįâĸ´âĸ¦": 2119,
      "âĸ®âĹłâĸ¦âĹ¬âĹĵ": 2120,
      "Ġâĸ¾âĹ³": 2121,
      "ĠâĹīâĹ§âĸ¼âĸ¾âĸ¨": 2122,
      "âĹĪâĹ¨âĹĲ": 2123,
      "âĹłâĸ¦âĹķâĹĹ": 2124,
      "Ġâĸ¨âĹ§âĹĵâĸ¨": 2125,
      "âĸ«âĹ«âĹĵ": 2126,
      "Ġâĸ¨âĹŃâĹī": 2127,
      "ĠâĹ§âĹĵâĹłâĹĪâĹł": 2128,
      "âĹŀâĹ«âĸ¦âĹ«": 2129,
      "âĹŀâĹłâĸ½": 2130,
      "Ġâĸ¦âĹªâĹĪâĸ´âĸ¦": 2131,
      "âĹŀâĹłâĹ³": 2132,
      "âĹ¢âĹłâĸ»": 2133,
      "ĠâĹĪâĹĤâĹŀâĸ«": 2134,
      "âĸ¶âĹłâĸ«âĸ±": 2135,
      "âĹłâĸ±âĸ«": 2136,
      "ĠâĹİâĸ¾âĹŀâĸ¾âĸ¦?": 2137,
      "Ġâĸ±âĹŃâĸ«": 2138,
      "ĠâĹŀâĹªâĹī": 2139,
      "ĠâĹĪâĹªâĹļâĹłâĹİ": 2140,
      "âĹļâĸ´âĹĵ": 2141,
      "âĸ±âĸ´âĸ«": 2142,
      "âĹĿâĹłâĸ¢": 2143,
      "Ġâĸ«âĹłâĸ·": 2144,
      "Ġâĸ´âĹĪâĸ´": 2145,
      "ĠâĹ¨âĹ³": 2146,
      "âĹłâĸł": 2147,
      "Ġâĸ»âĸ´âĸ¨": 2148,
      "Ġâĸ¾âĸ½": 2149,
      "âĹ¬âĸ«": 2150,
      "âĸªâĸ±âĹİâĹł": 2151,
      "Ġâĸ»âĹĤ": 2152,
      "âĸ¼âĹªâĹĲâĹ«âĹİâĸµ": 2153,
      "âĹ§âĹĢ": 2154,
      "ĠâĹĤâĸ±âĹłâĸ¼âĹłâĹĲ": 2155,
      "âĹĺâĸ¦": 2156,
      "âĸ¼âĹªâĹĲâĹĹâĹİâĸµ": 2157,
      "âĹ¬âĸ±âĹİâĹł": 2158,
      "ĠâĹŀâĸªâĸ¨": 2159,
      "ĠâĹªâĹĪâĸ´âĹĵ": 2160,
      "âĹ«âĸ¦âĹĹâĸ¦": 2161,
      "âĸ±âĸ´âĹį": 2162,
      "Ġâĸ¦âĸ´âĹĪâĸ´âĸ¦": 2163,
      "ĠâĹŀâĹĩâĸ¢": 2164,
      "ĠâĹĦâĹłâĹĵ": 2165,
      "âĹ±âĸ¦âĹ¨": 2166,
      "âĹĪâĹŃâĹİâĸµ": 2167,
      "âĸ¼âĸ´âĹĲâĹ«âĹİâĸµ": 2168,
      "Ġâĸ·âĹłâĹĢâĹªâĹĵ": 2169,
      "âĸ¾âĸ·": 2170,
      "Ġâĸ½âĹªâĸ«": 2171,
      "âĹİâĸ´âĹ³âĸ´": 2172,
      "Ġ4": 2173,
      "âĹĹâĸ¦âĹ«âĸ¦": 2174,
      "âĹĪâĹ«âĸł": 2175,
      "ĠâĹĹâĹŀâĸ«âĸ´âĹĵ": 2176,
      "âĹĺâĸ±": 2177,
      "âĹİâĸ´âĹ³âĹª": 2178,
      "ĠâĹķâĹłâĹĵ": 2179,
      "ĠâĹĤâĹĵâĸ«": 2180,
      "ĠâĹīâĹłâĹĵ": 2181,
      "ĠâĹĪâĹĤâĹĲâĹĵâĸ¾": 2182,
      "âĹĢâĹłâĹĵ": 2183,
      "âĹ¬âĸ¦âĹ¬âĸ¦": 2184,
      "âĹ¦âĸ¦âĸ¦": 2185,
      "Ġâĸ¿âĸ¦": 2186,
      "'âĹª": 2187,
      "âĹĪâĹ¨âĹĵ": 2188,
      "ĠâĹķâĸ´âĸ«âĹĹâĹĵ": 2189,
      "ĠâĹĹâĸ±âĹª": 2190,
      "âĸ´âĸ±âĹĹ": 2191,
      "ĠâĹĹâĹŀâĸ«âĹªâĹĵ": 2192,
      "'âĹ³âĹł": 2193,
      "âĸ´âĸ·": 2194,
      "ĠâĹªâĹĴ": 2195,
      "âĹĤâĹĢ": 2196,
      "âĹ«âĹİâĹĹ": 2197,
      "âĹĭâĸ¦âĸ¦": 2198,
      "âĹĬâĹĴ": 2199,
      "âĸ¦âĹķ": 2200,
      "Ġâĸ¦âĹªâĹĵâĹª": 2201,
      "Ġâĸ»âĹĵâĹ§": 2202,
      "ĠâĹ³âĹłâĸ»âĹłâĹĵ": 2203,
      "âĸ´âĹŀâĹ«": 2204,
      "âĹķâĹ¬": 2205,
      "âĹĪâĸªâĹĲâĹ¬âĹİ": 2206,
      "Ġâĸ´âĹĪâĹªâĹĵ": 2207,
      "âĸŃâĹłâĸ½âĹ¬âĹĵâĸł": 2208,
      "âĹªâĹį": 2209,
      "âĹ¨âĸ·": 2210,
      "Ġâĸ§": 2211,
      "ĠâĹłâĹĵâĹłâĹİâĹł": 2212,
      "ĠâĹ«âĹŀâĸ«âĹªâĹĵ": 2213,
      "Ġâĸ·âĹłâĸ»": 2214,
      "ĠâĹ§âĸ±âĹłâĸ¼âĹłâĸ¨âĸµ": 2215,
      "Ġâĸ»âĹªâĸ¨": 2216,
      "âĹĿâĸ´âĸ¦âĹĹâĹİ": 2217,
      "âĹłâĸ±âĹ¬âĹİâĸµ": 2218,
      "ĠâĹĢâĹ¨âĸµ": 2219,
      "ĠâĹŀâĹĩâĹ³": 2220,
      "âĹĪâĸ´âĸ¨âĹĹ": 2221,
      "âĸ¼âĹłâĸ¦": 2222,
      "ĠâĹŀâĹłâĹĵ": 2223,
      "âĹŀâĸ«âĸ´": 2224,
      "âĸ´âĸ±âĹ«": 2225,
      "âĹİâĹĹâĹ³âĹ§âĹĵ": 2226,
      "ĠâĹ³âĹłâĸ»âĸ«âĸª": 2227,
      "Ġâĸ¦âĹªâĹĵâĸ´": 2228,
      "âĸŃâĹªâĸ»": 2229,
      "ĠâĹİâĹĹâĹŀâĹ«âĸ¦?": 2230,
      "âĹħâĹĤâĸ¼": 2231,
      "'âĹ¬": 2232,
      "'âĸª": 2233,
      "âĹĢâĹłâĸ«": 2234,
      "ĠâĹķâĹªâĸ¼âĹª": 2235,
      "ĠâĹķâĸ´âĸ«âĹ«âĹĵ": 2236,
      "âĸ¨âĹłâĹĵ": 2237,
      "âĹĪâĸ©âĸ¦": 2238,
      "ĠâĹŀâĹłâĹ³": 2239,
      "ĠâĹİâĸ¾âĸ«": 2240,
      "âĸ®âĹĤâĸ¦âĹĵâĹł": 2241,
      "âĸ¯âĹªâĹĪâĹªâĸ¦": 2242,
      "ĠâĹłâĹĴâĸ¨": 2243,
      "âĹİâĸ¾âĹĴâĸµ": 2244,
      "âĹ¨âĸ¦âĸµ": 2245,
      "Ġâĸ½âĹłâĸ»âĹİâĹł": 2246,
      "ĠâĹ¦âĹİâĹł": 2247,
      "âĹ±âĸ¦âĸ¾": 2248,
      "ĠâĹ³âĹłâĸ»âĹ¬âĸ½âĹ§âĹĵâĹŀâĹ¨âĸ¦?": 2249,
      "Ġ#": 2250,
      "ĠâĹ«âĹĴâĸ«": 2251,
      "âĹĵâĸ«âĸªâĸ¨": 2252,
      "ĠâĹķâĹªâĸ«âĹĹâĹĵ": 2253,
      "ĠâĹĢâĹłâĹĵ": 2254,
      "ĠâĹĿâĹłâĸ½": 2255,
      "ĠâĹŀâĹ£âĹ³": 2256,
      "âĹĵâĸ«âĹ¬âĸ¨": 2257,
      "Ġâĸ¾âĹİ": 2258,
      "âĹļâĹªâĹĵ": 2259,
      "âĸªâĹİâĹ¬": 2260,
      "âĸªâĹİâĸª": 2261,
      "âĹİâĹ«âĸ½âĹ§âĹĵ": 2262,
      "âĹªâĸ·": 2263,
      "ĠâĹĤâĸ±âĹłâĸ¼âĹłâĸ¨âĸµ": 2264,
      "âĹİâĹĹâĸ½âĹ§âĹĵ": 2265,
      "Ġâĸ¦âĸ´âĹĵâĸ´": 2266,
      "Ġâĸ¢âĹłâĹĵ": 2267,
      "âĹİâĹ«âĹ³âĹ§âĹĵ": 2268,
      "Ġâĸ«âĹªâĸ¨âĹĵâĹłâĹĵ": 2269,
      "ĠâĹŀâĸ´âĹī": 2270,
      "ĠâĹ³âĹłâĸ»âĹ¬âĸ½âĹ§âĹĵâĹŀâĸ¾âĸ¦?": 2271,
      "ĠâĹ©": 2272,
      "âĹŀâĹłâĸ±": 2273,
      "âĸ¶âĹªâĸ¨": 2274,
      "âĹİâĹĹâĸ½âĹĤâĹĵ": 2275,
      "Ġâĸ·âĹłâĹĢâĸ´âĹĵ": 2276,
      "âĸ¨âĹłâĹŀ": 2277,
      "âĹ¨âĹİ!": 2278,
      "'âĸ½âĹł": 2279,
      "âĹŀâĸ´âĸ¨": 2280,
      "âĸ¾âĹĵâĹł": 2281,
      "ĠâĹĪâĹĹâĸ¨": 2282,
      "ĠâĹłâĹĹâĸ±": 2283,
      "âĹªâĹİâĸ´âĸ¨": 2284,
      "Ġ!": 2285,
      "âĹ¬âĸ¢?": 2286,
      "ĠâĹŀâĹ£âĸ¢": 2287,
      "ĠâĹ¨âĸ¦": 2288,
      "âĸ¯âĸ´âĹĪâĸ´âĸ¦": 2289,
      "âĹĪâĹŃâĸ¦": 2290,
      "âĹķâĸª": 2291,
      "ĠâĹªâĹĲ": 2292,
      "Ġâĸ½âĹłâĸ»âĹłâĹĵ": 2293,
      "ĠâĹİâĹ«âĹŀâĹĹâĸ¦?": 2294,
      "Ġâĸ¨âĹłâĸ±âĹİâĹł": 2295,
      "âĹŀâĸ´âĸł": 2296,
      "Ġâĸ¨âĹ¬âĹĵ": 2297,
      "ĠâĹĢâĹłâĸ¨âĸµ": 2298,
      "ĠâĹĢâĹŃâĸ«": 2299,
      "âĸ«âĹ«âĹİâĸµ": 2300,
      "ĠâĹŀâĹĩâĸ½": 2301,
      "Ġâĸ½âĸ´âĸ«": 2302,
      "ĠâĹĤâĹĵ": 2303,
      "âĹĹâĹİâĹĹ": 2304,
      "ĠâĹįâĹ«âĸ¨": 2305,
      "âĸ±âĸªâĹĴ": 2306,
      "Ġâĸ¨âĹłâĹĵâĹĪâĹªâĹĴ": 2307,
      "Ġâĸ¨âĹĹ?": 2308,
      "âĸŃâĸ´âĸ»": 2309,
      "âĹŀâĹ¨âĸ¦âĹ¨âĸ¢?": 2310,
      "âĹİâĹĹâĹ³âĹĤâĹĵ": 2311,
      "Ġâĸ´âĹĲ": 2312,
      "Ġâĸ¨âĹ«?": 2313,
      "âĹ«âĸ¦âĹ«âĸ¦": 2314,
      "âĸ»âĹĵ": 2315,
      "âĸªâĸ¦âĸł": 2316,
      "ĠâĹ³âĸ´âĸ«": 2317,
      "âĹĪâĹ¬âĹĲâĸªâĹİ": 2318,
      "Ġâĸ½âĹłâĸ»âĸ«âĸª": 2319,
      "âĹŀâĹłâĸ¦âĸł": 2320,
      "ĠâĹĮâĹĵâĹłâĸ¦": 2321,
      "âĹłâĸ¦âĹķâĹ«": 2322,
      "ĠâĹİâĹªâĹĵ": 2323,
      "Ġâĸ»âĹĵâĹĤ": 2324,
      "âĹŀâĹªâĸ¨": 2325,
      "ĠâĹķâĸ´âĸ¦": 2326,
      "âĸ±âĹ¬âĹĴ": 2327,
      "âĹĿâĹ«âĹĵâĹłâĸ¢": 2328,
      "âĸ®âĹªâĸ¦âĹ«": 2329,
      "âĹĹâĸ·": 2330,
      "âĹĹâĸ¦âĹĹâĸ¦": 2331,
      "ĠâĹĴâĹłâĹĵâĸ¨": 2332,
      "âĹłâĹİâĸ»": 2333,
      "âĹ«âĸ½âĹĤâĹĵâĸµ": 2334,
      "Ġâĸ¾âĸ¢âĹłâĸ¨": 2335,
      "Ġâĸ±âĹłâĸ¦": 2336,
      "âĹłâĹķ": 2337,
      "âĹİâĹ¨": 2338,
      "âĸ¼âĹłâĹĲ": 2339,
      "Ġâĸ´âĸ¨": 2340,
      "âĹ¨âĸµ": 2341,
      "âĸ©âĹŀ": 2342,
      "âĹİâĹªâĸµ": 2343,
      "ĠâĹĹâĹŀ": 2344,
      "âĹŀâĹĹâĸ¦âĸł": 2345,
      "ĠâĹŀâĹ£âĸ½": 2346,
      "âĸªâĸ¦âĸªâĸ¦": 2347,
      "âĹĹâĸ¢âĸł": 2348,
      "ĠâĹ³âĹłâĸ»âĹİâĹł": 2349,
      "âĸ¯âĹłâĹŀâĸªâĸ±": 2350,
      "ĠâĹ«âĹŀâĸ«âĸ´âĹĵ": 2351,
      "âĸ¿âĸ¦âĸ¾": 2352,
      "ĠâĹ§âĹĵ": 2353,
      "ĠâĹ«âĸ¨âĹ«": 2354,
      "âĹĵâĸµ": 2355,
      "ĠâĹļâĸ¾âĹĵ": 2356,
      "âĹłâĸ«âĸª": 2357,
      "âĹİâĸ´âĸ½âĸ´": 2358,
      "âĸ±âĹ«âĹŀ": 2359,
      "Ġâĸ¨âĹłâĹĵâĹĪâĸ´âĹĴ": 2360,
      "âĹİâĹ¨âĹĴâĸµ": 2361,
      "ĠâĹĪâĹĩ": 2362,
      "ĠâĹķâĹªâĸ¦": 2363,
      "âĹĹâĹİâĹ«": 2364,
      "âĸ±âĸ´âĹĵâĸł": 2365,
      "ĠâĹ³âĹłâĸ»âĸ«âĹ¬": 2366,
      "âĹĹâĹ³âĹĤâĹĵâĸµ": 2367,
      "âĹĴâĸ´": 2368,
      "ĠâĹ«âĸ¨âĹĹ": 2369,
      "âĹ«âĸ¢âĸł": 2370,
      "ĠâĹĪâĸ´âĹļâĹłâĹİ": 2371,
      "ĠâĹĪâĹ§âĹĲâĹĵâĸ¾": 2372,
      "âĹĪâĸ©âĹİâĸµ": 2373,
      "âĹĿâĹłâĸ¨âĸł": 2374,
      "âĸ«âĹłâĸ¨": 2375,
      "ĠâĹĹâĸ¨âĹĹ": 2376,
      "âĹĪâĹªâĸł": 2377,
      "âĹĪâĸ´âĸł": 2378,
      "Ġâĸ®âĹł": 2379,
      "âĹŀâĹłâĸ¸": 2380,
      "âĹĿâĹªâĸ¦âĹĹ": 2381,
      "ĠâĹĪâĹłâĸ¨âĹ«âĸ¨âĹł": 2382,
      "âĸ¶âĹłâĹİ": 2383,
      "âĹ°âĸ±": 2384,
      "âĹĸâĹ«âĹİâĹĪâĹ«": 2385,
      "âĹŀâĹªâĸł": 2386,
      "ĠâĹĪâĹĤâĹĲ": 2387,
      "Ġâĸ«âĸ´âĸ¨âĹĵâĹłâĹĵ": 2388,
      "ĠâĹķâĹªâĸ«âĹ«âĹĵ": 2389,
      "ĠâĹŀâĹªâĹĵ": 2390,
      "âĹłâĸ±âĸªâĹİâĸµ": 2391,
      "ĠâĹĴâĹĹâĹİâĹĪâĹĹ": 2392,
      "ĠâĹĪâĹ§âĹĲ": 2393,
      "ĠâĹĢâĹłâĹĢâĹłâĹİ": 2394,
      "ĠâĹļâĹ¨âĹĵ": 2395,
      "ĠâĹİâĹ«âĸ½": 2396,
      "âĹŃâĹŀ": 2397,
      "âĹŀâĹ«âĸ¦âĸł": 2398,
      "ĠâĹ§âĸ¦âĹ¨âĸ¦": 2399,
      "âĹĪâĹŃâĹĵ": 2400,
      "âĸ«âĹ¬âĹİâĸµ": 2401,
      "âĸ¾âĹİâĹł": 2402,
      "âĹİâĹ«âĸ½âĹĤâĹĵ": 2403,
      "âĸ¯âĹªâĹĪâĸ´âĸ¦": 2404,
      "ĠâĹķâĹŃâĹī": 2405,
      "âĹ¬âĹİ?": 2406,
      "âĹ³âĸ¾âĸ¦": 2407,
      "Ġâĸ«âĸ´âĹĵ": 2408,
      "ĠâĹĢâĸ©âĸ«": 2409,
      "âĹ¬âĸ¦âĸªâĸ¦": 2410,
      "ĠâĹ§âĸ¦âĸ¾âĸ¦": 2411,
      "âĸ±âĹªâĹĵâĸł": 2412,
      "ĠâĹīâĹłâĸ±âĸªâĹĴâĸ«": 2413,
      "ĠâĹİâĹ¨âĸ«": 2414,
      "'âĹ¨âĸ¦": 2415,
      "âĹĿâĹĩ": 2416,
      "âĸ±âĹªâĹį": 2417,
      "ĠâĹļâĹłâĹĵâĹĪâĹ¬âĸµ": 2418,
      "ĠâĹİâĹĹâĹŀâĹĹâĸ¦?": 2419,
      "ĠâĹİâĹłâĸ¨": 2420,
      "âĸ¶âĸ´âĸ¨": 2421,
      "âĸªâĹİâĸªâĸ¢": 2422,
      "âĹİâĹŃâĹĴ": 2423,
      "âĹķâĸ¾": 2424,
      "ĠâĹłâĸ¦âĸ±âĹłâĹİâĹł": 2425,
      "Ġâĸ½âĹłâĸ»âĸ«âĹ¬": 2426,
      "ĠâĹķâĹªâĸ¼âĸ´": 2427,
      "âĸ®âĸ´âĸ¦âĹĹ": 2428,
      "âĹĪâĹªâĸ¨âĹ«": 2429,
      "âĸªâĸ¦âĹ¬âĸ¦": 2430,
      "ĠâĹ³âĹªâĸ«": 2431,
      "âĹłâĸ«âĹ¬": 2432,
      "âĸ¢âĹķâĸ©âĸ¦": 2433,
      "ĠâĹĤâĸ¦âĸ¾âĸ¦": 2434,
      "ĠâĹ£âĸ½âĸ±âĸ´": 2435,
      "ĠâĹİâĹĹâĸ½": 2436,
      "âĸ®âĸ´âĸ¦âĹ«": 2437,
      "Ġâĸ¨âĹĩâĸ«âĹŃ": 2438,
      "âĸ´âĸ¨âĸ¨âĸ©âĹĵ": 2439,
      "âĹİâĹłâĸ¦âĹ¬": 2440,
      "âĹĸâĹ«âĹİâĹĪâĹĹ": 2441,
      "âĸ«âĹĹâĹİâĸµ": 2442,
      "Ġâĸ¨âĸªâĹĵ": 2443,
      "Ġâĸ¨âĹªâĹŀ": 2444,
      "âĹĿâĹ£": 2445,
      "ĠâĹ§âĹĪâĹł": 2446,
      "âĹĪâĹ¬âĹĲâĹ¬âĹİ": 2447,
      "ĠâĹłâĸ¦âĸ±âĹłâĹİ": 2448,
      "âĹŀâĹłâĸ¦âĹł": 2449,
      "Ġâĸ½âĸªâĸ±": 2450,
      "âĸ¬âĸ·": 2451,
      "âĹłâĹĵâĹªâĸ«": 2452,
      "âĸ©âĸµ": 2453,
      "âĹ«âĹİâĹ«": 2454,
      "ĠâĹªâĹĵâĸ¨": 2455,
      "âĹĪâĸ´âĸ¨âĹ«": 2456,
      "âĹŃâĸ¼": 2457,
      "ĠâĹİâĹ«âĹ³": 2458,
      "âĸ¿âĸ¦âĹł": 2459,
      "âĹ¨âĹİâĹł": 2460,
      "ĠâĹĢâĸ¾âĸµ": 2461,
      "ĠâĹłâĹĵâĹłâĹĴ": 2462,
      "ĠâĹĩâĹ³âĸ±âĸ´": 2463,
      "âĹļâĸ´âĸ«âĸµ": 2464,
      "Ġâĸ¾âĹĲ": 2465,
      "âĹİâĸ©âĹĴ": 2466,
      "ĠâĹĪâĹŃâĸ¢": 2467,
      "âĸ±âĹłâĸµ": 2468,
      "âĹĪâĸªâĹĲâĸªâĹİ": 2469,
      "ĠâĹİâĹĹâĹ³": 2470,
      "âĹĿâĹªâĸ¦âĹ«âĹİ": 2471,
      "ĠâĹĭâĸ¦": 2472,
      "âĹīâĸ´": 2473,
      "âĹķâĹª": 2474,
      "âĸ¶âĹłâĹĢ": 2475,
      "âĹ³âĸł": 2476,
      "ĠâĹĪâĹ£": 2477,
      "Ġâĸ½âĹłâĸ»âĹİâĹłâĸ¨": 2478,
      "ĠâĹķâĹ£âĹĵâĸ©âĹĴ": 2479,
      "âĸ¿âĸ¦âĹ¨": 2480,
      "âĸ©âĸ»": 2481,
      "âĸ·âĸ¦": 2482,
      "âĹĭâĸ±": 2483,
      "Ġâĸ®âĹłâĸ¦": 2484,
      "ĠâĹĤâĸ¦âĹ¨âĸ¦": 2485,
      "âĹĿâĹªâĸ¦âĹĹâĹİ": 2486,
      "âĸ«âĹĵâĹ§âĸ±": 2487,
      "Ġâĸ´âĹĵâĸ¨": 2488,
      "âĹŃâĸ»": 2489,
      "ĠâĹ£âĹĲâĹĵâĹªâĸ¦": 2490,
      "âĹĴâĸ¨": 2491,
      "âĸ¯âĸ´âĹĪâĹªâĸ¦": 2492,
      "ĠâĹłâĹŀâĸ±": 2493,
      "ĠâĹķâĸ´âĸ¼âĸ´": 2494,
      "âĹĵâĹªâĸ¦": 2495,
      "Ġâĸ¨âĹłâĹļ": 2496,
      "âĹĿâĸ´âĸ¦âĹ«âĹİ": 2497,
      "Ġâĸ·âĹ«âĹīâĹĢâĹĹâĹĵ": 2498,
      "âĹĵâĸ´âĸ¦": 2499,
      "âĹłâĸ¨âĸ¨": 2500,
      "âĸ¶âĹªâĹĴ": 2501,
      "ĠâĹĢâĹ¨âĸ±âĹĪ": 2502,
      "Ġâĸ´âĹĴ": 2503,
      "ĠâĹ³âĹłâĸ»âĹİâĹłâĸ¨": 2504,
      "âĸ¾âĸ¨âĸµ": 2505,
      "ĠâĹĪâĹĤâĹĲâĹĵâĹ¨": 2506,
      "âĹłâĸ±âĹłâĸł": 2507,
      "ĠâĹķâĸ©âĹī": 2508,
      "âĸ½âĸł": 2509,
      "ĠâĹ³âĸªâĸ±": 2510,
      "ĠâĹĴâĹ«âĹİâĹĪâĹ«": 2511,
      "âĸ±âĹĹâĹŀ": 2512,
      "âĸ±âĹłâĹĵâĹ¬âĸ¦âĹł": 2513,
      "ĠâĹĢâĹ§âĹĴ": 2514,
      "âĸ´âĹİâĸ´âĸ¨": 2515,
      "âĹĸâĹĹâĹİâĹĪâĹ«": 2516,
      "âĹĿâĸ´âĸ¦âĹĹ": 2517,
      "âĹįâĹłâĸ¨": 2518,
      "âĸ®âĹłâĹĪâĸ´âĸ¼âĹª": 2519,
      "âĸ«âĹĵâĹĤâĸ±": 2520,
      "âĹĸâĹĹâĹİâĹĪâĹĹ": 2521,
      "âĹĪâĸªâĸ¦âĸµ": 2522,
      "âĹłâĹĢâĹłâĸł": 2523,
      "âĸ®âĹłâĹĪâĹªâĸ¼âĹª": 2524,
      "âĹĿâĹłâĹĢâĹłâĹİ": 2525,
      "âĹĵâĸ¨âĹłâĹĪâĹłâĹĴ": 2526,
      "ĠâĹīâĹłâĸ±âĹ¬âĹĴâĸ«": 2527,
      "âĸ±âĹłâĹĵâĸªâĸ¦âĹł": 2528,
      "âĹ«âĹ³âĹĤâĹĵâĸµ": 2529,
      "ĠâĹĢâĸ¾âĸ±âĹĪ": 2530,
      "âĹ¤âĹłâĸ»": 2531,
      "âĸ«âĹ«âĸ¦": 2532,
      "âĸ½âĸ¾âĸ¦": 2533,
      "ĠâĹļâĹłâĹĵâĹĪâĸªâĸµ": 2534,
      "âĹĪâĹ¬âĸ¦âĸµ": 2535,
      "âĸ´âĸ±âĹĪ": 2536,
      "âĹŀâĹªâĹİ": 2537,
      "âĹ¬âĸ¦âĸł": 2538,
      "âĹĬâĹī": 2539,
      "âĹŀâĸ´âĸ±": 2540,
      "âĹ³âĸµ": 2541,
      "âĸ©âĸ¼": 2542,
      "âĹĻâĹ§": 2543,
      "ĠâĹķâĹ£âĹĵâĸ´": 2544,
      "âĹłâĸ±âĹłâĹĵâĸª": 2545,
      "Ġâĸ¨âĹĩâĸ«âĸ©": 2546,
      "âĸ«âĸªâĹİâĸµ": 2547,
      "âĹ¬âĹİâĹł": 2548,
      "âĹŃâĸµ": 2549,
      "âĹĿâĹªâĸ¦âĹ«": 2550,
      "ĠâĹĪâĹ§âĹĲâĹĵâĹ¨": 2551,
      "âĹļâĹªâĸ«âĸµ": 2552,
      "Ġ10": 2553,
      "âĹĪâĹªâĸ¨âĹĹ": 2554,
      "âĹ«âĹŀâĸ«": 2555,
      "ĠâĹĪâĹ«âĸ¨": 2556,
      "Ġâĸ¨âĸ´": 2557,
      "âĹİâĸ´âĸ¢âĸµ": 2558,
      "âĹĪâĸªâĸ¨âĸµ": 2559,
      "Ġâĸ¨âĸ´âĹŀ": 2560,
      "âĹ¢âĹłâĹī": 2561,
      "ĠâĹ£âĹ³âĸ±âĸ´": 2562,
      "âĹĺâĹĲâĸ´âĹĵ": 2563,
      "Ġâĸ¶âĸ´âĹĴ": 2564,
      "âĹĹâĸ½âĹ§âĹĵâĸ¾âĹİâĸµ": 2565,
      "âĸ«âĸªâĹĵ": 2566,
      "Ġâĸ·âĸ´": 2567,
      "ĠâĹĤâĹĪâĹł": 2568,
      "Ġâĸ¨âĹ£âĸ«âĹŃ": 2569,
      "ĠâĹĪâĸ©âĸ¢": 2570,
      "âĹ«âĸ·": 2571,
      "âĹĪâĸ¾âĹİ": 2572,
      "ĠâĹ³âĹ¬âĸ±": 2573,
      "âĹ¨âĸ¦âĸ¼âĹł": 2574,
      "ĠâĹĴâĹĹâĹİâĹĪâĹ«": 2575,
      "âĹİâĸ´âĸµ": 2576,
      "âĹĪâĹ¬âĸł": 2577,
      "Ġâĸ©âĹī": 2578,
      "ĠâĹ¨âĸ¢âĹłâĸ¨": 2579,
      "âĹŀâĸ´âĹİ": 2580,
      "âĹ¬âĹİâĹ¬": 2581,
      "Ġâĸ±âĹłâĸ¢âĸªâĹİâĸµ": 2582,
      "ĠâĹ«âĹŀ": 2583,
      "âĸ±âĸ´âĸµ": 2584,
      "âĹ²âĹĴ": 2585,
      "ĠâĹŃâĹī": 2586,
      "âĹ³âĸ¾": 2587,
      "ĠâĹŀâĸ´âĹĵ": 2588,
      "ĠâĹīâĹłâĹĢ": 2589,
      "ĠâĹĴâĹ«âĹİâĹĪâĹĹ": 2590,
      "âĹłâĹİâĹłâĸ¨": 2591,
      "âĹ¬âĹİâĸªâĸ¢": 2592,
      "âĸ®âĹłâĹĪâĸ´âĸ¼âĸ´": 2593,
      "ĠâĹĹâĸ¨âĹ«": 2594,
      "Ġâĸ«âĹłâĹļ": 2595,
      "âĸªâĹİâĹ¬âĸ¢": 2596,
      "âĹ¨âĹİâĹĪâĹł": 2597,
      "ĠâĹķâĹĩâĹĵâĹª": 2598,
      "âĹ¬?": 2599,
      "âĹłâĸ±âĹ¬âĸ¨": 2600,
      "âĹĨâĹ£âĹĵ": 2601,
      "ĠâĹĪâĹłâĸ¨âĹĹâĸ¨âĹł": 2602,
      "'âĹĪâĸ´": 2603,
      "ĠâĹĹâĹĴâĸ«": 2604,
      "âĸ´âĹİâĹªâĸ¨": 2605,
      "Ġâĸ¨âĹ£âĸ«âĸ©": 2606,
      "âĹĹâĸ½âĹĤâĹĵâĸµ": 2607,
      "Ġâĸ½âĹ¬âĸ±": 2608,
      "âĹĹâĹ³âĹ§âĹĵâĸµ": 2609,
      "âĹŀâĸ¾âĸ¦âĹ¨âĸ¢?": 2610,
      "Ġâĸ¨âĹłâĸ±âĸ¨": 2611,
      "âĹ°âĹļ": 2612,
      "Ġâĸ·âĹĹâĹīâĹĢâĹĹâĹĵ": 2613,
      "ĠâĹĢâĹłâĹĲâĸ±âĹłâĸ¦": 2614,
      "âĹŀâĹªâĸ±": 2615,
      "ĠâĹĢâĸ´âĹĵ": 2616,
      "âĹĪâĹ«âĹĴ": 2617,
      "âĹ¢âĹłâĸ±": 2618,
      "âĹłâĸ¼âĸ¨": 2619,
      "ĠâĹĳâĹª": 2620,
      "âĸ¶âĹłâĸ«âĸ±âĸªâĹİ!": 2621,
      "'âĸ¾âĸ¦": 2622,
      "âĹłâĸ±âĸªâĸ¨": 2623,
      "ĠâĹĢâĹĹâĹĵâĸ¨âĹłâĹī": 2624,
      "ĠâĹĳâĸ´": 2625,
      "âĸªâĹİâĹł": 2626,
      "ĠâĹĢâĹ«âĸ¦": 2627,
      "Ġâĸ«âĹªâĹİ": 2628,
      "âĸ®âĹłâĹĪâĹªâĸ¼âĸ´": 2629,
      "Ġâĸ¨âĸ¾âĹĵâĸ«âĹłâĹĵ": 2630,
      "ĠâĹĢâĹĹâĸ¦": 2631,
      "âĸ±âĹłâĹİâĹ¬": 2632,
      "âĹ±âĸ¦âĹł": 2633,
      "ĠâĹĢâĹĤâĹĴ": 2634,
      "âĹ¨âĹ³âĹĤâĹĵ": 2635,
      "âĸ²âĹŃâĸ«": 2636,
      "ĠâĹĢâĹªâĹĵ": 2637,
      "âĹ¨âĹ³âĹ§âĹĵ": 2638,
      "âĹĪâĸª?": 2639,
      "âĸ¾âĹİâĸ¾": 2640,
      "âĹłâĸ±âĹłâĹĵâĹ¬": 2641,
      "Ġâĸ¨âĹ¨": 2642,
      "âĸ´âĸ±âĸ´âĸ¦": 2643,
      "ĠâĹĪâĹªâĹİâĸ´âĸ¨": 2644,
      "âĹ¬âĸ¢âĸł": 2645,
      "ĠâĹķâĹŃâĹļâĸ´âĸ¦": 2646,
      "ĠâĹĩâĹĲâĹĵâĸ´âĸ¦": 2647,
      "âĸ¨âĸ´": 2648,
      "Ġâĸ«âĸ´âĹİ": 2649,
      "âĹŁâĹłâĸ»": 2650,
      "ĠâĹ¦âĸ±": 2651,
      "âĸ¼âĹªâĸ¨âĸµ": 2652,
      "âĸ«âĹĹâĸ¦": 2653,
      "âĹŀâĹ¨âĸ¢": 2654,
      "âĸ½âĸµ": 2655,
      "ĠâĹİâĸ´": 2656,
      "Ġâĸ¨âĹłâĹŀ": 2657,
      "âĹ¦âĸ±": 2658,
      "ĠâĹķâĹ£âĹĵâĹª": 2659,
      "âĹ°âĹĲâĹªâĹĵ": 2660,
      "Ġâĸµ": 2661,
      "âĸ«âĸ¾": 2662,
      "ĠâĸŃâĹłâĹĵ": 2663,
      "âĹ²âĹī": 2664,
      "âĹ«âĸ½âĹ§âĹĵâĸµ": 2665,
      "âĹķâĹ¨": 2666,
      "âĹ¬âĹİâĸª": 2667,
      "âĹĿâĸ´âĸ¦âĹ«": 2668,
      "âĸ½âĸ¾": 2669,
      "âĹ¨âĸ½âĹĤâĹĵ": 2670,
      "âĹĻâĹĤ": 2671,
      "Ġâĸ¨âĹ¨âĹĵâĸ«âĹłâĹĵ": 2672,
      "âĸ«âĹ¬âĹĵ": 2673,
      "âĹĪâĸªâĸł": 2674,
      "ĠâĹ£âĹĲâĹĵâĸ´âĸ¦": 2675,
      "Ġâĸ´âĹĪâĸ´âĹĵâĹĹâĹİâĸµ": 2676,
      "âĹĪâĹ¨âĹİ": 2677,
      "âĹīâĹª": 2678,
      "ĠâĹĹâĹŀâĸ«âĹĹâĹ³âĹ§âĹĵ": 2679,
      "âĹİâĹłâĸ¦âĸªâĸ¦": 2680,
      "Ġâĸ·âĹ«âĹīâĹĢâĹ«âĹĵ": 2681,
      "âĸ¾âĸ¦âĸµ": 2682,
      "âĹĪâĹĹ?": 2683,
      "âĹ°âĹĲâĸ´âĹĵ": 2684,
      "ĠâĹłâĹŀâĸ¨": 2685,
      "Ġâĸ¢âĹ§âĹĵâĸ¾âĸ¦âĹĪâĹł": 2686,
      "Ġâĸ¢âĹĤâĹĵâĸ¾âĸ¦âĹĪâĹł": 2687,
      "ĠâĹĩâĹĲâĹĵâĹªâĸ¦": 2688,
      "âĹłâĹĪâĹł": 2689,
      "ĠâĹİâĸ´âĹĵ": 2690,
      "ĠâĹįâĹłâĸ¨âĹłâĸ«": 2691,
      "âĸ¾âĹİâĹĪâĹł": 2692,
      "ĠâĹĢâĹĹâĸ±âĹĹâĹ³âĹĤâĹĵ": 2693,
      "âĹŃâĸ¢âĸµ": 2694,
      "ĠâĹķâĸ©âĹļâĹªâĸ¦": 2695,
      "âĹĹâĸ¼": 2696,
      "âĹ«âĸ¼": 2697,
      "ĠâĹłâĸ±âĹłâĸ¼âĹłâĹĲ": 2698,
      "âĹİâĹłâĸ¦âĸª": 2699,
      "âĹĿâĹĹâĹĵâĹłâĸ¢": 2700,
      "Ġâĸ«âĸ´âĸ·": 2701,
      "âĹĪâĸ©âĹĵ": 2702,
      "âĸ½âĹ¬âĹİâĸµ": 2703,
      "âĸ½âĸªâĹİâĸµ": 2704,
      "ĠâĹĢâĹªâĹĢ": 2705,
      "ĠâĹĹâĹŀâĸ«âĹ«âĹ³âĹĤâĹĵ": 2706,
      "âĹĺâĹĲâĹªâĹĵ": 2707,
      "ĠâĹŀâĹłâĸ¦âĹ¬âĹĵ": 2708,
      "âĹĮâĹłâĸ¨âĹłâĸ«": 2709,
      "âĹİâĸ¢": 2710,
      "âĸ´âĹĲ": 2711,
      "ĠâĹĢâĹ«âĹĵâĸ¨âĹłâĹī": 2712,
      "âĹ¤âĹłâĹĵ": 2713,
      "âĹĪâĹ¬âĸ¨âĸµ": 2714,
      "Ġâĸ¨âĹªâĸ¢": 2715,
      "âĹłâĹĢâĹłâĸ¦": 2716,
      "Ġâĸ«âĹłâĸ¦âĸ´": 2717,
      "Ġâĸ±âĹłâĸ¢âĹ¬âĹİâĸµ": 2718,
      "âĸ±âĹŃâĹİ": 2719,
      "ĠâĹİâĹª": 2720,
      "ĠâĹłâĹİâĹłâĸµ": 2721,
      "âĹĪâĹłâĹļ": 2722,
      "âĹªâĹİâĹªâĸ¨": 2723,
      "Ġâĸ·âĹĹâĹīâĹĢâĹ«âĹĵ": 2724,
      "ĠâĹķâĹŃâĹļâĹªâĸ¦": 2725,
      "000": 2726,
      "âĸ¾âĹī": 2727,
      "âĹłâĹİâĹ¬": 2728,
      "âĹİâĹªâĸ¢âĸµ": 2729,
      "âĹ¢âĹ¬âĸ¢": 2730,
      "ĠâĹĢâĹ«âĸ±âĹĹâĹ³âĹĤâĹĵ": 2731,
      "ĠâĹĭâĸ±": 2732,
      "Ġâĸ¨âĹłâĸ»âĸª": 2733,
      "âĹİâĹłâĹİâĸªâĸ¢": 2734,
      "âĹłâĹĵâĸµ": 2735,
      "Ġâĸ¨âĸ¾": 2736,
      "ĠâĹĤâĸ¨": 2737,
      "âĹłâĹİâĹłâĸ½": 2738,
      "âĸ¾âĹİ!": 2739,
      "Ġâĸ¨âĹ«âĸł": 2740,
      "Ġâĸ¨âĸ´âĸ¦âĹĪâĹĹ": 2741,
      "âĸªâĸ¢âĸł": 2742,
      "ĠâĹłâĸ¨âĸ±": 2743,
      "'âĹĪâĹª": 2744,
      "âĸ«âĹªâĹĵ": 2745,
      "âĸ¾âĹ³âĹĤâĹĵ": 2746,
      "âĹ¨âĹī": 2747,
      "âĹĴâĸ´âĹ³": 2748,
      "âĹĪâĹĹâĸ¨âĸµ": 2749,
      "âĸªâĹİâĹĪâĹł": 2750,
      "Ġâĸ¨âĹ§âĸ¦âĹ¨": 2751,
      "âĸ®âĸ´âĸ¦âĹĹâĸ¦": 2752,
      "âĸ®âĹ§âĸ¦âĹĵâĹł": 2753,
      "âĸ±âĸ©âĹİ": 2754,
      "âĸ«âĸ´âĹĵ": 2755,
      "ĠâĹĢâĹłâĹ³": 2756,
      "âĸ®âĹłâĸ¨": 2757,
      "âĹ¬âĹİâĹ¬âĸ¢": 2758,
      "âĹŀâĹ¨âĸ¦âĸ¾âĸ¢?": 2759,
      "Ġâĸ¨âĹĤâĸ¦âĸ¾": 2760,
      "Ġâĸµâĸµ": 2761,
      "âĸ¾âĹ³âĹ§âĹĵ": 2762,
      "âĹĲâĹĵâĹł": 2763,
      "ĠâĹİâĹĹâĸ±": 2764,
      "ĠâĹłâĸ±âĹİâĹł": 2765,
      "Ġâĸ¶âĹłâĹİâĹłâĹİ": 2766,
      "ĠâĹ¡âĹĤ": 2767,
      "ĠâĹ§âĸ±âĹĪâĸ¾": 2768,
      "ĠâĹĪâĹłâĸ·": 2769,
      "Ġâĸ¨âĹ§âĸ¦âĸ¾": 2770,
      "Ġâĸ¾âĹī": 2771,
      "ĠâĹķâĸ©âĹļâĸ´âĸ¦": 2772,
      "âĹ«âĹ³âĹ§âĹĵâĸµ": 2773,
      "âĸ¾âĸ½âĹ§âĹĵ": 2774,
      "âĹ«âĸ¦âĹķ": 2775,
      "ĠâĹ§âĸ¨": 2776,
      "âĹłâĹĢâĹªâĹĵ": 2777,
      "ĠâĹĢâĹ«âĸ±âĹ«âĹ³âĹĤâĹĵ": 2778,
      "ĠâĹĢâĹªâĸ¦âĸ¢": 2779,
      "ĠâĹĢâĹłâĸ·âĹŀâĸ´": 2780,
      "ĠâĹĪâĹłâĸ±": 2781,
      "âĸ±âĸ´âĹĴ": 2782,
      "âĹłâĹİâĹłâĹ³": 2783,
      "ĠâĹķâĸ´âĸ±âĸ´": 2784,
      "âĹİâĹłâĸ¦âĹ¬âĸ¦": 2785,
      "âĹŀâĸ±âĸªâĸ¦âĹĪâĹł": 2786,
      "âĹ¢âĸªâĸ¢": 2787,
      "Ġâĸ¢âĹłâĹİâĹłâĸ¦âĹĪâĹł": 2788,
      "âĹ¤âĹł": 2789,
      "âĹ¬âĹĵâĹł": 2790,
      "âĹ³âĹ¨": 2791,
      "âĹĲâĸªâĸ¦âĹĪâĹł": 2792,
      "âĹİâĹłâĸł": 2793,
      "âĸ±âĹªâĹĴ": 2794,
      "âĹ«âĸ¨âĹłâĸ½": 2795,
      "ĠâĹ¨âĹī": 2796,
      "Ġâĸ¨âĹłâĹīâĹ¬âĹĵ": 2797,
      "âĸ¨âĹª": 2798,
      "ĠâĹĴâĹłâĸ¦": 2799,
      "âĹ¢âĹĤâĸ¦": 2800,
      "âĸ®âĹªâĸ¦âĹĹâĸ¦": 2801,
      "âĹİâĹłâĹ³âĸª": 2802,
      "ĠâĹĹâĸ¢âĹ«âĸ¦": 2803,
      "âĹİâĹ¨âĹĴâĸ«": 2804,
      "âĸªâĹŀ": 2805,
      "âĹĴâĹªâĸ½": 2806,
      "ĠâĹĩâĸ½âĸ±âĹª": 2807,
      "âĹŁâĹłâĹĵ": 2808,
      "Ġâĸ¨âĹĤâĸ¦âĹ¨": 2809,
      "ĠâĹĢâĹłâĹĢâĹł": 2810,
      "ĠâĹŀâĹ§": 2811,
      "âĹ«âĸ¦âĸł": 2812,
      "âĹĿâĹłâĹ³": 2813,
      "âĹĪâĹ«?": 2814,
      "âĸŃâĹłâĸ«": 2815,
      "ĠâĹ£âĹ³âĸ±âĹª": 2816,
      "ĠâĹ«âĹŀâĸ«âĹ«âĹ³âĹ§âĹĵ": 2817,
      "ĠâĹķâĹĩâĹĵâĸ´": 2818,
      "âĸ¼âĸ´âĸ¨âĸµ": 2819,
      "ĠâĹĢâĹĩâĸ½âĸ±âĸ´": 2820,
      "âĹłâĸ¸": 2821,
      "âĸ¦âĹĹ": 2822,
      "âĹĪâĸ´âĸ±": 2823,
      "ĠâĹķâĹłâĸ¢": 2824,
      "âĹĪâĹ«âĹĲâĹĹ": 2825,
      "ĠâĹĩâĸ½âĸ±âĸ´": 2826,
      "ĠâĹįâĹ«âĸ±": 2827,
      "âĹ¨âĹİâĹ¨": 2828,
      "ĠâĹĢâĹ«âĸ±âĹ«âĹ³âĹ§âĹĵ": 2829,
      "ĠâĹĢâĹłâĸ¦âĹłâĸµ": 2830,
      "âĹĵâĸªâĸ¼âĹł": 2831,
      "âĹĹâĸ¦âĹķ": 2832,
      "âĹĿâĹłâĸ½": 2833,
      "âĹłâĸ¨âĹł": 2834,
      "âĹłâĸ±âĹĹ": 2835,
      "âĹ¨âĹİâĸ¾": 2836,
      "âĹ¥âĹī": 2837,
      "Ġâĸ¨âĹªâĸ¦âĹĪâĹ«": 2838,
      "ĠâĹĴâĹªâĸ¨âĹ«âĸ±": 2839,
      "âĹĹâĸ¦âĹ«âĸ¢": 2840,
      "âĹłâĸ±âĹ¬âĹİ": 2841,
      "âĹķâĸ¾âĸ¦": 2842,
      "âĹłâĹĢâĸ´âĹĵ": 2843,
      "ĠâĹĪâĸ´âĹİâĹªâĸ¨": 2844,
      "ĠâĹ«âĹŀâĸ«âĹ«âĸ½âĹĤâĹĵ": 2845,
      "ĠâĹ§âĸ±âĹ¨âĸ½âĹ§âĹĵ": 2846,
      "ĠâĹŀâĹ«âĸ±âĹłâĸ·": 2847,
      "Ġâĸ¢âĹłâĹĵâĹłâĹĵ": 2848,
      "âĹªâĸ±âĹĪ": 2849,
      "âĹĴâĹªâĹ³": 2850,
      "ĠâĹķâĹĵ": 2851,
      "ĠâĹĢâĸ´âĸ¦âĸ¢": 2852,
      "âĸ´âĹİâĸ±âĹĹ": 2853,
      "ĠâĹĺâĹļâĸ´âĸ«âĸł": 2854,
      "âĹİâĹłâĸ½âĸª": 2855,
      "âĸ±âĹĤ": 2856,
      "âĹŀâĸ»": 2857,
      "ĠâĹĢâĹłâĸ½": 2858,
      "âĹłâĸ¦âĸ´": 2859,
      "âĸ±âĹªâĸµ": 2860,
      "ĠâĹĢâĸ¾âĹĵâĹłâĹ³âĹł": 2861,
      "Ġâĸ·âĹłâĹĵâĹ«âĸ¨âĹł": 2862,
      "âĸ§âĸ¦": 2863,
      "Ġâĸ¢âĹ§âĹĵâĹ¨âĸ¦âĹĪâĹł": 2864,
      "ĠâĹŃâĸ¢âĹªâĹĵ": 2865,
      "âĹŀâĸ±âĹ¬âĸ¦âĹĪâĹł": 2866,
      "âĹŃâĹİâĸµ": 2867,
      "âĹĿâĹŃ": 2868,
      "Ġâĸ·âĹª": 2869,
      "âĹĪâĹĹâĸ¦?": 2870,
      "âĹ«?": 2871,
      "ĠâĹŀâĸ´âĹŀ": 2872,
      "âĹ«âĸ¦âĹ«âĸ¢": 2873,
      "Ġâĸ«âĸ©âĹĵ": 2874,
      "Ġâĸ®âĹłâĸ¦âĹł": 2875,
      "âĹŀâĸªâĸ¦âĹł": 2876,
      "ĠâĹ¢âĹłâĹĵ": 2877,
      "âĹĺâĹļ": 2878,
      "âĹĹâĸ½âĹ§âĹĵâĸµ": 2879,
      "ĠâĹ£âĸ½âĸ±âĹª": 2880,
      "ĠâĹķâĹªâĹīâĹ«âĹĵ": 2881,
      "Ġâĸ¨âĸ´âĸ¦âĹĪâĹ«": 2882,
      "Ġâĸ¢âĹĤâĹĵâĹ¨âĸ¦âĹĪâĹł": 2883,
      "Ġâĸ¢âĹłâĸ«âĸ´âĸ¦": 2884,
      "âĸ½âĹ¨": 2885,
      "âĹŃâĹĵâĸ©": 2886,
      "Ġâĸ¦âĸ´âĹį": 2887,
      "âĹłâĹİâĸª": 2888,
      "âĹŀâĸ¾âĸ¦âĸ¾âĸ¢?": 2889,
      "ĠâĹķâĹ£âĸ«âĹŃâĹĵ": 2890,
      "Ġâĸ½âĹłâĸ»âĹłâĸ¼âĹłâĹĲ": 2891,
      "ĠâĹĢâĹĹâĸ±âĹ«âĹ³âĹ§âĹĵ": 2892,
      "âĹĪâĹ«âĸ¦?": 2893,
      "âĸ±âĹĹâĸ¨âĸ«âĸ´": 2894,
      "Ġâĸ¨âĹĹâĸł": 2895,
      "âĹĪâĹĹâĹİâĸł": 2896,
      "ĠâĹĪâĹĹâĸ¨âĸ¨âĹłâĸ«": 2897,
      "âĹŀâĸ¾âĸ¢": 2898,
      "âĹłâĸ¦âĹª": 2899,
      "âĹīâĹ¬": 2900,
      "ĠâĹĴâĹłâĹĴ": 2901,
      "âĹİâĹłâĸ½âĹ¬": 2902,
      "âĸ´âĹĪ": 2903,
      "âĸ·âĹªâĹĵ": 2904,
      "âĹ¨âĸ¦âĹĪâĹłâĸ¦": 2905,
      "âĸ¯âĸ´âĸ±âĸ´âĹĵ": 2906,
      "ĠâĹĢâĹ«âĸ±âĹ«âĸ½âĹĤâĹĵ": 2907,
      "ĠâĹĢâĹĹâĸ±âĹ«âĹ³âĹĤâĹĵ": 2908,
      "âĸ±âĹĹâĸ¨âĸ«âĹª": 2909,
      "Ġâĸ«âĹłâĸ«âĸ±âĹ¬": 2910,
      "Ġâĸ´âĹĵ": 2911,
      "âĹĪâĹ¨âĸ¨": 2912,
      "âĹ«âĸ¦âĹĹâĸ¢": 2913,
      "âĹİâĹªâĹŀâĹĹ": 2914,
      "ĠâĹĢâĹ¨âĹĵâĹłâĸ½âĹł": 2915,
      "âĹŀâĹ«âĸ¦âĸ´": 2916,
      "âĸ¾âĹİâĹ¨": 2917,
      "âĹŀâĸªâĸ¦âĸł": 2918,
      "ĠâĹķâĸ´âĹīâĹĹâĹĵ": 2919,
      "Ġâĸ¨âĹłâĹĢâĸ¾âĸ±": 2920,
      "ĠâĹŀâĹĹâĸ±âĹłâĸ·": 2921,
      "âĹīâĸª": 2922,
      "ĠâĹķâĹĩâĹĵâĹŃâĹĴ": 2923,
      "âĹĬâĸ¦âĹŀâĹłâĸ¦": 2924,
      "âĹİâĹłâĹ³âĹ¬": 2925,
      "ĠâĹķâĹĩâĹŀâĸ«âĹªâĹĵ": 2926,
      "Ġâĸ¾âĹĲâĹĵâĹł": 2927,
      "âĹ³âĸªâĹİâĸµ": 2928,
      "ĠâĹŀâĹĤâĸ¨": 2929,
      "âĹĹâĸ¦âĹĹâĸ¢": 2930,
      "âĹłâĸ±âĹ«": 2931,
      "âĹĵâĹłâĹĢ": 2932,
      "âĹĪâĹªâĸ½": 2933,
      "ĠâĹłâĹĵâĹłâĹĢâĹł": 2934,
      "ĠâĹķâĹĩâĸ«âĹŃâĹĵ": 2935,
      "ĠâĸŃâĹł": 2936,
      "âĹŀâĸªâĸ¦âĹ¬": 2937,
      "âĹĹâĸ¦âĸł": 2938,
      "âĸ±âĹªâĸ½": 2939,
      "Ġâĸ¦âĹ¨âĹİ": 2940,
      "ĠâĹĪâĹªâĹİâĹªâĸ¨": 2941,
      "âĹ¬âĹİâĹĪâĹł": 2942,
      "ĠâĹ«âĸ¢âĹĹâĸ¦": 2943,
      "âĹİâĸ´âĹĵ": 2944,
      "âĸ¨âĸ±": 2945,
      "âĸ¾âĸ½âĹĤâĹĵ": 2946,
      "âĹķâĹ¬âĸ¦": 2947,
      "ĠâĹĢâĹ¨âĹĵâĹłâĹ³âĹł": 2948,
      "ĠâĹĢâĸ¾âĹĵâĹłâĸ½âĹł": 2949,
      "Ġâĸ¯âĹłâĹŀ": 2950,
      "ĠâĹĴâĸ´âĸ¨âĹĹâĸ±": 2951,
      "ĠâĹłâĸ½âĸ¦âĹ¬": 2952,
      "Ġâĸ¢âĹłâĸ«âĹªâĸ¦": 2953,
      "âĹĴâĸ´âĸ½": 2954,
      "âĸ¶âĹŃâĹİ": 2955,
      "ĠâĹĿâĹłâĸ¨": 2956,
      "ĠâĹĪâĹłâĸµ": 2957,
      "ĠâĹ«âĹŀâĸ«âĹĹâĹ³âĹĤâĹĵ": 2958,
      "ĠâĹĢâĹĹâĸ±âĹĹâĹ³âĹ§âĹĵ": 2959,
      "ĠâĹ¦âĸ¦": 2960,
      "ĠâĹħâĹĤâĸ¨": 2961,
      "âĹ©âĸ¦âĹªâĹİâĸ±âĹ«": 2962,
      "ĠâĹİâĹłâĸ¦": 2963,
      "Ġâĸ¦âĸ¾âĹİ": 2964,
      "ĠâĹĩâĹ³âĸ±âĹª": 2965,
      "ĠâĹ³âĹłâĸ»âĹłâĸ¼âĹłâĸ¨": 2966,
      "ĠâĹ«âĹŀâĸ«âĹ«âĹ³âĹĤâĹĵ": 2967,
      "ĠâĹĢâĹĹâĸ±âĹ«âĸ½âĹĤâĹĵ": 2968,
      "ĠâĹ¨âĹİ": 2969,
      "Ġâĸ«âĹłâĸ¦âĹª": 2970,
      "ĠâĹ§âĸ±âĹĪâĸ¾âĹĲâĹ¨âĸ¦âĸ¾": 2971,
      "âĸ´âĹĢ": 2972,
      "Ġâĸ¨âĸ´âĸ¢": 2973,
      "âĹ¬âĸ¦!": 2974,
      "âĸ´âĸ±âĹªâĸ¦": 2975,
      "âĹĻâĸ©âĸ¦": 2976,
      "ĠâĹįâĹĹâĸ±": 2977,
      "ĠâĹĹâĹŀâĸ«âĹĹâĹ³âĹĤâĹĵ": 2978,
      "ĠâĹªâĸ«âĹİâĸ´": 2979,
      "âĸ¸âĹłâĸ¦": 2980,
      "Ġâĸ¨âĹłâĸ»âĹ¬": 2981,
      "Ġâĸ¨âĹłâĹĢâĹ¨âĸ±": 2982,
      "ĠâĹĤâĸ±âĹĪâĸ¾": 2983,
      "âĹĪâĹ«âĸ¨âĸµ": 2984,
      "ĠâĹĵâĹªâĹŀ": 2985,
      "ĠâĹĵâĸ´âĹŀ": 2986,
      "âĹİâĹªâĹĵ": 2987,
      "âĹĲâĹ¬âĸ¦âĹĪâĹł": 2988,
      "ĠâĹŀâĹĤ": 2989,
      "Ġâĸ®âĸ·": 2990,
      "âĹªâĹİâĸ±âĹĹ": 2991,
      "ĠâĹķâĹªâĸ±âĹª": 2992,
      "ĠâĹ¨âĹĲâĹĵâĹł": 2993,
      "Ġâĸ¶âĸ´âĹĴâĹªâĸ¨âĸ¨âĸ©âĹĵ": 2994,
      "âĹ³âĹ¬âĹİâĸµ": 2995,
      "âĸ±âĹłâĹŀ": 2996,
      "âĹĨâĹªâĹĵâĹīâĹªâĸ¨": 2997,
      "âĹ¢âĹł": 2998,
      "âĹİâĹłâĸ¨âĸ«âĹłâĸ¦": 2999,
      "âĹħâĹ§âĸ¼": 3000,
      "âĹŁâĹł": 3001,
      "Ġâĸ·âĹłâĹ³âĹłâĸ±": 3002,
      "Ġâĸ¨âĹªâĸ¦âĹĪâĹĹ": 3003,
      "Ġâĸ«âĹŃâĹĵ": 3004,
      "âĹŀâĹ¬âĸ¦âĹł": 3005,
      "âĹĦâĹłâĹĵ": 3006,
      "Ġâĸ·âĹłâĸ½âĹłâĸ±": 3007,
      "Ġâĸ±âĹ«": 3008,
      "âĹł'": 3009,
      "ĠâĹĽ": 3010,
      "ĠâĹŀâĹªâĹŀ": 3011,
      "âĹĪâĹ¬?": 3012,
      "âĸ¾âĹİâĹ¨âĸ¢": 3013,
      "ĠâĹ«âĹŀâĸ«âĹĹâĹ³âĹ§âĹĵ": 3014,
      "âĸ®âĸ´âĸ¦âĹ«âĸ¦": 3015,
      "âĹĲâĸªâĸ¦âĹ¬": 3016,
      "Ġâĸ«âĹªâĸ·": 3017,
      "ĠâĹ§âĸ±âĹ¨âĸ½âĹ§âĹĵ?": 3018,
      "âĸ«âĸµ": 3019,
      "Ġâĸ¨âĸ¾âĸ«": 3020,
      "âĹŃâĸ»âĸ·": 3021,
      "âĸªâĸ¦!": 3022,
      "âĹ«âĸ½âĹ§âĹĵâĸ¾âĹİâĸµ": 3023,
      "Ġâĸ·âĹłâĹļâĹł": 3024,
      "ĠâĹ®": 3025,
      "âĸ¦âĹ«": 3026,
      "âĹĹ?": 3027,
      "ĠâĹĢâĹłâĸ¦": 3028,
      "ĠâĹŀâĹªâĹĢ": 3029,
      "ĠâĹłâĹİ": 3030,
      "âĹĪâĹ¬âĹĲâĹ¬âĸ¦": 3031,
      "ĠâĹłâĸ±âĹłâĸ¦": 3032,
      "ĠâĹ«âĹŀâĸ«âĹĹâĸ½âĹĤâĹĵ": 3033,
      "Ġâĸ¨âĹłâĸ±âĹłâĸ¦": 3034,
      "ĠâĹķâĸ´âĹīâĹ«âĹĵ": 3035,
      "Ġâĸ¨âĹ¬âĹŀ": 3036,
      "âĹħâĹĤâĸ¼âĸ¾âĸ¨": 3037,
      "Ġ6": 3038,
      "âĹİâĸ¾âĹĴâĸ«": 3039,
      "âĸ©âĹĴâĸ«": 3040,
      "âĹŀâĹĹâĸ¦âĹª": 3041,
      "ĠâĹŀâĹłâĸ¦âĸªâĹĵ": 3042,
      "âĸ®âĹªâĸ¦âĹ«âĸ¦": 3043,
      "ĠâĹĢâĹ£âĸ½âĸ±âĹª": 3044,
      "âĸ¨âĹ«âĸ±": 3045,
      "âĹīâĸµ": 3046,
      "ĠâĹłâĸ¼âĸª": 3047,
      "ĠâĹĹâĹŀâĸ«âĹĹâĸ½âĹĤâĹĵ": 3048,
      "ĠâĹķâĸ´âĸ±âĹª": 3049,
      "ĠâĹĴâĸ´âĸ¨âĹ«âĸ±": 3050,
      "âĹĿâĹªâĸ±âĸ¨âĹĹ": 3051,
      "âĸ±âĸ¾âĸ¨": 3052,
      "âĹªâĹŀâĸ«": 3053,
      "âĹĲâĸ´": 3054,
      "âĹŃâĹĴâĸ«": 3055,
      "âĸ»âĹłâĹĵ": 3056,
      "âĸ¾âĸ¦âĹĪâĹłâĸ¦": 3057,
      "âĹ¬âĹİ!": 3058,
      "ĠâĹĢâĹ«âĸ±âĹĹâĹ³âĹ§âĹĵ": 3059,
      "ĠâĹķâĹªâĸ±âĸ´": 3060,
      "ĠâĹłâĸ½âĸ¦âĸª": 3061,
      "âĹĪâĸ¾âĹĵâĸµ": 3062,
      "âĹķâĸªâĸ¦": 3063,
      "âĹĪâĹĹâĹĴ": 3064,
      "âĹ¬âĹĵâĸ«": 3065,
      "Ġâĸ¦âĹªâĹį": 3066,
      "ĠâĹŀâĹ§âĹĵâĸ¾âĸ¦": 3067,
      "Ġâĸ©âĸ¢âĹªâĹĵ": 3068,
      "âĸ±âĹ§": 3069,
      "âĸ±âĹłâĹİâĸª": 3070,
      "ĠâĹįâĸªâĹĵ": 3071,
      "ĠâĹĢâĹ«âĸ±âĹĹâĸ½âĹĤâĹĵ": 3072,
      "Ġâĸ¨âĹłâĹĪâĹłâĹĵâĸµ": 3073,
      "Ġâĸ·âĹłâĹĵâĸ´âĸ¨": 3074,
      "ĠâĹŃâĸ¢âĸ´âĹĵ": 3075,
      "Ġâĸ©âĸ¢âĸ´âĹĵ": 3076,
      "âĸ«âĸ·": 3077,
      "Ġâĸł": 3078,
      "Ġâĸ¨âĹ§âĸ±": 3079,
      "Ġâĸ½âĹłâĸ±âĹłâĸ¦": 3080,
      "âĹ¢âĹłâĹį": 3081,
      "ĠâĹĢâĹ¨âĸ±âĹİâĹł": 3082,
      "ĠâĹĢâĸ¾âĸ±âĹİâĹł": 3083,
      "âĹŃâĹĵâĹŃ": 3084,
      "Ġâĸ´âĸ«âĹİâĸ´": 3085,
      "âĸŃâĹłâĸ½âĹłâĸ«": 3086,
      "âĹĹâĸ±âĹª": 3087,
      "âĹķâĹ¨âĸ¦": 3088,
      "ĠâĹ³âĹłâĸ»âĹłâĸ¼âĹłâĹĲ": 3089,
      "âĸ¾âĸ¨âĹīâĹł": 3090,
      "âĸŃâĹłâĹ³âĹłâĸ«": 3091,
      "ĠâĹĤâĸ±âĹĪâĹ¨âĹĲâĸ¾âĸ¦âĹ¨": 3092,
      "ĠâĹĢâĹłâĸ¢âĹ¬": 3093,
      "âĹĿâĸ´âĸ±âĸ¨âĹĹ": 3094,
      "âĹĢâĹªâĸ¦": 3095,
      "ĠâĹ«âĸ¨": 3096,
      "âĹķâĹªâĸ±": 3097,
      "âĹįâĹ«": 3098,
      "âĹİâĹªâĸ«": 3099,
      "âĹİâĹªâĹŀâĹ«": 3100,
      "âĸ¯âĹłâĹŀâĸª": 3101,
      "âĹĻâĹŃâĸ¦": 3102,
      "âĹĨâĸ©âĸ¢": 3103,
      "ĠâĹĴâĸ´âĸ·": 3104,
      "âĹŀâĹ¬âĸ¦âĹ¬": 3105,
      "ĠâĹ¡âĹ§": 3106,
      "ĠâĹĤâĸ±âĹĪâĸ¾âĹĲâĸ¾âĸ¦âĸ¾": 3107,
      "Ġâĸ¨âĸ´âĸ¦âĹĪâĹĹâĸ¦": 3108,
      "âĹªâĹĪ": 3109,
      "ĠâĹŀâĹ§âĸ¨": 3110,
      "âĸ¶âĸ©âĹİ": 3111,
      "âĸ¾âĸ¢âĸł": 3112,
      "Ġâĸ«âĹłâĸ¦âĸª": 3113,
      "ĠâĹķâĹªâĹīâĹĹâĹĵ": 3114,
      "ĠâĹİâĹłâĸ·âĸ¨": 3115,
      "âĸ¨âĹ¬": 3116,
      "ĠâĹİâĹłâĸ±": 3117,
      "âĹ¢âĹ§âĸ¦": 3118,
      "âĹĪâĸªâĹĲâĹ¬âĸ¦": 3119,
      "âĹĻâĹª": 3120,
      "ĠâĹĢâĹĹâĸ±âĹĹâĸ½âĹĤâĹĵ": 3121,
      "ĠâĹĹâĸ¢âĹĹâĸ¦": 3122,
      "ĠâĹŀâĹłâĸ·âĹĹâĸ»": 3123,
      "ĠâĹĢâĸ´âĸ¨âĸ±âĸ´": 3124,
      "ĠâĹĴâĹªâĸ¨âĹĹâĸ±": 3125,
      "âĸ´âĸ±âĹª": 3126,
      "âĹłâĸ¦âĹĹ": 3127,
      "ĠâĹİâĹ«âĸ±": 3128,
      "âĹĿâĹ¨âĸ¦âĹł": 3129,
      "ĠâĹķâĹ£âĸ«âĸ©âĹĵ": 3130,
      "ĠâĹ§âĸ±âĹĪâĸ¾âĹĲâĹ¨âĸ¦âĹ¨": 3131,
      "ĠâĹ§âĸ±âĹĪâĹ¨âĹĲâĹ¨âĸ¦âĹ¨": 3132,
      "ĠâĹ«âĸ¦âĹŀâĹłâĸ¦âĸ±âĹłâĹĵ": 3133,
      "ĠâĹķâĹ£âĹŀâĸ«âĸ´âĹĵ": 3134,
      "ĠâĹķâĹ£âĹŀâĸ«âĹªâĹĵ": 3135,
      "Ġâĸ¨âĹĵ": 3136,
      "âĹŃâĸ¦âĸ´": 3137,
      "ĠâĹħâĹ§âĸ¨": 3138,
      "ĠâĹĢâĹĩâĸ½âĸ±âĹª": 3139,
      "ĠâĹĢâĹĩâĹ³âĸ±âĹª": 3140,
      "âĸ´âĸ±âĸ´": 3141,
      "ĠâĹİâĸ´âĹİ": 3142,
      "âĹĿâĹªâĸ¨": 3143,
      "ĠâĹłâĸ¼âĹ¬": 3144,
      "âĹĹâĸ±âĹªâĸ¦": 3145,
      "âĹ¬âĸ¢âĹĪâĹł": 3146,
      "ĠâĹĹâĹŀâĸ«âĹ«âĸ½âĹĤâĹĵ": 3147,
      "ĠâĹĢâĹ£âĹ³âĸ±âĹª": 3148,
      "âĹİâĹĢ": 3149,
      "âĸ¢âĹłâĹİâĹłâĸ¦": 3150,
      "âĹĪâĹĹâĹĲâĹ«": 3151,
      "âĸ«âĹłâĸµ": 3152,
      "âĹĬâĹ³âĹ«": 3153,
      "âĹ¬âĸ¦âĹĪâĹłâĸµ": 3154,
      "âĹªâĸ±âĸ´": 3155,
      "âĹĿâĸ©âĸ«": 3156,
      "âĹİâĸ´âĹŀâĹĹ": 3157,
      "âĹŀâĹ¨âĸ¦âĹĪâĹł": 3158,
      "âĸ©âĸ«âĸ·": 3159,
      "âĹĪâĸªâĸ¦?": 3160,
      "ĠâĹĤâĸ±âĹĪâĸ¾âĹĲâĹ¨âĸ¦âĸ¾": 3161,
      "âĹĲâĹª": 3162,
      "âĹīâĹ§âĸ¨": 3163,
      "âĹĢâĸ´âĸ¦": 3164,
      "ĠâĹļâĹłâĸ¢": 3165,
      "ĠâĹłâĸ±âĹłâĸ¼âĹłâĸ¨": 3166,
      "ĠâĹªâĹİâĹĹâĸ¦": 3167,
      "ĠâĹĿâĹĹâĸ±": 3168,
      "âĹłâĸ¼âĸª": 3169,
      "âĸ¢âĹķâĹŃâĸ¦": 3170,
      "âĹłâĸ¼âĹłâĸ¨âĸ«": 3171,
      "ĠâĹĤâĸ±âĹİâĹłâĸ¢": 3172,
      "ĠâĹĤâĸ±âĹĪâĹ¨âĹĲâĹ¨âĸ¦âĹ¨": 3173,
      "âĹĿâĹªâĸ±âĸ¨âĹ«": 3174,
      "ĠâĹīâĹłâĹĵâĸ»": 3175,
      "âĸ´'": 3176,
      "âĸ¨âĸª": 3177,
      "âĹĿâĹŃâĸ«": 3178,
      "ĠâĹīâĸ©âĸ¦âĸ¨âĸ©": 3179,
      "âĹįâĹĹ": 3180,
      "âĸŃâĹłâĸ±âĹł": 3181,
      "âĹİâĸ´âĹŀâĹ«": 3182,
      "âĹŀâĹ«âĸ¦âĹ«âĸ¢âĸµ": 3183,
      "âĹĢâĹłâĸ¦": 3184,
      "âĸ±âĹłâĸ¦âĹİâĹł": 3185,
      "Ġâĸ´âĹİâĹĹâĸ¦": 3186,
      "ĠâĹ¢âĹłâĸ»": 3187,
      "ĠâĹ§âĸ±âĹĪâĹ¨âĹĲâĸ¾âĸ¦âĹ¨": 3188,
      "âĸ¼âĹªâĹĲâĹ«âĸ¢âĸµ": 3189,
      "ĠâĹĢâĹŃâĸ½âĹŃâĸ¨": 3190,
      "âĹĹâĸ¦âĹĪâĸ´âĸ¦": 3191,
      "âĸ±âĹłâĹĵ!": 3192,
      "ĠâĹĹâĸ¨": 3193,
      "âĹķâĸ´âĸ±": 3194,
      "âĹªâĸ±âĹĹ": 3195,
      "âĹŀâĹ«âĸ¦âĹª": 3196,
      "Ġâĸ·âĹłâĹĵâĹĹâĸ¨âĹł": 3197,
      "ĠâĹĤâĸ±âĹĪâĹ¨âĹĲâĹ¨âĸ¦âĸ¾": 3198,
      "ĠâĹ«âĸ¢âĹ«âĸ¦": 3199,
      "âĹªâĸ¦âĹª": 3200,
      "âĹ«âĹĵâĸ¨": 3201,
      "âĹĹâĸ±âĸ´âĸ¦": 3202,
      "ĠâĹĿâĹłâĸ¦âĹł": 3203,
      "âĹ²âĸ¦âĹŀâĹłâĸ¦": 3204,
      "ĠâĹĤâĸ±âĹĪâĸ¾âĹĲâĹ¨âĸ¦âĹ¨": 3205,
      "ĠâĹĢâĹ£âĸ½âĸ±âĸ´": 3206,
      "âĹĿâĸ´âĸ±âĸ¨âĹ«": 3207,
      "ĠâĹīâĹŃâĸ¦âĸ¨âĹŃ": 3208,
      "âĸ±âĹĪâĹ¬?": 3209,
      "âĹĪâĸ´âĸ½": 3210,
      "ĠâĹĪâĸ´âĹİâĸ´âĸ¨": 3211,
      "Ġâĸ´âĹİâĹ«âĸ¦": 3212,
      "âĹŀâĸªâĸ¦âĸª": 3213,
      "ĠâĹªâĸ«âĸµ": 3214,
      "ĠâĹŀâĹĤâĹĵâĹ¨âĸ¦": 3215,
      "ĠâĹĢâĹłâĸ¢âĸª": 3216,
      "âĸ´âĹŀâĸ«": 3217,
      "âĸµ\"": 3218,
      "Ġâĸ·âĸªâĸ¢": 3219,
      "ĠâĹ§âĹĲâĸ±": 3220,
      "âĹİâĹªâĹİâĸµ": 3221,
      "âĸŃâĸ´âĹİ": 3222,
      "ĠâĹķâĹĩâĸ«âĸ©âĹĵ": 3223,
      "ĠâĹĹâĹŀâĸ«âĹ«âĹ³âĹ§âĹĵ": 3224,
      "âĸ±âĹ«âĸ¨âĸ«âĹª": 3225,
      "ĠâĹłâĹ³âĸ¦âĹ¬": 3226,
      "âĸ«âĹ«âĹĵâĸµ": 3227,
      "âĹŀâĸł": 3228,
      "ĠâĹīâĹŃâĸ¦âĸ¨âĸ©": 3229,
      "âĹİâĹªâĸ±": 3230,
      "âĹ¨âĸ¢âĸł": 3231,
      "âĹİâĹ¬âĸ½âĹĤâĹĵâĹ¨âĹİâĸµ": 3232,
      "âĹĲâĸªâĸ¦âĸª": 3233,
      "ĠâĹłâĸ«âĸ´âĹĴ": 3234,
      "âĸ±âĹ«âĸ¨âĸ«âĸ´": 3235,
      "ĠâĹŀâĹłâĹīâĹİâĹł": 3236,
      "âĸ¯âĹłâĹŀâĸªâĸ±âĹĪâĹ¬?": 3237,
      "âĸ±âĹŃâĸ¨": 3238,
      "âĹ³âĸªâĸ¢âĸµ": 3239,
      "ĠâĹĪâĹĤâĸ¨": 3240,
      "âĸ·âĸ´âĹĵ": 3241,
      "ĠâĹªâĹĵ": 3242,
      "âĹŀâĹĹâĸ¦âĸ´": 3243,
      "âĸ¾âĹİ?": 3244,
      "ĠâĹĢâĹ«âĸ¢âĹ«âĹİ": 3245,
      "âĹ©âĸ¢": 3246,
      "ĠâĹŀâĹ§âĹĵâĹ¨âĸ¦": 3247,
      "ĠâĹĢâĹªâĸ¨âĸ±âĸ´": 3248,
      "Ġâĸ±âĸ©âĸ«âĹįâĸ´âĸ¦": 3249,
      "ĠâĹķâĹĩâĹŀâĸ«âĸ´âĹĵ": 3250,
      "Ġâĸ·âĹłâĸ¦": 3251,
      "ĠâĹīâĸ©âĸ¦âĸ¨âĹŃ": 3252,
      "ĠâĹĪâĹªâĹļ": 3253,
      "âĸ±âĸ´âĹĵâĹ«âĸ¦âĹ«": 3254,
      "ĠâĹłâĹĵâĹłâĹİ": 3255,
      "âĹŀâĸ¾âĸ¦âĹĪâĹł": 3256,
      "âĹŀâĹ¬âĸ¦âĸł": 3257,
      "ĠâĸŃâĹªâĹĵ": 3258,
      "ĠâĹłâĹİâĹłâĸµâĸµâĸµ": 3259,
      "ĠâĹķâĹĩâĹĵâĸ©âĹĴ": 3260,
      "ĠâĹĻâĹłâĸ·âĹł": 3261,
      "ĠâĹĤâĸ±âĹĪâĹ¨âĹĲâĸ¾âĸ¦âĸ¾": 3262,
      "âĹĪâĹłâĸ±": 3263,
      "âĹŀâĸ¨": 3264,
      "âĸ±âĹłâĹī": 3265,
      "âĹĤâĹĵâĸ¨": 3266,
      "ĠâĹ³âĹłâĸ±âĹłâĸ¦": 3267,
      "âĹĪâĸ´âĹ³": 3268,
      "âĹŀâĹĹâĸ¦âĹ«âĸ¢âĸµ": 3269,
      "âĸ¾âĹİâĸ¾âĸ¢": 3270,
      "âĹİâĹłâĹİâĹ¬âĸ¢": 3271,
      "Ġâĸ¨âĹªâĸ¦âĹĪâĹĹâĸ¦": 3272,
      "âĹĪâĹ«âĹİâĸł": 3273,
      "ĠâĹŀâĹłâĸ·âĹ«âĸ»": 3274,
      "âĸ±âĹ¨âĸ¨": 3275,
      "âĹŀâĸµ": 3276,
      "âĸ©âĸ¦âĹĪâĸ´âĸ¦": 3277,
      "âĹ¨âĹİâĸ¾âĸ¢": 3278,
      "âĹŀâĹ¬âĸ¦âĸª": 3279,
      "ĠâĹįâĹłâĹĵâĸ¨âĸ±âĹ¬": 3280,
      "âĸ®âĹłâĸ¦âĸªâĹĵâĹ¬âĹİ": 3281,
      "âĹİâĹłâĸ¦âĹł": 3282,
      "âĹĹâĸ½âĹ§âĹĵâĹ¨âĹİâĸµ": 3283,
      "âĹ¬âĸ±âĹłâĸ¦": 3284,
      "âĹ¬âĸ½âĹĤâĹĵâĸµ": 3285,
      "âĹŀâĹłâĸ«": 3286,
      "âĸ©âĹİâĸµ": 3287,
      "âĹĹâĸ¦âĹĪâĹªâĸ¦": 3288,
      "ĠâĹłâĸ±âĹłâĹĢâĹĹâĸ±": 3289,
      "âĹ¢âĹłâĸ¦": 3290,
      "ĠâĹłâĹĵâĸ¨âĹłâĹŀ": 3291,
      "ĠâĹĢâĹ¨âĸ¦âĹł": 3292,
      "âĸ®âĹ£": 3293,
      "âĸ±âĸ´âĹĵâĹ«âĸ¦âĹĹ": 3294,
      "âĸ±âĸªâĸ½âĹ§âĹĵ": 3295,
      "ĠâĹķâĹĹâĹĪâĹª": 3296,
      "ĠâĹ§âĸ±âĹĪâĸ¾âĹĲâĸ¾âĸ¦âĹ¨": 3297,
      "ĠâĹ§âĸ±âĹĪâĹ¨âĹĲâĹ¨âĸ¦âĸ¾": 3298,
      "âĸŃâĹłâĹĪâĹĹ": 3299,
      "âĹĪâĹ¨âĹĵâĸµ": 3300,
      "ĠâĹŀâĸ´âĸ¨": 3301,
      "ĠâĹŀâĸªâĹĵ": 3302,
      "âĸ®âĹĩ": 3303,
      "ĠâĹ§âĸ±âĹİâĹłâĸ¢": 3304,
      "ĠâĹªâĸ«âĸ«âĹ«": 3305,
      "Ġâĸ¨âĹªâĸ¦âĹĪâĹ«âĸ¦": 3306,
      "âĸ±âĸ©âĸ¨": 3307,
      "âĹ³âĹ¬âĸ¢âĸµ": 3308,
      "âĹĤâĹĪ": 3309,
      "ĠâĹĪâĹ«âĸ±": 3310,
      "âĹĹâĹİâĹª": 3311,
      "Ġâĸ¬âĹłâĹĵ": 3312,
      "Ġâĸ¨âĹłâĹīâĸªâĹĵ": 3313,
      "ĠâĹĪâĹĹâĹ³âĹª": 3314,
      "ĠâĹ³âĹłâĸ¨âĸ±âĹłâĹĴ": 3315,
      "âĹĵâĹ¬âĸ¼âĹł": 3316,
      "Ġ9": 3317,
      "ĠâĹĥ": 3318,
      "âĹłâĸ¦âĸł": 3319,
      "âĸ´âĸ¦âĸ¦": 3320,
      "âĹłâĹİâĹłâĸ¢âĸµ": 3321,
      "âĸ½âĹĤâĹĵâĹŀâĹ¨âĸ¦?": 3322,
      "Ġâĸ¼âĹªâĹļ": 3323,
      "Ġâĸ¼âĸ´âĹļ": 3324,
      "âĹĪâĸ©âĸµ": 3325,
      "Ġâĸ¨âĸ´âĸ¦âĹĪâĹ«âĸ¦": 3326,
      "ĠâĹĢâĹĩâĹ³âĸ±âĸ´": 3327,
      "ĠâĹłâĹ³âĸ¦âĸª": 3328,
      "ĠâĹŀâĹªâĸ¨": 3329,
      "âĹĿâĸ©": 3330,
      "âĹĪâĹĹâĹĲâĹĹ": 3331,
      "âĸ´âĹİâĸ±âĹ«": 3332,
      "Ġâĸ¼âĹĹâĸ¦": 3333,
      "ĠâĹĢâĹłâĸ¨âĹłâĹĵ": 3334,
      "âĸªâĸ¦âĹĪâĹłâĸµ": 3335,
      "Ġâĸ¨âĹ§âĹ³": 3336,
      "Ġâĸ·âĹłâĹĵâĹªâĸ¨": 3337,
      "ĠâĹĪâĹĹâĸ½âĸ´": 3338,
      "ĠâĹķâĹ«âĹĢâĹĹâĸµ": 3339,
      "âĹĨâĸ´âĹĵâĹīâĸ´âĸ¨": 3340,
      "Ġâĸ¨âĹ¨âĸ«": 3341,
      "ĠâĹŀâĹªâĹį": 3342,
      "âĹ«âĸ¦âĹĪâĹªâĸ¦": 3343,
      "Ġâĸ´âĸ«âĸ«âĹ«": 3344,
      "âĹĪâĹŃâĸµ": 3345,
      "ĠâĹ§âĸ±âĹĪâĸ¾âĹĲâĸ¾âĸ¦âĸ¾": 3346,
      "ĠâĹķâĹ«âĹĢâĹ«âĸµ": 3347,
      "ĠâĹĢâĸ©âĹ³âĹŃâĸ¨": 3348,
      "ĠâĹĹâĸ¦âĹŀâĹłâĸ¦âĸ±âĹłâĹĵ": 3349,
      "âĹİâĸ©âĹĴâĸ«": 3350,
      "âĸ©âĸ»âĸ·": 3351,
      "Ġâĸ·âĹłâĹİ": 3352,
      "ĠâĹĴâĹªâĸ·": 3353,
      "Ġâĸ´âĸ«âĹİâĹª": 3354,
      "ĠâĹ§âĸ±âĹĪâĹ¨âĹĲâĸ¾âĸ¦âĸ¾": 3355,
      "âĹ¬âĸ±âĹĪâĸª": 3356,
      "âĹ¬âĹ³âĹ§âĹĵâĸµ": 3357,
      "âĸ´âĸ¦âĹª": 3358,
      "Ġâĸ·âĹĹâĸ¨": 3359,
      "ĠâĹ§âĸ½âĸ¦": 3360,
      "âĹĵâĹłâĸ¼âĹłâĸ¨": 3361,
      "ĠâĹĢâĹ¨âĹĵâĹłâĹĪâĹłâĸ¦": 3362,
      "âĸ©âĹĵâĹŃ": 3363,
      "âĹłâĸ¼âĹłâĹĲâĹ¬âĸ¢âĸµ": 3364,
      "ĠâĹĤâĸ±âĹĪâĸ¾âĹĲâĸ¾âĸ¦âĹ¨": 3365,
      "âĹģâĹłâĹİâĹłâĸ¦": 3366,
      "ĠâĹĪâĹ«âĸ¨âĸ¨âĹłâĸ«": 3367,
      "âĸ´âĸ¦âĸ´": 3368,
      "âĸ±âĹªâĹĵâĹĹâĸ¦âĹĹ": 3369,
      "âĸ±âĸ´âĹĵâĸ´": 3370,
      "ĠâĹļâĹłâĹĵâĹŀâĹł": 3371,
      "âĹİâĹ«âĸ¨": 3372,
      "âĸ©âĸ¢âĸµ": 3373,
      "ĠâĹłâĸ«âĹªâĹĴ": 3374,
      "ĠâĹŀâĸ´âĹį": 3375,
      "ĠâĹĢâĹłâĸ«": 3376,
      "âĹ§âĸ±âĹł": 3377,
      "âĹīâĹ«": 3378,
      "âĹĿâĹ¬âĹĵâĹłâĸ¨": 3379,
      "âĹĬâĹĴâĸ«âĸ´": 3380,
      "ĠâĹĢâĹ£âĹ³âĸ±âĸ´": 3381,
      "Ġâĸ¨âĹ«âĹİâĹŀâĸ´": 3382,
      "Ġâĸ¨âĹĹâĹĴâĹĹ": 3383,
      "Ġâĸ¨âĸ©âĹīâĸ©âĸ¨": 3384,
      "âĸ«âĹĹâĹĵâĸµ": 3385,
      "âĹĢâĹĤ": 3386,
      "âĹŃâĸ¦âĹĪâĸ´": 3387,
      "âĸ±âĸ´âĹĵâĹĹâĸ¦âĹĹ": 3388,
      "âĹŀâĸªâĸ¦âĹĪâĹł": 3389,
      "âĹĦâĹł": 3390,
      "ĠâĹĢâĹĹâĸ¢âĹĹâĹİ": 3391,
      "Ġâĸ±âĹŃâĸ«âĹįâĹªâĸ¦": 3392,
      "âĹĹâĹİ!": 3393,
      "âĹŃâĸ¦âĹª": 3394,
      "âĹĪâĹªâĹ³": 3395,
      "âĸ±âĹªâĹĵâĸ´": 3396,
      "ĠâĹĢâĸ¾âĹĵâĹłâĹĪâĹłâĸ¦": 3397,
      "ĠâĹĢâĹłâĹĴâĹłâĹĵ": 3398,
      "ĠâĹķâĹĹâĹĢâĹĹâĸµ": 3399,
      "âĹĹâĹĴâĸ«âĹ«âĹĵ": 3400,
      "ĠâĹķâĹĹâĸ¢": 3401,
      "ĠâĹİâĹªâĹİ": 3402,
      "âĹĹâĸ±âĸ´": 3403,
      "âĹķâĹĹâĸ¦": 3404,
      "âĹķâĹ«âĸ¦": 3405,
      "ĠâĹ«âĹīâĹĹâĸ¦âĸµ": 3406,
      "ĠâĹĪâĹ«âĸ½âĹª": 3407,
      "ĠâĹĪâĹ«âĸ½âĸ´": 3408,
      "ĠâĹĢâĸ¾âĸ¦âĹł": 3409,
      "Ġâĸ·âĹ¬âĸ¢": 3410,
      "ĠâĹ§âĹ³âĸ¦": 3411,
      "âĹ«âĹİâĹª": 3412,
      "âĹłâĸ¢âĹłâĹĵ": 3413,
      "ĠâĹĢâĹ¨âĹĵ": 3414,
      "âĸ©âĹĵâĹŃâĸ¢âĸµ": 3415,
      "ĠâĹĢâĹ«âĸ±âĹ«âĸ½âĹ§âĹĵ": 3416,
      "ĠâĹķâĹ£âĹĵâĹŃâĹĴ": 3417,
      "Ġâĸ¼âĸ´âĹŀ": 3418,
      "âĸ±âĹłâĹİâĹłâĸ¢âĸµ": 3419,
      "ĠâĹªâĸ«âĹİâĸ´âĸ¨": 3420,
      "Ġâĸ¨âĸªâĹŀ": 3421,
      "ĠâĹķâĹ«âĸ¢": 3422,
      "âĹĿâĸ¾âĸ¦âĹł": 3423,
      "âĹ§âĹĵâĸ¨": 3424,
      "âĹłâĹ³âĸ´âĸ«": 3425,
      "Ġâĸ´âĸ«âĸ«âĹĹ": 3426,
      "ĠâĹĪâĹ«âĹ³âĹª": 3427,
      "ĠâĹķâĹĹâĹĢâĹ«âĸµ": 3428,
      "Ġ20": 3429,
      "âĹ«âĸ½âĹª": 3430,
      "âĹ«âĸ½âĹ§âĹĵâĹ¨âĹİâĸµ": 3431,
      "ĠâĹĴâĹªâĸ½âĹ«": 3432,
      "âĹħâĹŃâĸ¦âĸ¨âĸ©": 3433,
      "âĸ²âĸ©âĸ«âĹįâĹªâĸ¦": 3434,
      "Ġâĸ½âĹłâĸ¨âĹłâĸ±âĹł": 3435,
      "ĠâĹ§âĸ±âĹĪâĹ¨âĸµ": 3436,
      "âĸ©âĸ«âĸ·âĹĹâĹĴ": 3437,
      "âĹĵâĹ§âĸ¦": 3438,
      "âĹłâĸ±âĸªâĹİ": 3439,
      "âĹ«âĸ±âĸ´âĸ¦": 3440,
      "âĸŃâĹªâĹİ": 3441,
      "ĠâĹĢâĸ¾âĹĵ": 3442,
      "âĹĭâĹĪâĹłâĹİ": 3443,
      "âĹłâĸ±âĹłâĹĵâĹĪâĹł": 3444,
      "âĹİâĹ«âĹĴâĸ«âĹĹâĹİâĸµ": 3445,
      "ĠâĹĢâĹłâĸ·âĹŀâĸ´âĸ«": 3446,
      "ĠâĹĢâĹłâĸ·âĹŀâĹªâĸ«": 3447,
      "âĹª'": 3448,
      "ĠâĹĪâĹ«âĸ½âĹĤâĹĵ": 3449,
      "âĹ¨âĸ¦âĸ¾âĸ¦": 3450,
      "ĠâĹīâĹªâĹļ": 3451,
      "Ġâĸ®âĸ«": 3452,
      "ĠâĹķâĹ£âĹĵâĸ©âĸ¦": 3453,
      "âĹłâĸ¼âĹłâĹĲâĸªâĸ¢âĸµ": 3454,
      "ĠâĹªâĸ«âĹİâĹªâĸ¨": 3455,
      "ĠâĹĪâĹŃâĹĴâĹŃâĸ¦âĸ©": 3456,
      "âĸ´âĸ½âĸł": 3457,
      "ĠâĹŀâĹłâĸ»": 3458,
      "âĹīâĹĹ": 3459,
      "âĸ±âĹłâĸł": 3460,
      "ĠâĹīâĸ´âĹļ": 3461,
      "ĠâĹªâĸ¨": 3462,
      "âĹĪâĸ´?": 3463,
      "âĸ±âĹªâĹĵâĹ«âĸ¦âĹĹ": 3464,
      "âĸ±âĹªâĹĵâĹĹâĸ¦âĹ«": 3465,
      "ĠâĹĴâĹªâĸ½âĹĹ": 3466,
      "ĠâĹķâĹ«âĹĪâĹª": 3467,
      "âĹŀâĹ¬âĸ¦âĹĪâĹł": 3468,
      "âĹħâĸ©âĸ¦âĸ¨âĹŃ": 3469,
      "Ġâĸ¼âĹ«âĸ¦": 3470,
      "ĠâĹªâĸ«âĹİâĹª": 3471,
      "Ġâĸ¨âĹĹâĹİâĹŀâĸ´": 3472,
      "âĹĪâĹ³": 3473,
      "âĸ«âĸªâĸ¦": 3474,
      "ĠâĹĪâĹ«âĹ³âĹĤâĹĵ": 3475,
      "âĸ®âĹłâĹĲ": 3476,
      "âĹĪâĹ«âĹĲâĹ«": 3477,
      "âĹłâĸ·âĸ«âĹłâĹĵ": 3478,
      "âĹŀâĹłâĹį": 3479,
      "ĠâĹĴâĸ´âĸ½âĸ±âĸ´âĹĵ": 3480,
      "ĠâĹĢâĸ´âĸ¨âĸ±âĹª": 3481,
      "ĠâĹĤâĸ±âĹĪâĹ¨âĸµ": 3482,
      "âĹĨâĸ´âĹĵâĹīâĹªâĸ¨": 3483,
      "âĸ±âĸ´âĹįâĹĤâĸ¦": 3484,
      "âĹ«âĹ³âĸ´": 3485,
      "ĠâĹłâĸ·": 3486,
      "ĠâĹĤâĸ±âĹłâĹ³": 3487,
      "âĹĵâĹłâĸ¼âĹłâĹĲ": 3488,
      "âĹŃâĸ¦âĹĪâĹª": 3489,
      "âĹłâĹŀâĹ¬âĸ¦âĹł": 3490,
      "âĹĨâĸ´âĹī": 3491,
      "ĠâĹĴâĹªâĸ½âĸ±âĸ´âĹĵ": 3492,
      "Ġâĸ¨âĹ«âĹİâĹŀâĹª": 3493,
      "Ġâĸ«âĹłâĹĵâĹłâĹįâĸªâĸ¦âĹĪâĹłâĸ¦": 3494,
      "ĠâĹĢâĹŃâĹ³âĸ©âĸ¨": 3495,
      "Ġâĸ±âĸ©âĸ«âĹįâĹªâĸ¦": 3496,
      "âĹİâĹŃâĹĴâĸ«": 3497,
      "Ġâĸ¨âĹŃâĹīâĸ©âĸ¨": 3498,
      "âĹİâĹłâĸ¢âĸµ": 3499,
      "ĠâĹłâĸ±âĹłâĹĢâĹ«âĸ±": 3500,
      "ĠâĹĤâĹ³âĸ¦": 3501,
      "ĠâĹĤâĹĲâĸ±": 3502,
      "âĸ±âĹªâĹĵâĹª": 3503,
      "âĹĨâĹŃâĸ¢": 3504,
      "âĸ©âĹĵâĸµ": 3505,
      "ĠâĹĢâĹĹâĸ±âĹİâĹ«": 3506,
      "ĠâĹªâĸ«âĸ«âĹĹ": 3507,
      "âĹĳâĹłâĹĵ": 3508,
      "Ġâĸ«âĹłâĸ¦âĹ¬": 3509,
      "ĠâĹĪâĹ«âĹ³âĸ´": 3510,
      "âĸ±âĸ´âĹįâĹ§âĸ¦": 3511,
      "âĸ´âĹĵâĸł": 3512,
      "âĹ«âĸ¦!": 3513,
      "âĹĹâĹĵâĸ¨": 3514,
      "âĸ¶âĸ´âĹĴ": 3515,
      "âĸ©âĸ¦âĹĪâĸ´": 3516,
      "âĹªâĸ±âĹ«": 3517,
      "âĹħâĹŃâĸ¦âĸ¨âĹŃ": 3518,
      "ĠâĹŀâĹłâĸ±âĹĪâĸªâĹĵ": 3519,
      "âĸ®âĹłâĸ¦âĸªâĹĵâĸªâĹİ": 3520,
      "ĠâĹķâĹ£âĸ¦âĹĪâĸ´âĹĵ": 3521,
      "âĸ®âĹłâĸ¦âĹ¬âĹĵâĸªâĹİ": 3522,
      "âĹĹâĹĴâĸ«âĹĹâĹĵ": 3523,
      "âĸ«âĸ¾âĸµ": 3524,
      "ĠâĹĪâĹĤâĸ±": 3525,
      "âĸ¼âĸ´âĸ±": 3526,
      "âĹķâĹĵâĹłâĹİ": 3527,
      "âĸ±âĹªâĹİ": 3528,
      "Ġâĸ¢âĹłâĹİâĹłâĸ¦âĸµ": 3529,
      "Ġâĸ´âĸ«âĹİâĹªâĸ¨": 3530,
      "ĠâĹłâĸ¦âĸ±âĹłâĹİâĹ¬": 3531,
      "Ġâĸ«âĹłâĸ«âĸ±âĸª": 3532,
      "âĹŁâĹłâĸ¦âĹ«": 3533,
      "âĸ«âĹ¬âĸ¦": 3534,
      "âĹīâĹĤâĸ¨": 3535,
      "âĸ±âĹłâĹŀâĸª": 3536,
      "âĸ·âĹłâĹİ": 3537,
      "âĹ«âĸ±âĹªâĸ¦": 3538,
      "âĹłâĹŀâĹ¬âĸ¦âĹĪâĹł": 3539,
      "âĹİâĸ´âĹİâĸµ": 3540,
      "ĠâĹłâĸ±âĹ¬âĹĵ": 3541,
      "Ġâĸ½âĹłâĸ»âĹłâĸ¼âĹłâĸ¨": 3542,
      "âĸ±âĹłâĹĵâĹ¬âĸ¦âĹĪâĹłâĸ¦": 3543,
      "Ġâĸ¨âĹ§âĸ½": 3544,
      "ĠâĹķâĸ´âĸ±âĹĪâĹĹ": 3545,
      "Ġâĸ¨âĹ£âĸ»": 3546,
      "Ġâĸ¨âĹ«âĹĴâĹĹ": 3547,
      "Ġâĸ¨âĸ©âĹīâĹŃâĸ¨": 3548,
      "Ġâĸ±âĹĹ": 3549,
      "âĹ«âĹĴâĸ«âĹĹâĹĵ": 3550,
      "âĸªâĸ½âĹ§âĹĵâĸµ": 3551,
      "Ġâĸ¨âĹĹâĸ«": 3552,
      "Ġâĸ¨âĹĹâĸµ": 3553,
      "Ġâĸ´âĹİ": 3554,
      "âĹĭâĹī": 3555,
      "Ġâĸ¦âĹª?": 3556,
      "âĹŀâĹªâĹĪâĹĹ": 3557,
      "Ġâĸ¨âĹĤâĸ½": 3558,
      "ĠâĹĢâĹ«âĸ¢âĹĹâĹİ": 3559,
      "ĠâĹ§âĸ±âĹĪâĸ¾âĸµ": 3560,
      "Ġâĸ¾âĸ¦âĸ¾": 3561,
      "âĸªâĹ³âĹ§âĹĵâĸµ": 3562,
      "âĹĤâĸ¢": 3563,
      "âĹłâĹŀâĸªâĸ¦âĹĪâĹł": 3564,
      "âĹĪâĸªâĹĲâĹ¬": 3565,
      "ĠâĹĪâĹŃâĹĴâĸ©âĸ¦âĹŃ": 3566,
      "âĸ±âĹĹâĸ¨âĸ±âĹª": 3567,
      "ĠâĹĪâĹĹâĸ½âĹª": 3568,
      "âĹ«âĹįâĸ«": 3569,
      "'âĸ«âĹł": 3570,
      "âĹ§âĸ¢": 3571,
      "ĠâĹĪâĹłâĸ¦âĹŀ": 3572,
      "ĠâĹĴâĸ´âĸ½âĹĹ": 3573,
      "ĠâĹłâĸ¦âĸ±âĹłâĹ³": 3574,
      "ĠâĹĴâĹªâĹ³âĸ±âĸ´âĹĵ": 3575,
      "ĠâĹĪâĸ©âĹĴâĹŃâĸ¦âĹŃ": 3576,
      "âĸ«âĹ¨âĸµ": 3577,
      "Ġ7": 3578,
      "âĹªâĸ±âĹª": 3579,
      "âĸªâĹ³âĹĤâĹĵâĸµ": 3580,
      "Ġâĸ¸": 3581,
      "âĸ´âĸ¦âĹ«âĸ¦": 3582,
      "âĸ±âĹłâĹĵâĹ¬âĸ¦âĹĪâĹł": 3583,
      "âĹįâĸ´âĸ«": 3584,
      "âĸ®âĹĤâĹĵ": 3585,
      "âĸ©âĸ¦âĹĪâĹªâĸ¦": 3586,
      "âĸ©âĹĵâĸ©": 3587,
      "ĠâĹĴâĹªâĹ³âĹĹ": 3588,
      "âĸ®âĹłâĸ¦âĹİâĹ¬âĸ½âĹĤâĹĵâĹ¨âĹİâĸµ": 3589,
      "ĠâĹĢâĸ©âĹ³âĸ©âĸ¨": 3590,
      "ĠâĹĢâĹªâĸ¨âĸ±âĹª": 3591,
      "ĠâĹķâĹĩâĸ¦âĹĪâĸ´âĹĵ": 3592,
      "âĹłâĸ¨âĸ¨âĹłâĹĢ": 3593,
      "Ġâĸ¾âĸ¦âĹ¨": 3594,
      "Ġâĸ¨âĹ«âĸ«": 3595,
      "âĸ¼âĸ©": 3596,
      "âĹ«âĸ¦âĹĪâĸ´âĸ¦": 3597,
      "âĸ·âĹłâĸ¦âĹķâĹĹ": 3598,
      "âĹļâĹł": 3599,
      "âĹŃâĸ¦âĹĪâĸ´âĸ¦": 3600,
      "âĸŃâĹłâĸ¢": 3601,
      "âĸ±âĸ´âĹĵâĹĹâĸ¦âĹ«": 3602,
      "âĹİâĹĹâĸ¨": 3603,
      "ĠâĹłâĹĵâĹłâĹ³": 3604,
      "ĠâĹĴâĹªâĹ³âĹ«": 3605,
      "âĹħâĸ©âĸ¦âĸ¨âĸ©": 3606,
      "ĠâĹ§âĸ±âĹ¨âĹĵâĸµ": 3607,
      "Ġâĸ¡âĹłâĹĵ": 3608,
      "ĠâĹĴâĹªâĸ½âĸµ": 3609,
      "ĠâĹłâĸ¢âĸªâĸ¦âĹĪâĹłâĸ¦": 3610,
      "âĹ¤âĹłâĸ¦âĹ«": 3611,
      "ĠâĹĹâĸ·âĸ«âĹĹâĸ½âĹłâĸ¼": 3612,
      "ĠâĹ¨âĸ¦âĹ¨âĸ«": 3613,
      "Ġ8": 3614,
      "âĹ«âĹ³âĹª": 3615,
      "âĹĪâĸ½": 3616,
      "ĠâĹĪâĹ§âĸ¨": 3617,
      "Ġâĸ¨âĹĵâĹłâĸ±": 3618,
      "ĠâĹĤâĸ½âĸ¦": 3619,
      "âĸ¶âĹłâĸ¦": 3620,
      "âĸŃâĹłâĸ¨": 3621,
      "âĸªâĸ¢âĹĪâĹł": 3622,
      "âĹ¨âĹİ?": 3623,
      "âĹ¨âĹİâĹ¨âĸ¢": 3624,
      "ĠâĹĴâĸ´âĹ³âĸ±âĸ´âĹĵ": 3625,
      "Ġâĸ«âĸ´âĹĴâĸ´âĸ¨âĸ¨âĹŃâĹĵ": 3626,
      "ĠâĹķâĹ£âĸ¦âĹĪâĹªâĹĵ": 3627,
      "Ġâĸ¨âĹŃâĹīâĹŃâĸ¨": 3628,
      "Ġâĸ±âĹŃâĸ«âĹįâĸ´âĸ¦": 3629,
      "âĹ¬âĹ³âĹĤâĹĵâĸµ": 3630,
      "âĸ½âĹ¬âĸ¢âĸµ": 3631,
      "ĠâĹ³âĹłâĹŀ": 3632,
      "âĹŀâĹ«âĸ¦âĹĹâĸ¢âĸµ": 3633,
      "ĠâĹĪâĹłâĹ«âĹĵ": 3634,
      "âĹŀâĹĹâĸ¦âĹĹâĸ¢âĸµ": 3635,
      "âĸ¿âĹĵâĹłâĹĪâĹł": 3636,
      "ĠâĹ§âĸ±âĹİâĹłâĸ±âĸª": 3637,
      "ĠâĹļâĹªâĹĵâĸµ": 3638,
      "Ġâĸ«âĹłâĹĵâĸ«": 3639,
      "âĸ´âĹ³âĸł": 3640,
      "ĠâĹķâĸ´âĸ±âĹĪâĹ«": 3641,
      "ĠâĹķâĹĩâĸ¦âĹĪâĹªâĹĵ": 3642,
      "Ġâĸ¦âĹ¨âĹİâĹłâĹĵ": 3643,
      "ĠâĹļâĹłâĸ¢âĹķ": 3644,
      "âĹĹâĹĢ": 3645,
      "âĸ«âĹĤâĸ¦": 3646,
      "âĹłâĸ¦âĸµ": 3647,
      "âĹªâĸ¦âĸ¦": 3648,
      "âĸ¾âĸ¦âĸ¾âĸ¦": 3649,
      "ĠâĹłâĸ±âĸªâĹĵ": 3650,
      "âĸ±âĹłâĹĵâĸªâĸ¦âĹĪâĹłâĸ¦": 3651,
      "âĹªâĸ½âĸł": 3652,
      "Ġâĸ¨âĹłâĸ¦âĸªâĸ«": 3653,
      "ĠâĹĪâĹĹâĹ³âĸ´": 3654,
      "ĠâĹįâĹłâĹĵâĸ¨âĸ±âĸª": 3655,
      "ĠâĹķâĹªâĸ±âĹĪâĹĹ": 3656,
      "ĠâĹĹâĸ·âĸ«âĹ«âĸ½âĹłâĸ¼": 3657,
      "âĹİâĸ´âĸ«": 3658,
      "âĸ©âĸ¦âĸ´": 3659,
      "âĸ©âĸ¦âĹª": 3660,
      "ĠâĹłâĹĵâĸ¨âĹł": 3661,
      "âĸ¨âĹłâĹĪâĹłâĹĵ": 3662,
      "Ġâĸ½âĹłâĸ»âĸªâĹ³âĹĤâĹĵ": 3663,
      "ĠâĹļâĸ´âĹĵâĸµ": 3664,
      "âĸ±âĹłâĹĴâĹİâĹł": 3665,
      "ĠâĹĢâĸ©âĸ½âĹŃâĸ¨": 3666,
      "âĸ»âĸł": 3667,
      "âĹķâĹªâĹĵ": 3668,
      "ĠâĹĿâĹłâĸ½âĹłâĸ¦": 3669,
      "âĹĪâĸªâĹĲâĸª": 3670,
      "ĠâĹķâĹ«âĹĪâĸ´": 3671,
      "Ġâĸ¦âĸ´?": 3672,
      "Ġâĸ¼âĹªâĹŀ": 3673,
      "âĸ¿âĸ¦âĸ¾âĸ¦": 3674,
      "âĸ±âĹĹâĸ¨âĸ±âĸ´": 3675,
      "âĹªâĹ³âĸł": 3676,
      "ĠâĹ³âĹłâĸ¨âĹłâĸ±âĹł": 3677,
      "âĸ®âĹłâĸ¦âĹ¬âĹĵâĹ¬âĹİ": 3678,
      "ĠâĹķâĸ´âĸ¦âĹī": 3679,
      "âĹĵâĹĤâĸ¦": 3680,
      "âĸªâĸ½âĹĤâĹĵâĸµ": 3681,
      "âĹªâĸ«âĹª": 3682,
      "âĸ¯âĹªâĹĵâĹª": 3683,
      "âĹ¦âĹ³": 3684,
      "âĹ¦âĹī": 3685,
      "ĠâĹĢâĹ«âĸ±âĹķ": 3686,
      "ĠâĹĢâĹĹâĸ±âĹ«âĸ½âĹ§âĹĵ": 3687,
      "Ġâĸ¨âĹĤâĹ³": 3688,
      "ĠâĹĢâĹĹâĸ¢âĹ«âĹİ": 3689,
      "ĠâĹĪâĹ«âĹĲâĸ´âĹĵ": 3690,
      "ĠâĹĢâĹ¨âĸ±âĹ¨âĸ¦": 3691,
      "âĹĨâĹªâĹĵâĹīâĸ´âĸ¨": 3692,
      "âĹ«âĹĢ": 3693,
      "âĹ¬âĸ½âĹ§âĹĵâĸµ": 3694,
      "Ġâĸ¨âĹĤâĸ¨": 3695,
      "ĠâĹİâĹł": 3696,
      "ĠâĹªâĹİ": 3697,
      "âĹ¢âĹĩ": 3698,
      "âĹ¢âĹłâĸ·": 3699,
      "ĠâĹĵâĹłâĸ»": 3700,
      "ĠâĹĤâĸ¦âĸ±âĹłâĹĵâĹ¬": 3701,
      "ĠâĹłâĹ³âĹĵ": 3702,
      "ĠâĹĢâĹĹâĸ¢âĹª": 3703,
      "Ġâĸ«âĹłâĹĵâĹłâĹįâĹ¬âĸ¦âĹĪâĹłâĸ¦": 3704,
      "ĠâĹĢâĹŃâĹ³âĹŃâĸ¨": 3705,
      "ĠâĹłâĹĲâĸ¢": 3706,
      "âĹŁâĹłâĸ¦âĹĹ": 3707,
      "ĠâĹŀâĹłâĸ±âĹĪâĹ¬âĹĵ": 3708,
      "âĹ«âĸ½âĸ´": 3709,
      "âĹ§âĸ±âĹĪ": 3710,
      "âĹªâĸ¦âĹ«âĸ¦": 3711,
      "âĸ±âĹłâĹŀâĹ¬": 3712,
      "ĠâĹĤâĸ±âĹłâĸ½": 3713,
      "ĠâĹīâĹ£âĸ¢": 3714,
      "ĠâĹªâĹİâĹ«âĸ¦": 3715,
      "âĹĪâĹª?": 3716,
      "âĹ³âĹ§âĹĵâĹŀâĹ¨âĸ¦?": 3717,
      "ĠâĹĪâĸ´âĹļ": 3718,
      "ĠâĹķâĹªâĸ¢": 3719,
      "ĠâĹ§âĸ¦âĸ±âĹłâĹĵ": 3720,
      "âĹ²âĹ³âĹĹ": 3721,
      "Ġâĸ·âĹ«âĹŀâĹŀâĸ´": 3722,
      "ĠâĹŀâĹ¬âĹĵâĹł": 3723,
      "ĠâĹĢâĹªâĹĴ": 3724,
      "ĠâĹŀâĹ«âĸ¦": 3725,
      "ĠâĹĿâĹłâĹ³âĹłâĸ¦": 3726,
      "âĹĨâĹªâĹĵâĹĹ": 3727,
      "ĠâĹ«âĹĴâĸ´": 3728,
      "ĠâĹ«âĹĴâĹª": 3729,
      "ĠâĹĪâĸ©âĹĴâĸ©âĸ¦âĸ©": 3730,
      "ĠâĹĢâĹŃâĸ«âĹŃâĸ¦": 3731,
      "âĸ«âĸ«": 3732,
      "âĸªâĸ±âĹłâĸ¦": 3733,
      "âĹ³âĹ¨âĸ¦": 3734,
      "Ġâĸ½âĹłâĹŀ": 3735,
      "ĠâĹĴâĸ´âĸ½âĹ«": 3736,
      "ĠâĹĢâĹłâĹĴâĸªâĸ¦âĹł": 3737,
      "ĠâĹĤâĸ¦âĸ±âĹłâĹĵâĸª": 3738,
      "ĠâĹĤâĸ±âĹ¨âĹĵâĸµ": 3739,
      "ĠâĹ«âĹīâĹ«âĸ¦âĸµ": 3740,
      "ĠâĹŀâĹĤâĹĵâĸ¾âĸ¦": 3741,
      "ĠâĹİâĸ©?": 3742,
      "âĸ¶âĹªâĹĴâĹªâĸ¨âĸ¨âĹŃâĹĵ": 3743,
      "âĸ¨âĹīâĹł": 3744,
      "âĹłâĸ«âĸ«": 3745,
      "Ġâĸ»âĹªâĹĴ": 3746,
      "âĹĪâĹ¬âĹĲâĹ¬": 3747,
      "ĠâĹįâĹ¬âĹĵ": 3748,
      "ĠâĹĤâĸ±âĸ¾âĹĵâĸµ": 3749,
      "âĹĬâĹ³âĹĹ": 3750,
      "âĹ²âĹĴâĸ«âĹª": 3751,
      "âĸ±âĹ«âĸ¨âĸ±âĹª": 3752,
      "ĠâĹĤâĸ±âĹĪâĸ¾âĸµ": 3753,
      "âĹĿâĹ¨âĸ¦âĸ¾âĸ¦": 3754,
      "ĠâĸŃâĹłâĸ½âĹ¬âĹĵâĸł": 3755,
      "âĹĹâĸ½âĸ´": 3756,
      "âĹĪâĹłâĸ±âĹłâĹĵ": 3757,
      "âĹĪâĹŃâĹİ": 3758,
      "âĹ¬âĸł": 3759,
      "âĹĻâĸ¾âĹĵ": 3760,
      "âĹ¦âĸ½": 3761,
      "âĹĨâĹŃâĸ¦": 3762,
      "âĸ±âĹ¬âĹ³âĹ§âĹĵ": 3763,
      "ĠâĹĴâĸ´âĹ³âĹĹ": 3764,
      "âĹĦâĸ´âĹĵ": 3765,
      "Ġ19": 3766,
      "âĹ§âĹĲâĹĵâĹłâĹį": 3767,
      "âĹłâĸ¦âĹĪâĹł": 3768,
      "âĹİâĸµâĸµâĸµ": 3769,
      "âĹĹâĹİâĸ´": 3770,
      "âĸ±âĸ´âĹĵâĹ«âĹİ": 3771,
      "ĠâĹĢâĹłâĹĴâĹ¬âĸ¦âĹł": 3772,
      "ĠâĹĵâĹłâĹĲ": 3773,
      "Ġâĸ¼âĹĹâĹĪ": 3774,
      "ĠâĹ§âĸ¦âĸ±âĹłâĹĵâĹł": 3775,
      "ĠâĹĢâĹłâĸ¨âĹİâĹłâĹ³": 3776,
      "ĠâĹķâĸ´âĸ±âĸµ": 3777,
      "ĠâĹİâĹŃ?": 3778,
      "'âĹĪâĸ´âĸ¦": 3779,
      "âĸ½âĹ¨âĸ¦": 3780,
      "âĸ½âĹłâĸ¼âĹłâĸ¨": 3781,
      "âĹ³âĹªâĸ¦": 3782,
      "âĸ´âĸ¦âĹĹâĸ¦": 3783,
      "âĹłâĸ¨âĸ«âĹł": 3784,
      "âĹ¢âĹ£": 3785,
      "ĠâĹķâĹ£âĹĵâĸ©": 3786,
      "ĠâĹķâĹ£âĹĵâĹŃâĸ¦": 3787,
      "âĹĦâĸ©âĸ«âĸ·âĹĹâĹĴ": 3788,
      "âĹĬâĹĴâĸ«âĹª": 3789,
      "âĹĤâĹĲâĹĵâĹłâĹį": 3790,
      "âĹĹâĹįâĸ«": 3791,
      "âĹ§âĸ¨âĸ«âĹĤâĹĵ": 3792,
      "âĹĹâĹ³âĹª": 3793,
      "âĹłâĸ¦âĹ«": 3794,
      "ĠâĹİâĹªâĹŀ": 3795,
      "âĹ¬âĸ¦âĹ¬âĸ¢": 3796,
      "âĸ±âĸ´âĹİ": 3797,
      "âĸ¯âĸ´âĹĵâĸ´": 3798,
      "âĹĭâĹ³": 3799,
      "âĹ±âĹĵâĹłâĹĪâĹł": 3800,
      "âĸ«âĹłâĸ¸": 3801,
      "ĠâĹ§âĸ±âĹİâĹłâĸ±âĸªâĸµ": 3802,
      "Ġâĸ´âĸ«âĹİâĸ´âĸ¨": 3803,
      "âĹĲâĹ«âĹİâĹĹ": 3804,
      "ĠâĹĢâĹĤâĸ¢": 3805,
      "Ġâĸ¦âĸ¾âĹİâĹłâĹĵ": 3806,
      "âĹ«âĹĴâĸ«âĹ«âĹĵ": 3807,
      "âĸ«âĹ§âĸ¦": 3808,
      "ĠâĹ§âĸ±âĹłâĹ³": 3809,
      "ĠâĹīâĹĩâĸ¢": 3810,
      "âĸ½âĹ§âĹĵâĹŀâĸ¾âĸ¦?": 3811,
      "âĹĻâĸ´": 3812,
      "ĠâĹĴâĸ´âĹ³âĹ«": 3813,
      "ĠâĹłâĹİâĹłâĸł": 3814,
      "Ġâĸ¨âĹĹâĹİâĹŀâĹª": 3815,
      "âĸ¶âĹłâĸ¦âĹĵâĸª": 3816,
      "âĹĴâĹ¬": 3817,
      "Ġâĸ¨âĹĤâĸ±": 3818,
      "ĠâĹİâĸ´âĹŀ": 3819,
      "âĹįâĹªâĸ«": 3820,
      "âĸ´âĸ«âĹª": 3821,
      "âĹ¢âĹ§": 3822,
      "âĹħâĹłâĸ±": 3823,
      "Ġâĸ´âĸ«âĸµ": 3824,
      "ĠâĹĪâĸ©âĹĴâĸ©âĸ¦âĹŃ": 3825,
      "ĠâĸªâĹĴ": 3826,
      "âĸ´âĹİâĹ«": 3827,
      "âĸ¨âĸ©âĸ¦": 3828,
      "ĠâĹĪâĹ§âĸ±": 3829,
      "Ġâĸ½âĹ£âĸ¦": 3830,
      "âĹŃâĸ¦âĹĪâĹªâĸ¦": 3831,
      "âĸ©âĸ¦âĹĪâĹª": 3832,
      "ĠâĹĢâĹłâĹĴâĸ±âĹłâĸ½": 3833,
      "ĠâĹİâĹĹâĹŀâĹĹâĸ¦": 3834,
      "ĠâĹķâĸ´âĸ¢": 3835,
      "ĠâĹ§âĸ¦âĸ±âĹłâĹĵâĹ¬": 3836,
      "âĹłâĸ±âĹłâĹĵâĹł": 3837,
      "ĠâĹłâĹĪâĹłâĹİâĸª": 3838,
      "ĠâĹĴâĹªâĹ³âĸµ": 3839,
      "ĠâĹĴâĸ´âĹ³âĸ±âĹªâĹĵ": 3840,
      "ĠâĹĪâĹĹâĹĲâĸ´âĹĵ": 3841,
      "âĸ§âĸ¢": 3842,
      "ĠâĹķâĹªâĸ±âĹĪâĹ«": 3843,
      "ĠâĸŃâĹłâĹ³âĹ¬âĹĵâĸł": 3844,
      "Ġâĸ¨âĹĹâĹĴâĹ«": 3845,
      "âĹĪâĸ©âĹİ": 3846,
      "âĹĤâĸ±âĹł": 3847,
      "Ġâĸ¨âĹ«âĸ±": 3848,
      "Ġâĸ½âĹªâĸ¦âĹ«": 3849,
      "âĹŀâĸ«âĹłâĸ¦": 3850,
      "ĠâĹĢâĹ«âĸ±âĹĹâĸ½âĹ§âĹĵ": 3851,
      "ĠâĸŃâĸ´âĹĵ": 3852,
      "ĠâĹķâĹĩâĹĵâĹŃâĸ¦": 3853,
      "Ġâĸ«âĹłâĸ¦âĸªâĹĴ": 3854,
      "ĠâĹĴâĹªâĸ½âĸ±âĹªâĹĵ": 3855,
      "âĹĲâĸªâĸ¦âĹł": 3856,
      "ĠâĹĪâĹŃâĹĴâĸ©âĸ¦âĸ©": 3857,
      "âĹ±âĸ¦âĹ¨âĸ¦": 3858,
      "ĠâĸªâĹŀ": 3859,
      "âĹĪâĹŃâĸ¨": 3860,
      "ĠâĹĪâĹĹâĸ¦": 3861,
      "Ġâĸ¨âĹĹâĸ±": 3862,
      "âĹĪâĹĹâĹĲâĹĹâĸ¦âĹ«": 3863,
      "âĹ«âĸ¢âĸ´": 3864,
      "âĹ«âĸ¢âĹª": 3865,
      "âĹ¦âĹĪâĹłâĹİ": 3866,
      "âĹĨâĹĹ": 3867,
      "âĸ±âĹ¬âĹ³âĹĤâĹĵ": 3868,
      "ĠâĹĢâĹłâĹĴâĸ±âĹłâĹİâĹł": 3869,
      "ĠâĹĤâĸ±âĹŀâĹł": 3870,
      "ĠâĹĦâĹł": 3871,
      "ĠâĹĴâĸ´âĸ½âĸ±âĹªâĹĵ": 3872,
      "ĠâĹ¬âĹŀ": 3873,
      "ĠâĹĴâĹłâĹĵâĸ¨âĸª": 3874,
      "âĹĦâĸ©âĸ«âĸ·âĹĹâĹĴâĸµ": 3875,
      "âĸ¦âĹ¨âĸ¦": 3876,
      "âĸ«âĸ´âĸ¨": 3877,
      "ĠâĹĢâĸ´âĹĴ": 3878,
      "âĹ«âĸ¦âĸ¼âĹª": 3879,
      "âĸ·âĹłâĹĵ": 3880,
      "âĸ®âĹ§âĹĵ": 3881,
      "âĹłâĹŀâĸªâĸ¦âĹł": 3882,
      "âĸ±âĹªâĹĵâĹ«âĸ¦âĹ«": 3883,
      "âĹİâĸ´âĹĪâĸ´âĸ¦": 3884,
      "ĠâĹĢâĹ«âĸ±âĹİâĹ«": 3885,
      "âĸ«âĹłâĸ¦âĸµ": 3886,
      "ĠâĹĪâĸ©âĹĴâĹŃâĸ¦âĸ©": 3887,
      "âĹĪâĹ¬âĸ¦?": 3888,
      "Ġâĸ·âĹłâĸ«âĹł": 3889,
      "ĠâĹłâĹĵâĸ«âĸªâĸ¨âĸµ": 3890,
      "Ġâĸ½âĹłâĹĵâĹłâĸ«": 3891,
      "ĠâĹ«âĸ·âĸ«âĹĹâĹ³âĹłâĸ¼": 3892,
      "ĠâĹİâĹªâĹĵâĹłâĸ¨": 3893,
      "Ġâĸ¼âĸ´âĹļâĹłâĸ»": 3894,
      "âĸ´âĹĢâĹĹâĸ±": 3895,
      "ĠâĹĪâĹłâĸ¦": 3896,
      "Ġâĸ¨âĹ«âĸµ": 3897,
      "âĹĢâĹłâĸ¦âĹł": 3898,
      "âĸ¾âĸ¦âĸ¾âĸ¢": 3899,
      "âĹķâĸ´": 3900,
      "ĠâĹĴâĹŃâĸ»âĸ·": 3901,
      "âĹİâĹªâĹĪâĹªâĸ¦": 3902,
      "âĹ¢âĹ¨âĹŀ": 3903,
      "ĠâĹłâĹĵâĹłâĸ½": 3904,
      "âĹ¦âĹĵâĸ«âĸªâĸ¨": 3905,
      "âĹĨâĹªâĹī": 3906,
      "âĹŀâĹ¬âĸ¦âĹ¬âĸ¢âĸµ": 3907,
      "ĠâĹĤâĸ±âĹİâĹłâĸ¢âĸµ": 3908,
      "âĹłâĹļâĹłâĸ±": 3909,
      "ĠâĹĪâĹŃâĹĴâĹŃâĸ¦âĹŃ": 3910,
      "Ġâĸ¬âĸ·âĹłâĹĵ": 3911,
      "âĸŃâĹłâĹĪâĹ«": 3912,
      "ĠâĹĢâĹŃâĸ«âĸ©âĸ¦": 3913,
      "âĸ±âĹªâĹįâĹĤâĸ¦": 3914,
      "ĠâĹ¥": 3915,
      "âĸ±âĹ³": 3916,
      "âĸ·âĹłâĸ¦âĹķâĹ«": 3917,
      "ĠâĹ§âĸ±âĹłâĸ½": 3918,
      "âĹłâĹŀâĹ¬âĸ¦âĹ¬": 3919,
      "ĠâĹłâĸ½âĹĵ": 3920,
      "ĠâĹĢâĹ«âĸ¢âĹª": 3921,
      "ĠâĹĢâĹŃâĸ½âĸ©âĸ¨": 3922,
      "'âĹĪâĹªâĸ¦": 3923,
      "âĸ´âĹĢâĹ«âĸ±": 3924,
      "ĠâĹĪâĹĹâĸ±": 3925,
      "ĠâĹĪâĹĤâĸ¨âĸ«": 3926,
      "âĹªâĹĵâĸł": 3927,
      "âĸ±âĹłâĹĵâĸªâĸ¦âĹĪâĹł": 3928,
      "âĹķâĸ´âĹĵ": 3929,
      "âĸ±âĸ´âĸ½": 3930,
      "âĹĨâĹĩâĸ¢": 3931,
      "âĹĦâĹªâĹĵ": 3932,
      "âĹŀâĹªâĹĪâĹ«": 3933,
      "ĠâĹłâĸ¦âĸ±âĹłâĹİâĸª": 3934,
      "âĸ±âĹ«âĸ¨âĸ±âĸ´": 3935,
      "ĠâĹĢâĹ«âĸ¢âĹĹ": 3936,
      "âĹĪâĹĹâĹĵ?": 3937,
      "ĠâĹĿâĹłâĹĴâĸ¨âĹłâĸ¦": 3938,
      "ĠâĹĹâĸ·âĸ«âĹĹâĹ³âĹłâĸ¼": 3939,
      "ĠâĹ¯": 3940,
      "âĹªâĹĢâĹ«âĸ±": 3941,
      "âĹłâĸ±âĸ¨": 3942,
      "Ġâĸ«âĹł": 3943,
      "âĹĵâĹłâĹĪâĹłâĸ¨âĹĹ": 3944,
      "ĠâĹİâĹ¬âĹŀâĸªâĸ¦?": 3945,
      "âĸŃâĹłâĹŀâĸ«": 3946,
      "âĹłâĹ³âĹªâĸ«": 3947,
      "âĹĪâĹłâĸ¦âĸµ": 3948,
      "âĸ±âĹİâĹłâĸ¢": 3949,
      "ĠâĹłâĸ¦âĸ¼âĹłâĸ¨": 3950,
      "Ġâĸ¨âĹłâĸ±âĹĢ": 3951,
      "âĸ¡âĹłâĸ«": 3952,
      "ĠâĹĹâĹīâĹĹâĸ¦âĸµ": 3953,
      "âĹłâĹļâĹł": 3954,
      "âĹĲâĹĹâĹİâĹĹ": 3955,
      "ĠâĹĴâĹªâĹ³âĸ±âĹªâĹĵ": 3956,
      "âĸ¿âĸ¦âĹ¨âĸ¦": 3957,
      "âĹĿâĹĹâĸ±âĹ«âĸ½âĹ§âĹĵ": 3958,
      "ĠâĹĢâĹĹâĸ¢âĸ´": 3959,
      "ĠâĹłâĹĴâĹłâĹĲâĸª": 3960,
      "Ġâĸ¨âĹłâĸ¦âĹ¬âĸ«": 3961,
      "âĹİâĹĹâĹĴâĸ«âĹĹâĹİâĸµ": 3962,
      "ĠâĹłâĸ¢âĹ¬âĸ¦âĹĪâĹłâĸ¦": 3963,
      "âĸ¡âĸ´âĸ¨âĹĹ": 3964,
      "Ġâĸ¶âĹłâĸ¦âĹĵâĸª": 3965,
      "âĹİâĹłâĹĵâĸªâĹİ": 3966,
      "Ġâĸ¼âĹªâĹļâĹłâĸ»": 3967,
      "âĹĿâĹłâĹ³âĹłâĸ¦": 3968,
      "âĸ±âĹłâĹĵâĸµâĸµâĸµ": 3969,
      "ĠâĹ³âĹ£âĸ¦": 3970,
      "Ġâĸ½âĸ´âĸ¦âĹ«": 3971,
      "âĹ¨âĸ¦âĹ¨âĸ¢": 3972,
      "âĸ±âĸ´âĹĵâĹª": 3973,
      "ĠâĹĪâĹłâĹĹâĹĵ": 3974,
      "âĸ±âĸªâĸ½âĹĤâĹĵ": 3975,
      "ĠâĹİâĹĹâĹŀâĹ«âĸ¦": 3976,
      "Ġâĸ·âĹ§âĹĴâĸ±âĹłâĸ¦": 3977,
      "ĠâĹ«âĸ·âĸ«âĹ«âĸ½âĹłâĸ¼": 3978,
      "âĸ¦âĸ¾âĸ¦": 3979,
      "âĹİâĸ¨": 3980,
      "âĹĹâĸ½âĹª": 3981,
      "âĸ½âĸªâĸ¢âĸµ": 3982,
      "âĹĢâĸ´âĹĵ": 3983,
      "âĹ«âĹİâĸ´": 3984,
      "âĸ±âĸªâĹ³âĹ§âĹĵ": 3985,
      "âĸ±âĹĹâĸµ": 3986,
      "ĠâĹ«âĹŀâĸ«âĹĹâĸ½âĹ§âĹĵ": 3987,
      "âĹłâĸ¼âĹłâĹĲâĸªâĹİ": 3988,
      "âĹłâĹĵâĸªâĹĪâĹł": 3989,
      "Ġâĸ¨âĸ´âĸ¦âĹĪâĹ«âĹİ": 3990,
      "ĠâĹĪâĹ¨âĹĵâĹ¨âĹİ": 3991,
      "âĹĴâĸª": 3992,
      "âĹªâĸ¦âĹĹâĸ¦": 3993,
      "Ġâĸ½âĹĩâĸ¦": 3994,
      "âĹŀâĸ«âĸ´âĹĵ": 3995,
      "ĠâĹİâĹ«âĹŀâĹĹâĸ¦": 3996,
      "âĹ±âĸ¦âĸ¾âĸ¦": 3997,
      "ĠâĹĢâĸ¾âĸ¦âĹ¨âĸ¦": 3998,
      "ĠâĹĢâĹ¨âĸ¦âĹ¨âĸ¦": 3999,
      "Ġâĸ¨âĹ«âĹĴâĹ«": 4000,
      "ĠâĹłâĹĵâĹłâĹĴâĸ«âĸªâĹĵ": 4001,
      "âĹªâĸ¦âĸ´": 4002,
      "ĠâĹĤâĸ¨âĹ¨": 4003,
      "âĹĹâĸ¢âĹª": 4004,
      "âĹĪâĹ¬âĹĲâĸª": 4005,
      "ĠâĹłâĸ±âĹ¬âĸ¦": 4006,
      "âĸ±âĹ¬âĸ½âĹ§âĹĵ": 4007,
      "ĠâĹĢâĹłâĹĴâĸ±âĹłâĹ³": 4008,
      "ĠâĹ§âĸ±âĸµ": 4009,
      "Ġâĸ¨âĹłâĸ±âĹĪâĹ¬âĹĵ": 4010,
      "âĹĬâĸ±âĸ¨": 4011,
      "ĠâĹ§âĸ±âĹİâĹłâĸ±âĹ¬": 4012,
      "Ġâĸ»âĹłâĹĵâĸ«âĹĹ": 4013,
      "âĹĲâĹ¬âĸ¦âĹł": 4014,
      "ĠâĹĢâĹ«âĸ¢âĸ´": 4015,
      "ĠâĹĢâĸ¾âĸ±âĸ¾âĸ¦": 4016,
      "ĠâĹĢâĹ§âĸ¢": 4017,
      "âĹİâĹłâĹĵâĹ¬âĹİ": 4018,
      "Ġâĸ«âĹªâĹĵâĸ¨": 4019,
      "âĹ«âĸ¼âĸ·": 4020,
      "âĹĪâĸ´âĸ«": 4021,
      "âĸ«âĹĹâĹİ": 4022,
      "âĹŀâĸ©âĸ¦": 4023,
      "ĠâĹŀâĸ»": 4024,
      "âĹĹâĸ¦âĸ¼âĸ´": 4025,
      "âĹĿâĸ´âĸ¨": 4026,
      "ĠâĹİâĹ¬âĸ½": 4027,
      "ĠâĹĪâĹłâĸł": 4028,
      "âĹ¦âĹĵâĸ«âĹ¬âĸ¨": 4029,
      "âĹĭâĹĵâĸ«âĸªâĸ¨": 4030,
      "Ġâĸ®âĹĤâĸ¦": 4031,
      "ĠâĹ§âĸ±âĹŀâĹł": 4032,
      "ĠâĹ§âĸ±âĹİâĹłâĸ¢âĸµ": 4033,
      "Ġâĸ¨âĹĩâĸ»": 4034,
      "Ġâĸ«âĹłâĹĢâĹĹ": 4035,
      "âĹĪâĹ¬âĹĲâĸªâĸ¦âĸª": 4036,
      "ĠâĹīâĹłâĹĲâĹ¬âĹĵ": 4037,
      "ĠâĹķâĹªâĸ¦âĹī": 4038,
      "âĸ±âĸ½": 4039,
      "âĹ³âĹłâĸ¼âĹłâĸ¨": 4040,
      "âĹ§âĹĪ": 4041,
      "âĸ¼âĹĹâĸ±": 4042,
      "âĹĪâĹ«âĹĲâĹ«âĸ¦âĹĹ": 4043,
      "âĹĹâĸ¢âĸ´": 4044,
      "âĹłâĸ½âĹªâĸ«": 4045,
      "Ġâĸ´âĹĪâĹ«âĸ±": 4046,
      "ĠâĹĢâĹĹâĸ±âĹķ": 4047,
      "ĠâĹ§âĸ±âĸ¾âĹĵâĸµ": 4048,
      "ĠâĹİâĸªâĸ½": 4049,
      "ĠâĹķâĹĩâĹĵâĸ©âĸ¦": 4050,
      "âĹ²âĸ½âĹĹ": 4051,
      "ĠâĹĪâĹĤâĸ±âĹłâĹĵ": 4052,
      "ĠâĹĢâĹ¨âĸ¦âĸ¾âĸ¦": 4053,
      "ĠâĹłâĹĪâĹłâĹİâĸµ": 4054,
      "âĸ±âĹªâĹįâĹ§âĸ¦": 4055,
      "ĠâĹĢâĹĤâĹĵ": 4056,
      "Ġâĸ¨âĹ§âĸ¨": 4057,
      "Ġâĸ·âĹłâĹŀ": 4058,
      "Ġâĸ»âĸ´âĹĴ": 4059,
      "Ġâĸ¨âĹłâĹĵâĹłâĸ¦": 4060,
      "ĠâĹķâĹ£âĹĵâĹİâĹªâĸ¨": 4061,
      "âĹŁâĹłâĸ¨": 4062,
      "ĠâĹĹâĹīâĹ«âĸ¦âĸµ": 4063,
      "ĠâĹĹâĹĴâĹ«": 4064,
      "ĠâĹ³âĹĤâĸ¨âĹŀâĹł": 4065,
      "âĹİâĹ«âĹĴâĸ«âĹ«âĹİâĸµ": 4066,
      "ĠâĹķâĸ´âĹĵâĹªâĸ¨âĸµ": 4067,
      "ĠâĹĢâĸ©âĸ½âĸ©âĸ¨": 4068,
      "ĠâĹĢâĸ´âĸ¨âĸ±âĹ«": 4069,
      "ĠâĹłâĸ±âĸ«âĸªâĸ¦âĹĪâĹł": 4070,
      "âĸ±âĹłâĹĴâĸ«âĸªâĹĵ": 4071,
      "âĹĪâĹ¬âĹĲâĸªâĸ¦âĹ¬": 4072,
      "ĠâĹ¨âĸ¦âĸ¾âĸ«": 4073,
      "ĠâĹĢâĸ©âĸ«âĸ©âĸ¦": 4074,
      "ĠâĹĢâĹ§âĹĵ": 4075,
      "Ġâĸ¨âĹª": 4076,
      "âĸ¼âĹŃ": 4077,
      "ĠâĹŀâĹĹâĸ¦": 4078,
      "âĹªâĸ¦âĸł": 4079,
      "âĹ«âĸ¦âĸ¼âĸ´": 4080,
      "âĹĿâĹłâĸ½âĹłâĸ¦": 4081,
      "âĹ¬âĸ¦âĹĪâĹłâĸ¨âĹ«": 4082,
      "âĸ·âĹłâĹĢâĹł": 4083,
      "ĠâĹ³âĹªâĸ¦âĹĹ": 4084,
      "âĹįâĸµ": 4085,
      "Ġâĸ´âĹĪâĹĹâĸ±": 4086,
      "ĠâĹłâĸ±âĹĪâĹ¬âĹİâĸµ": 4087,
      "âĹĨâĸ´âĸ±": 4088,
      "ĠâĹĢâĹłâĹĴâĸ¨âĹłâĸ¦": 4089,
      "Ġâĸ»âĹłâĹĵâĹİâĹłâĸ¨": 4090,
      "âĹĲâĹ«âĹİâĹ«": 4091,
      "âĹĿâĸ¾âĸ¦âĹ¨âĸ¦": 4092,
      "ĠâĹ«âĸ·âĸ«âĹ«âĹ³âĹłâĸ¼": 4093,
      "ĠâĹĢâĸ©âĸ«âĹŃâĸ¦": 4094,
      "'âĸ¾": 4095,
      "âĹĪâĹ¬âĹİâĸł": 4096,
      "âĹ³âĸ´âĸ¦": 4097,
      "âĹ¬âĸ¦âĸªâĸ¢": 4098,
      "Ġâĸ«âĹłâĹŀ": 4099,
      "ĠâĹĴâĹ«âĹĵâĸ¨": 4100,
      "âĹłâĸ½âĸ´âĸ«": 4101,
      "âĸ¯âĹªâĹĵâĸ´": 4102,
      "ĠâĹįâĹĤâĸ«": 4103,
      "ĠâĹĢâĹłâĹĴâĸ¨": 4104,
      "ĠâĹİâĸªâĹŀâĹ¬âĸ¦?": 4105,
      "âĸ¿âĸ¦âĸ±âĹłâĹĵ": 4106,
      "ĠâĹĢâĹĹâĸ¢âĹĹ": 4107,
      "ĠâĹĪâĹĹâĹĲâĹªâĹĵ": 4108,
      "ĠâĹĢâĸ¾âĸ¦âĹĪâĹłâĸ¦": 4109,
      "Ġâĸ¾âĸ¢âĸ¾âĸ¦": 4110,
      "Ġâĸ·âĹĤâĹĴâĸ±âĹłâĸ¦": 4111,
      "ĠâĹīâĹłâĹĲâĸªâĹĵ": 4112,
      "âĹĹâĹ³âĸ´": 4113,
      "âĸ«âĹªâĸ¨": 4114,
      "âĹĢâĹ§âĸ±": 4115,
      "âĹĿâĹªâĹĢ": 4116,
      "ĠâĹ§âĸ¨âĸ¾": 4117,
      "âĸ±âĹ«âĸµ": 4118,
      "âĹŀâĹ¬âĸ¦âĸªâĸ¢âĸµ": 4119,
      "âĹ²âĸ±âĸ¨": 4120,
      "ĠâĹĹâĹĴâĸ´": 4121,
      "âĹİâĸ´âĸ±âĹĹ": 4122,
      "âĹĿâĹ¨âĸ¦âĹ¨âĸ¦": 4123,
      "Ġâĸ·âĹĹâĹŀâĹŀâĸ´âĸ«": 4124,
      "âĹİâĹłâĹŀâĸªâĸ¦âĹł": 4125,
      "âĹ§âĸ¨âĸ«âĹ§âĹĵ": 4126,
      "ĠâĹįâĹĹâĸ¨âĹĵ": 4127,
      "ĠâĹ«âĸ·âĸ«âĹĹâĸ½âĹłâĸ¼": 4128,
      "ĠâĹİâĸ´âĹĵâĹłâĸ¨": 4129,
      "âĸ«âĹ«âĹİ": 4130,
      "âĹĢâĹłâĸ¨": 4131,
      "ĠâĹłâĸ«âĹ¬": 4132,
      "ĠâĹ³âĹĩâĸ¦": 4133,
      "âĹĪâĹ«âĹĲâĹĹâĸ¦âĹ«": 4134,
      "âĹłâĹŀâĸªâĸ¦âĹ¬": 4135,
      "âĹĪâĸªâĹĲâĹ¬âĸ¦âĸª": 4136,
      "Ġâĸ¢âĹłâĹİâĹłâĸ¦âĸ±âĹłâĹĵ": 4137,
      "ĠâĹĤâĸ¦âĸ±âĹłâĹĵ": 4138,
      "ĠâĹĤâĸ±âĹİâĹłâĸ±âĸª": 4139,
      "ĠâĹĢâĸ¾âĸ¦âĸ¾âĸ¦": 4140,
      "ĠâĹ¨âĸ¢âĸ¾âĸ¦": 4141,
      "âĹ¤âĹłâĸ¦âĹĹ": 4142,
      "ĠâĹ³âĹŃâĸ¢âĹĪâĹªâĸ¦": 4143,
      "âĹĹâĸ¼âĸ·": 4144,
      "âĸªâĸ¼âĸª": 4145,
      "âĹŀâĹŃâĸ¦": 4146,
      "ĠâĹĢâĹªâĹ³": 4147,
      "âĹĴâĹ¬âĸ¨": 4148,
      "ĠâĹİâĹłâĸ¦âĸ«": 4149,
      "âĸªâĸ¦âĸªâĸ¢": 4150,
      "âĸ¾âĸ¦âĹ¨âĸ¢": 4151,
      "âĸ±âĹªâĸł": 4152,
      "ĠâĹİâĹ¬âĹ³": 4153,
      "âĹİâĹªâĹĪâĸ´âĸ¦": 4154,
      "âĹĭâĹĵâĸ«âĹ¬âĸ¨": 4155,
      "ĠâĹķâĹĹâĹĪâĸ´": 4156,
      "Ġâĸ¢âĹłâĹİâĹłâĸ¦âĸł": 4157,
      "ĠâĹİâĸªâĹŀâĸªâĸ¦?": 4158,
      "ĠâĹĻâĹłâĹļ": 4159,
      "ĠâĹŀâĹłâĸ¦âĹİâĸª": 4160,
      "Ġâĸ«âĹłâĸ¦âĹ¬âĹĴâĸ«": 4161,
      "âĹĲâĹĹâĹİâĹ«": 4162,
      "ĠâĹŀâĹŃâĹĵâĹª": 4163,
      "âĹİâĹĹâĹĴâĸ«âĹ«âĹİâĸµ": 4164,
      "Ġâĸ«âĹĤâĸ»âĸ±âĹłâĸ¦": 4165,
      "Ġâĸ·âĹł?": 4166,
      "Ġâĸ¨âĹłâĹİâĸ»": 4167,
      "âĹªâĹķ": 4168,
      "âĹ³âĹłâĸ±âĹłâĹĵ": 4169,
      "ĠâĹŀâĹ¬âĹĵ": 4170,
      "âĹ¬âĸ¦?": 4171,
      "âĸªâĸ¦âĹ¬âĸ¢": 4172,
      "ĠâĹ³âĹªâĸ¦âĹ«": 4173,
      "âĹ«âĸ±âĹª": 4174,
      "âĹ³âĹĤâĹĵâĹŀâĹ¨âĸ¦?": 4175,
      "ĠâĹİâĹ¬âĹŀâĹ¬âĸ¦?": 4176,
      "âĹ³âĹ§âĹĵâĹŀâĸ¾âĸ¦?": 4177,
      "âĹªâĸ±âĹªâĸ¦": 4178,
      "âĹ¦âĹĵâĹł": 4179,
      "âĹĭâĸ½": 4180,
      "ĠâĹİâĹ«âĹŀâĹ«âĸ¦": 4181,
      "ĠâĹĢâĹĹâĸ±âĹĹâĸ½âĹ§âĹĵ": 4182,
      "âĹ¤âĹłâĹĴ": 4183,
      "âĸ¸âĹ«": 4184,
      "âĹłâĹĵâĸ¨âĸ´âĸ¦": 4185,
      "âĹĮâĹĵâĹłâĸ¦": 4186,
      "âĸ¨âĸ´âĸ¦âĸł": 4187,
      "ĠâĹ¨âĸ¢âĹ¨âĸ¦": 4188,
      "ĠâĸŃâĹłâĸ½âĸªâĹĵâĸł": 4189,
      "ĠâĹĹâĸ·âĸ«âĹ«âĹ³âĹłâĸ¼": 4190,
      "ĠâĹłâĸ¼âĹłâĹĢâĹł": 4191,
      "âĹĵâĹ¨": 4192,
      "âĸ±âĸ¾âĹĲ": 4193,
      "âĸ±âĸ¾âĸ±": 4194,
      "âĹ«âĹķ": 4195,
      "âĸ½âĹłâĸ±âĹłâĹĵ": 4196,
      "âĹĴâĸªâĸ¨": 4197,
      "âĹĹâĸ¦âĸ¼âĹª": 4198,
      "Ġâĸ«âĹªâĹŀ": 4199,
      "âĸ¾âĸ¦âĹ¨âĸ¦": 4200,
      "ĠâĹĴâĹłâĹĵ": 4201,
      "âĸ«âĹłâĹĪâĹł": 4202,
      "ĠâĹķâĹĩâĹĵâĹİâĸ´âĸ¨": 4203,
      "âĸ±âĹłâĹİâĹłâĹİ": 4204,
      "ĠâĹłâĸ¦âĸ±âĹłâĸ½": 4205,
      "Ġâĸ«âĹłâĸ¦âĹ¬âĹĴ": 4206,
      "Ġâĸ¡âĹªâĸ¨": 4207,
      "Ġâĸ«âĹłâĹĵâĸ¢": 4208,
      "ĠâĹ³âĹ§âĸ¨âĹŀâĹł": 4209,
      "âĹĪâĸ¾âĸ¦?": 4210,
      "âĸŃâĹłâĹĵâĹ«âĸ¨âĹłâĸ½": 4211,
      "ĠâĹĴâĹłâĹĵâĸ¨âĹ¬": 4212,
      "'âĹ¨": 4213,
      "âĸ´âĹķ": 4214,
      "âĸ½âĹĪâĹ«âĸµ": 4215,
      "âĸªâĸ¦âĹĪâĹłâĸ¨âĹĹ": 4216,
      "âĸ¶âĹłâĸ¨": 4217,
      "âĹĪâĹĹâĹĲâĹĹâĸ¦âĹĹ": 4218,
      "âĹĪâĹĹâĹĲâĹ«âĸ¦âĹ«": 4219,
      "âĹĪâĸªâĹĲâĹ¬âĸ¦âĹ¬": 4220,
      "âĹĻâĹ¬âĹĴ": 4221,
      "ĠâĹłâĸ±âĸªâĸ¦": 4222,
      "Ġâĸ¨âĹłâĹĵâĸ«": 4223,
      "ĠâĹŀâĹłâĸ¦âĹİâĹ¬": 4224,
      "âĸ²âĸ©âĸ«âĹįâĸ´âĸ¦": 4225,
      "ĠâĹĹâĹĴâĹª": 4226,
      "âĹĵâĸ½": 4227,
      "âĹĵâĹ³": 4228,
      "âĹĹâĹķ": 4229,
      "Ġâĸ¨âĸ´âĸ±": 4230,
      "Ġâĸ¨âĹ§âĸ¼": 4231,
      "âĹĿâĹłâĹĵ": 4232,
      "ĠâĹŀâĸ´âĸ¦?": 4233,
      "ĠâĹĻâĹĵâĸµ": 4234,
      "ĠâĹ°âĸ±": 4235,
      "âĹİâĹłâĹ³âĹłâĸ¼âĹłâĸ¨": 4236,
      "Ġâĸ¨âĹªâĸ¦âĹĪâĹĹâĹİ": 4237,
      "âĹİâĸ´âĸ±âĹ«": 4238,
      "ĠâĹķâĸ´âĹĵâĸ´âĸ¨âĸµ": 4239,
      "ĠâĹķâĹªâĹĵâĹīâĹªâĸ¨âĸ«âĹªâĸ¦": 4240,
      "âĸ±âĹ¨âĸ±": 4241,
      "âĹ¬âĸ¼âĹ¬": 4242,
      "âĸ¾âĹ³": 4243,
      "ĠâĹĢâĸ´âĸ½": 4244,
      "ĠâĹ³âĹŃâĸ¨": 4245,
      "Ġâĸ½âĹªâĸ¦âĹĹ": 4246,
      "âĹĵâĹłâĹĪâĹłâĸ¨âĹ«": 4247,
      "âĸ´âĸ«âĸ´": 4248,
      "âĸ±âĹłâĸ¦âĹĪ": 4249,
      "âĹĻâĹĹ": 4250,
      "Ġâĸ®âĸ´": 4251,
      "ĠâĹķâĹ£âĹĵâĹİâĸ´âĸ¨": 4252,
      "Ġâĸ¼âĹ«âĹĪ": 4253,
      "Ġâĸ·âĹłâĸ¨âĸ±âĸª": 4254,
      "âĹİâĹłâĸ½âĹłâĸ¼âĹłâĸ¨": 4255,
      "âĸ¼âĸ´âĹĲâĹ«âĸ¢âĸµ": 4256,
      "Ġâĸ·âĹ«âĹŀâĹŀâĸ´âĸ«": 4257,
      "âĸ²âĹŃâĸ«âĹįâĹªâĸ¦": 4258,
      "ĠâĹ³âĸ´âĸ¦âĹ«": 4259,
      "ĠâĹ³âĸ´âĸ¦âĹĹ": 4260,
      "âĹ¨âĸ¦âĹ¨âĸ¦": 4261,
      "âĹ¨âĸ¦âĸ¾âĸ¢": 4262,
      "Ġâĸ«âĸ´âĹĵâĸ¨": 4263,
      "âĹĪâĹĹâĹĲâĹ«âĸ¦âĹĹ": 4264,
      "ĠâĹªâĹĪâĹ«âĸ±": 4265,
      "âĹ¨âĹĵâĸ¾": 4266,
      "âĹĭâĹĵâĹł": 4267,
      "ĠâĹ³âĹłâĸ»âĹ¬âĸ½âĹĤâĹĵ": 4268,
      "âĹ±âĸ·âĸł": 4269,
      "Ġ12": 4270,
      "ĠâĹĪâĹ«âĹĲâĹªâĹĵ": 4271,
      "ĠâĹŀâĹĹâĸ¢âĸ´": 4272,
      "ĠâĹŀâĸ©âĹĵâĸ´": 4273,
      "âĸ¡âĹªâĸ¨âĹłâĸ±âĹłâĸł": 4274,
      "ĠâĹ³âĸ©âĸ¢âĹĪâĸ´âĸ¦": 4275,
      "ĠâĹĤâĸ«âĸ¾âĹĵ": 4276,
      "ĠâĹłâĹĵâĹłâĹŀâĸªâĸ¦âĹĪâĹł": 4277,
      "Ġâĸ·âĹªâĹİâĸ´âĸ¦": 4278,
      "âĸ«âĹ¬âĹĵâĸµ": 4279,
      "Ġâĸ¨âĹĤâĸ¼": 4280,
      "âĹĪâĹłâĸ·âĹł": 4281,
      "ĠâĹłâĸ±âĹłâĸ¨": 4282,
      "âĹĨâĹ£âĸ¢": 4283,
      "âĸ±âĹ¬âĸ½âĹĤâĹĵ": 4284,
      "âĹŀâĸªâĸ¦âĹ¬âĸ¢âĸµ": 4285,
      "Ġâĸ¶âĸ·": 4286,
      "Ġâĸ»âĹłâĹĵâĸ«âĹ«": 4287,
      "ĠâĹłâĹĪâĹłâĹİâĹ¬": 4288,
      "ĠâĹ«âĹĴâĹ«": 4289,
      "âĹİâĹ«âĹĴâĸ«âĹĹâĸµ": 4290,
      "ĠâĸŃâĹłâĹ³âĸªâĹĵâĸł": 4291,
      "Ġâĸ¶âĹłâĸ¦âĹĵâĹ¬": 4292,
      "âĹĪâĹ¨âĸ¦âĸµ": 4293,
      "Ġâĸ·âĹªâĹİâĹªâĸ¦": 4294,
      "Ġâĸ«âĹłâĸ«âĸ±âĹ¬âĹİâĸµ": 4295,
      "âĸŃâĹłâĹĵâĹ«âĸ¨âĹłâĸ½âĹĪâĸªâĸµ": 4296,
      "âĹ¨âĸ½": 4297,
      "ĠâĹĪâĹ«âĸ¦": 4298,
      "âĸ¼âĹ«âĸ±": 4299,
      "ĠâĹİâĹłâĹĪ": 4300,
      "ĠâĹ§âĸ¨âĹ¨": 4301,
      "Ġâĸ½âĸ´âĸ¦âĹĹ": 4302,
      "âĸ½âĹ§âĹĵâĹŀâĹ¨âĸ¦?": 4303,
      "âĹĨâĹĹâĸ«": 4304,
      "âĹŀâĸªâĸ¦âĸªâĸ¢âĸµ": 4305,
      "ĠâĹ¢âĹ«âĹİ": 4306,
      "Ġâĸ¡âĸ´âĸ¨": 4307,
      "Ġâĸ¤âĹ§": 4308,
      "Ġâĸ¾âĸ±âĹłâĹĴ": 4309,
      "ĠâĹłâĹĴâĹłâĹĲâĹ¬": 4310,
      "âĹĤâĸ±âĹĪ": 4311,
      "ĠâĹĪâĹłâĹĲ": 4312,
      "Ġâĸ½âĹłâĸ±âĸ¦âĹ¬âĸ¢": 4313,
      "âĹįâĹªâĹŀ": 4314,
      "ĠâĹĹâĹŀâĸ«âĹĹâĸ½âĹ§âĹĵ": 4315,
      "ĠâĹĪâĹªâĹĲâĹ«âĸ±âĸł": 4316,
      "ĠâĹŃâĸ±âĸ¨": 4317,
      "âĸ±âĹłâĹĴâĸ«âĹ¬âĹĵ": 4318,
      "ĠâĹķâĸ´âĹĵâĹīâĸ´âĸ¨âĸ«âĸ´âĸ¦": 4319,
      "'âĸ±âĹª": 4320,
      "ĠâĹłâĸ¦âĹł": 4321,
      "ĠâĹĶ": 4322,
      "âĹ¬âĸ¼âĸª": 4323,
      "âĹ¨âĹ³": 4324,
      "ĠâĹĪâĹ«âĸ±âĹªâĹĵ": 4325,
      "ĠâĹŀâĹĹâĹŀâĸ«": 4326,
      "ĠâĹİâĸ´âĸ¨": 4327,
      "ĠâĹīâĹłâĸ«": 4328,
      "âĹłâĹŀâĸªâĸ¦âĸª": 4329,
      "âĹ¢âĹłâĸ«": 4330,
      "âĹĭâĸ½âĸ¦": 4331,
      "âĹĨâĹªâĸ±": 4332,
      "ĠâĹĢâĹłâĹĴâĹłâĹĵâĸª": 4333,
      "Ġâĸ¨âĹłâĹĵâĸªâĹĴ": 4334,
      "Ġâĸ¨âĹłâĸ±âĸ»": 4335,
      "Ġâĸ¨âĹ§âĸ¦âĸ«âĹĵâĹ§âĸ±": 4336,
      "Ġâĸ¨âĹĤâĸ¦âĸ«âĹĵâĹĤâĸ±": 4337,
      "ĠâĹŀâĹ«âĸ¢âĸ´": 4338,
      "Ġâĸ½âĹŃâĸ¢âĹĪâĹªâĸ¦": 4339,
      "âĹĪâĹ¨âĸ¦?": 4340,
      "âĸªâĸ¼âĹ¬": 4341,
      "âĸ¾âĸł": 4342,
      "âĹĤâĸ¥": 4343,
      "âĹłâĸ«âĹłâĸ¦": 4344,
      "âĸ±âĹĪâĸ´": 4345,
      "âĹĪâĸªâĸ±âĹłâĹĵâĸµ": 4346,
      "âĹĻâĹ«": 4347,
      "ĠâĹķâĹ£âĹĵâĹİâĸ´": 4348,
      "ĠâĹĻâĹ§": 4349,
      "âĹ²âĹĴâĸ«âĸ´": 4350,
      "'âĸ¦âĹ¨âĸ¦": 4351,
      "âĸ¨âĹªâĸ¦âĸł": 4352,
      "Ġâĸ¾âĸ¢âĹ¨âĸ¦": 4353,
      "âĸ¡âĸ´âĸ¨âĹ«": 4354,
      "âĸ¾âĹĴâĸ«âĸ¾âĹĵ": 4355,
      "ĠâĹĢâĸ¾âĸ±âĹ¨âĸ¦": 4356,
      "Ġ*": 4357,
      "âĹłâĹĵâĸ±âĹł": 4358,
      "âĹĴâĹł": 4359,
      "ĠâĹĪâĹ«âĸ±âĸ´âĹĵ": 4360,
      "âĹİâĹłâĹİâĸµ": 4361,
      "âĸ®âĹłâĹĢ": 4362,
      "ĠâĹªâĹĲâĹªâĹĵ": 4363,
      "âĹ³âĹĤâĹĵâĹŀâĸ¾âĸ¦?": 4364,
      "âĹłâĹŀâĹ¬âĸ¦âĸª": 4365,
      "ĠâĹĹâĹŀâĸ«âĹ«âĸ½âĹ§âĹĵ": 4366,
      "Ġâĸ¨âĹłâĸ±âĹİâĹłâĸ¨": 4367,
      "ĠâĹĤâĸ¦âĸ±âĹłâĹĵâĹł": 4368,
      "âĹ²âĸ½âĹ«": 4369,
      "ĠâĹĤâĸ±âĹİâĹłâĸ±âĹ¬": 4370,
      "ĠâĹķâĸ´âĸ±âĹİâĸ´": 4371,
      "ĠâĹĢâĹĹâĸ¢âĹ«": 4372,
      "ĠâĹłâĸ¦âĸ¦âĹª": 4373,
      "ĠâĹīâĹ§âĸ¼âĸ¾âĹĲ": 4374,
      "ĠâĹĢâĹłâĹĢâĹłâĸ¦": 4375,
      "âĹĪâĸ¾âĸ¦âĸµ": 4376,
      "âĸ¶âĹłâĸ¦âĹĵâĹ¬": 4377,
      "âĹĭâĸ¦âĸ±âĹłâĹĴ": 4378,
      "Ġâĸ¶âĹłâĹİâĹłâĹİâĸł": 4379,
      "'âĸ±âĸ´": 4380,
      "âĸ¾âĸ½": 4381,
      "ĠâĹĢâĹªâĸ½": 4382,
      "âĹ³âĹĪâĸªâĸµ": 4383,
      "ĠâĹŀâĸªâĸ¦": 4384,
      "âĹĢâĹªâĹĵ": 4385,
      "Ġâĸ½âĹª": 4386,
      "ĠâĹĴâĸ©âĸ»âĸ·": 4387,
      "Ġâĸ´âĹĲâĸ´âĹĵ": 4388,
      "ĠâĹłâĸ±âĹĪâĸªâĹİâĸµ": 4389,
      "ĠâĹłâĸ¦âĹłâĸ·âĸ«âĹłâĹĵ": 4390,
      "âĸ¢âĹķâĹŃâĹĵ": 4391,
      "ĠâĹĤâĸ±âĹİâĹłâĸ±âĸªâĸµ": 4392,
      "ĠâĹłâĹĪâĹłâĹİâĸªâĸ¦": 4393,
      "Ġâĸ¨âĹłâĹ³âĹĢâĸ´âĸ«": 4394,
      "ĠâĹłâĸ±âĸ«âĹ¬âĸ¦âĹĪâĹł": 4395,
      "ĠâĹĪâĸªâĹĴâĹłâĹĵâĹ¬": 4396,
      "âĹĪâĸªâĹĲâĸªâĸ¦âĸª": 4397,
      "ĠâĹĤâĸ«âĹ¨âĹĵ": 4398,
      "ĠâĹķâĹŃâĸ¢âĹªâĸ±âĸµ": 4399,
      "ĠâĹķâĹłâĹĵâĹĹâĸ»": 4400,
      "âĹ¢âĹ¨âĹŀâĹ¨âĹĵâĹł": 4401,
      "âĹªâĹĢâĹĹâĸ±": 4402,
      "âĸ¨âĹŃâĸ¦": 4403,
      "âĸ½âĹĹâĹİâĸµ": 4404,
      "âĸ½âĹ«âĹİâĸµ": 4405,
      "âĹĤâĹļ": 4406,
      "âĹłâĹŀâĹ¬âĸµ": 4407,
      "ĠâĹĿâĹłâĹĵ": 4408,
      "ĠâĹĪâĸ´âĸµ": 4409,
      "âĹĪâĹ¬âĹĲâĹ¬âĸ¦âĸª": 4410,
      "âĹŀâĸ¾âĸ¦âĹ¨âĸ¢âĸµ": 4411,
      "ĠâĸŃâĹ«âĹī": 4412,
      "Ġâĸ¨âĹĤâĸ¦âĸ«âĹĵâĹ§âĸ±": 4413,
      "ĠâĹĪâĸ´âĹĲâĹĹâĸ±âĸł": 4414,
      "âĸ¸âĹĹ": 4415,
      "ĠâĹĪâĹ§âĸ±âĹłâĹĵ": 4416,
      "Ġâĸ¨âĹĤâĸ±âĹłâĹ³": 4417,
      "Ġâĸ«âĹłâĸ¨âĹĹâĸ»": 4418,
      "Ġâĸ¨âĸ´âĸ¦âĹĪâĹĹâĹİ": 4419,
      "ĠâĹĢâĹ¨âĸ¦âĹĪâĹłâĸ¦": 4420,
      "ĠâĹĢâĹªâĸ¨âĸ±âĹ«": 4421,
      "âĸ¡âĹªâĸ¨âĹĹ": 4422,
      "Ġâĸ½âĸ©âĸ¢âĹĪâĸ´âĸ¦": 4423,
      "âĹİâĹłâĹŀâĹ¬âĸ¦âĹł": 4424,
      "ĠâĹ«âĹĴâĸ«âĹªâĸµ": 4425,
      "ĠâĹªâĹĵâĸ¨âĹªâĸ¨": 4426,
      "âĸ²âĹŃâĸ«âĹįâĸ´âĸ¦": 4427,
      "âĹĪâĸ¾âĸ¨âĸµ": 4428,
      "âĸ«âĸªâĹĵâĸµ": 4429,
      "âĹŀâĹ«âĸ¨": 4430,
      "Ġâĸ¨âĹªâĸ±": 4431,
      "âĸ±âĹłâĹĵâĹĪâĹ¬âĸµ": 4432,
      "ĠâĹ³âĹłâĸ±âĸ¦âĹ¬âĸ¢": 4433,
      "ĠâĹĤâĸ¨âĸ¾": 4434,
      "âĹĪâĹ«âĹĲâĹĹâĸ¦âĹĹ": 4435,
      "âĹĪâĹ«âĹĲâĹ«âĸ¦âĹ«": 4436,
      "ĠâĹªâĹĪâĹĹâĸ±": 4437,
      "âĸ±âĹªâĹĵâĸ±âĸ´": 4438,
      "ĠâĹļâĹłâĹĵ!": 4439,
      "âĹªâĹİâĹĹâĸ¦": 4440,
      "ĠâĹ§âĸ¦âĸ±âĹłâĹĵâĸª": 4441,
      "ĠâĹİâĸ¾âĸ·": 4442,
      "âĸ¼âĹªâĹĲâĹĹâĸ¢âĸµ": 4443,
      "Ġâĸ½âĹłâĸ¨âĸ±âĹłâĹĴ": 4444,
      "ĠâĹĢâĹłâĸ¨âĹłâĸ±âĸªâĹİâĸµ": 4445,
      "âĹĪâĸªâĹĲâĸªâĸ¦âĹ¬": 4446,
      "âĸ¾âĸ·âĹłâĹį": 4447,
      "ĠâĹªâĹĵâĸ¨âĸ´âĸ¨": 4448,
      "âĹŀâĹĹâĸ¨": 4449,
      "âĹ³âĹĪâĹ¬âĸµ": 4450,
      "âĸ±âĹłâĹĢ": 4451,
      "âĹĿâĹłâĹĢâĹłâĸł": 4452,
      "âĹ§âĹĵâĹİâĹłâĸ±": 4453,
      "âĹĪâĹłâĸ«": 4454,
      "âĸªâĸ¦âĸ¼âĹł": 4455,
      "âĸ±âĹĪâĹª": 4456,
      "âĹłâĸ¼âĹ¬": 4457,
      "ĠâĹłâĹĵâĹłâĹĵ": 4458,
      "âĸ±âĸªâĹ³âĹĤâĹĵ": 4459,
      "ĠâĹķâĹ«âĹĪâĸ´âĹĵ": 4460,
      "âĹŁâĹłâĹĴ": 4461,
      "ĠâĹŀâĹłâĸ¦âĹłâĸ«": 4462,
      "ĠâĹĪâĹªâĹĲâĹĹâĸ±âĸł": 4463,
      "ĠâĹ¡âĹłâĸ¼âĸ¨": 4464,
      "ĠâĹĢâĹĩâĸ±âĹķ": 4465,
      "Ġâĸ«âĹłâĹİâĹłâĹİâĹªâĸ¦": 4466,
      "ĠâĹīâĹĤâĸ¼âĹ¨âĹĲ": 4467,
      "Ġâĸ«âĹłâĸ«âĸ±": 4468,
      "âĸ´âĸ¼âĹªâĸ¨âĸµ": 4469,
      "âĸ´âĸ¼âĸ´âĸ¨âĸµ": 4470,
      "Ġâĸ´âĹĵâĸ¨âĹªâĸ¨": 4471,
      "âĹĪâĹ¨âĸ¨âĸµ": 4472,
      "âĸ¦âĹłâĸ¨": 4473,
      "âĹĪâĸ©âĸ¨": 4474,
      "âĸ½âĹĪâĹĹâĸµ": 4475,
      "ĠâĹĢâĹªâĹĵâĹ«": 4476,
      "âĹ¨âĸ¼âĸ¾": 4477,
      "ĠâĹĪâĸ´âĸ±": 4478,
      "âĹªâĸ¦âĹī": 4479,
      "ĠâĹİâĹłâĹī": 4480,
      "âĹĵâĹłâĹİâĹłâĸ¦": 4481,
      "âĸ±âĸ´âĹĵâĹĹâĹİ": 4482,
      "ĠâĹļâĹłâĹĵâĹĪâĸªâĹĵâĸµ": 4483,
      "ĠâĹ¢âĸ´âĸ¦": 4484,
      "ĠâĹĵâĹ¨âĸ·": 4485,
      "âĸ±âĹłâĹİâĹłâĹ³âĹł": 4486,
      "âĹŀâĹ¬âĸµ": 4487,
      "ĠâĹķâĹĹâĸ«âĸ«âĹ«": 4488,
      "Ġ15": 4489,
      "ĠâĹīâĹĤâĸ¼âĸ¾âĹĲ": 4490,
      "âĹģâĹłâĸ«": 4491,
      "ĠâĹķâĹªâĹĵâĸ´âĸ¨âĸµ": 4492,
      "âĹªâĸ¼âĹªâĸ¨âĸµ": 4493,
      "Ġâĸ«âĹªâĹĴâĹªâĸ¨âĸ¨âĸ©âĹĵ": 4494,
      "ĠâĹİâĸ¾âĸ«âĸ±âĹ¨": 4495,
      "ĠâĹįâĹ«âĸ¨âĹĵ": 4496,
      "ĠâĹłâĹĵâĹłâĹĴâĸ«âĹ¬âĹĵ": 4497,
      "ĠâĹİâĹªâĹŀâĹłâĸ¸": 4498,
      "ĠâĹĢâĹłâĸ½âĹłâĸ¦": 4499,
      "ĠâĹĢâĹłâĹ³âĹłâĸ¦": 4500,
      "âĹ³âĹ«âĹİâĸµ": 4501,
      "âĹ³âĹĪâĹĹâĸµ": 4502,
      "ĠâĹĪâĹĹâĸ¦âĸ±âĹª": 4503,
      "ĠâĹ³âĹłâĸ±âĸ¦âĸªâĸ¢": 4504,
      "Ġâĸ¨âĹłâĸ±âĹłâĸ¼âĹłâĹĲ": 4505,
      "âĹªâĸ±âĸ´âĸ¦": 4506,
      "âĸ±âĹ«âĹį": 4507,
      "âĹĨâĹ«âĸ«": 4508,
      "âĹİâĹłâĸ¨âĸµ": 4509,
      "ĠâĹķâĹĩâĹĵâĹªâĹļ": 4510,
      "âĹĹâĹīâĹĹâĸ¦": 4511,
      "'âĸ¦âĸ¾âĸ¦": 4512,
      "ĠâĹ«âĹĴâĹĹ": 4513,
      "Ġâĸ½âĹłâĹĴâĹł": 4514,
      "ĠâĹŀâĹĹâĸ¢âĹª": 4515,
      "ĠâĹ£âĸ¢âĸ´âĸ±": 4516,
      "ĠâĹ³âĹŃâĸ¢âĹĪâĸ´âĸ¦": 4517,
      "Ġâĸ½âĹŃâĸ¢âĹĪâĸ´âĸ¦": 4518,
      "Ġ'": 4519,
      "âĹŀâĹłâĹŀ": 4520,
      "ĠâĹĢâĸ´âĹ³": 4521,
      "ĠâĹŀâĹ¬âĸ¦": 4522,
      "âĸ©âĸ±âĹĪ": 4523,
      "âĹĢâĹ§": 4524,
      "âĹĢâĹĤâĸ±": 4525,
      "ĠâĹłâĸ±âĹłâĹİâĹł": 4526,
      "ĠâĹłâĸ«âĸª": 4527,
      "âĸ±âĸ´âĹĵâĹĪâĸ´": 4528,
      "âĹªâĸ«âĸ´âĹĵ": 4529,
      "âĸ¾âĹĵâĸ«": 4530,
      "âĹĻâĹ¨âĹĵ": 4531,
      "âĹĭâĸ«": 4532,
      "âĹĨâĹªâĹĵâĹ«": 4533,
      "ĠâĹ¢âĹĹâĹİ": 4534,
      "Ġâĸ¢âĹłâĹİâĹłâĸ¦âĹ¬": 4535,
      "ĠâĹ§âĸ¦âĹĪâĹłâĸ¦": 4536,
      "ĠâĹ§âĸ±âĹİâĹłâĸ±âĹ¬âĸµ": 4537,
      "Ġâĸ¨âĹ§âĸ¦âĸ«âĹĵâĹĤâĸ±": 4538,
      "ĠâĹŀâĹłâĸ¨âĸ±âĹłâĸ¦": 4539,
      "âĸ¾âĹŀâĹ¨": 4540,
      "ĠâĹĢâĹ¨âĸ±âĸ¾âĸ¦": 4541,
      "âĹĿâĸ¾âĸ¦âĸ¾âĸ¦": 4542,
      "âĹħâĹĤâĸ¼âĸ¾âĸ¨âĸ±âĹłâĹĵ?": 4543,
      "âĸªâĸł": 4544,
      "âĹŀâĸ±âĹł": 4545,
      "âĸ½âĹŀâĹª": 4546,
      "ĠâĹĢâĹłâĸ±": 4547,
      "ĠâĹĢâĹªâĹĵâĹĹ": 4548,
      "ĠâĹİâĹªâĸ¨": 4549,
      "âĸ´âĸ«âĹ«": 4550,
      "âĹĪâĹªâĸ«": 4551,
      "âĹĪâĹ¬âĹĲâĹ¬âĸ¦âĹ¬": 4552,
      "âĹĻâĹŃâĹĴ": 4553,
      "âĹ¦âĸ«": 4554,
      "Ġâĸ½âĹłâĸ»âĹ¬âĹ³âĹ§âĹĵ": 4555,
      "ĠâĹķâĹ£âĹĵâĹªâĹļ": 4556,
      "Ġâĸ¨âĹłâĸ±âĹĪâĸªâĹĵ": 4557,
      "âĸ«âĹłâĹĪâĹłâĸ¦": 4558,
      "ĠâĹķâĹĩâĹĵâĹŃ": 4559,
      "ĠâĹĻâĹª": 4560,
      "ĠâĹĦâĸ¼": 4561,
      "Ġâĸ«âĹłâĸ¨âĹ«âĸ»": 4562,
      "Ġâĸ«âĹłâĹĢâĹ«": 4563,
      "Ġâĸ¾âĸ¦âĸ¾âĸ«": 4564,
      "âĸ½âĹłâĹĵ": 4565,
      "ĠâĹłâĹĹâĸ«": 4566,
      "ĠâĹīâĹ«âĸ¢": 4567,
      "âĸ¶âĹª": 4568,
      "âĸ±âĹªâĹĵâĹ«âĹİ": 4569,
      "âĹŀâĹ¨âĸ¦!": 4570,
      "ĠâĹłâĸ±âĸµ": 4571,
      "âĹĨâĸ©âĸ¦": 4572,
      "ĠâĹ«âĹŀâĸ«âĹ«âĸ½âĹ§âĹĵ": 4573,
      "Ġâĸ´âĸ«âĹĵâĹłâĹį": 4574,
      "Ġâĸ·âĹłâĸ¨âĸ±âĹ¬": 4575,
      "Ġâĸ·âĹªâĹĵâĸ¨âĹªâĹŀ": 4576,
      "ĠâĹłâĹĵâĸ¨âĹłâĹĪâĹłâĹĴâĸªâĹİ": 4577,
      "âĸ±âĹ¨âĹĲ": 4578,
      "ĠâĹĪâĹ¨âĹĵâĸ¾âĹİ": 4579,
      "ĠâĹ£âĸ±âĸ©âĹİ": 4580,
      "âĹĶâĹī": 4581,
      "ĠâĹłâĹĵâĹłâĹŀâĹ¬âĸ¦âĹĪâĹł": 4582,
      "Ġâĸ±âĹłâĸ¦âĹªâĸ«": 4583,
      "âĸ¶âĹłâĹĢâĹĹ": 4584,
      "Ġâĸ´âĹĵâĸ¨âĸ´âĸ¨": 4585,
      "ĠâĹĢâĸ´âĹĵâĹĹ": 4586,
      "âĹĤâĹŀâĸ«": 4587,
      "ĠâĹĪâĹĹâĸ±âĸ´âĹĵ": 4588,
      "ĠâĹĪâĹ«âĸ¦âĸ±âĸ´": 4589,
      "âĸ´âĸ¦âĹī": 4590,
      "Ġâĸ¨âĹłâĸ±âĹłâĸ¼âĹłâĸ¨": 4591,
      "ĠâĹªâĹŀâĸ¨âĹĹ": 4592,
      "âĹĨâĸ©": 4593,
      "âĸ¢âĹķâĸ©âĹĵ": 4594,
      "ĠâĹķâĹĩâĹĵâĸ´âĹļ": 4595,
      "ĠâĹĤâĸ¦âĹĪâĹłâĸ¦": 4596,
      "ĠâĹłâĹĪâĹłâĹİâĹ¬âĸ¦": 4597,
      "ĠâĹĹâĹĴâĹĹ": 4598,
      "ĠâĹłâĹĵâĸ¨âĹłâĹĪâĹłâĹĴâĹ¬âĹİ": 4599,
      "âĸ®âĹłâĹłâĸ«": 4600,
      "Ġâĸ¨âĹªâĸ¦âĹĪâĹ«âĹİ": 4601,
      "ĠâĹĪâĸ¾âĹĵâĹ¨âĹİ": 4602,
      "ĠâĹŀâĹ«âĸ¢âĹª": 4603,
      "âĸ¡âĸ´âĸ¨âĹłâĸ±âĹłâĸł": 4604,
      "ĠâĹłâĹĵâĹłâĹĪâĹł": 4605,
      "Ġâĸ·âĹĹâĹŀâĹŀâĸ´": 4606,
      "Ġâĸ½âĸ©âĸ¢âĹĪâĹªâĸ¦": 4607,
      "ĠâĹķâĸ´âĹĵâĹīâĹªâĸ¨âĸ«âĸ´âĸ¦": 4608,
      "ĠâĹĿâĹłâĹĴâĸ¨âĹł": 4609,
      "âĸ±âĹ«âĸ±": 4610,
      "âĸ½âĹłâĸ±": 4611,
      "ĠâĹłâĹĪâĸª": 4612,
      "âĹłâĸ¼âĸ·": 4613,
      "âĹłâĸ¦âĹłâĹļâĹłâĹĵ": 4614,
      "ĠâĹĩâĸ»": 4615,
      "ĠâĹķâĹĩâĹĵâĹİâĹªâĸ¨": 4616,
      "âĹ¤âĹłâĸ¨": 4617,
      "âĹĬâĸ½âĹĹ": 4618,
      "âĹĲâĹ«âĹİ!": 4619,
      "ĠâĹĺâĸ±": 4620,
      "Ġâĸ«âĹłâĹİâĹłâĹİâĸ´âĸ¦": 4621,
      "ĠâĹĢâĸ´âĸ¨âĸ±âĹĹ": 4622,
      "ĠâĹ³âĸ©âĸ¢âĹĪâĹªâĸ¦": 4623,
      "ĠâĹ§âĸ±âĹłâĹĢâĹ«âĸ±âĹ«âĹĵ": 4624,
      "Ġâĸ·âĸ´âĹİâĸ´âĸ¦": 4625,
      "ĠâĹķâĹ£âĹĵâĸ©âĹĴâĸ©âĹĵâĹŃâĸ¢âĸµ": 4626,
      "âĹłâĹĪâĹłâĹİ": 4627,
      "âĸ½âĹĪâĸªâĸµ": 4628,
      "âĹ³âĹĹâĹİâĸµ": 4629,
      "âĹłâĸ¦âĸ±âĹłâĹĵ": 4630,
      "ĠâĹĪâĹ«âĸ¦âĸ±âĹª": 4631,
      "ĠâĹİâĹŃâĸ¢": 4632,
      "âĹļâĹĹ": 4633,
      "ĠâĹ³âĹª": 4634,
      "ĠâĹ³âĸ©âĸ¨": 4635,
      "âĹ«âĸ±âĸ´": 4636,
      "ĠâĹļâĹłâĹĵâĹĪâĹ¬âĹĵâĸµ": 4637,
      "ĠâĹ£âĸ»": 4638,
      "âĹĭâĹĵâĸ¨âĹłâĹĪâĹłâĹĴ": 4639,
      "ĠâĹĵâĹłâĸ¦": 4640,
      "âĸ±âĹłâĹİâĹłâĸ½âĹł": 4641,
      "ĠâĹĨâĹªâĹĵ": 4642,
      "ĠâĹ³âĹłâĹĴâĹł": 4643,
      "ĠâĹķâĹªâĹĵâĹªâĸ¨âĸµ": 4644,
      "âĹ¨âĹĴâĸ«âĸ¾âĹĵ": 4645,
      "ĠâĹ£âĸ±âĹŃâĹİ": 4646,
      "10": 4647,
      "âĹĪâĹĵâĹł": 4648,
      "âĸ¾âĸ¼": 4649,
      "âĹ³âĹłâĹĵ": 4650,
      "âĹİâĹłâĹİâĹł": 4651,
      "ĠâĹīâĹ£": 4652,
      "âĸ±âĸ´âĸł": 4653,
      "ĠâĹĪâĹªâĸµ": 4654,
      "âĹ¢âĹ¬": 4655,
      "âĸ±âĹłâĸ¦âĹĪâĹ¬âĹĵ": 4656,
      "ĠâĹłâĹĵâĸ¨": 4657,
      "âĹĪâĹ¬âĸ±âĹłâĹĵâĸµ": 4658,
      "ĠâĹįâĹ§âĸ«": 4659,
      "ĠâĹĵâĸ©": 4660,
      "ĠâĹĤâĸ¦âĸ¾âĸ¦âĸ±âĹł": 4661,
      "âĹĬâĸ½âĹ«": 4662,
      "ĠâĹĨâĹŃ": 4663,
      "âĹłâĹĵâĸ¨âĹªâĸ¦": 4664,
      "Ġâĸ©âĸ±âĸ¨": 4665,
      "Ġâĸ·âĹªâĹĵâĸ¨âĸ´âĹŀ": 4666,
      "âĸ®âĹłâĹī": 4667,
      "âĹİâĸ´âĸ±âĹĹâĸ½": 4668,
      "ĠâĹŀâĹ«âĸ¢âĹĹâĸ¦": 4669,
      "âĸªâĸ½âĹĤâĹĵâĹ¨âĹİâĸµ": 4670,
      "âĹŀâĹłâĹİâĸł": 4671,
      "âĹªâĸ¼âĸ´âĸ¨âĸµ": 4672,
      "ĠâĹ§âĸ«âĸ¾âĹĵ": 4673,
      "Ġâĸ·âĸ´âĹİâĹªâĸ¦": 4674,
      "âĹĵâĸ¾": 4675,
      "âĹİâĸł": 4676,
      "âĸºâĸ¶âĹªâĹĴâĹªâĸ¨âĸ¨âĹŃâĹĵ": 4677,
      "ĠâĹªâĹŀâĸ¨âĹ«": 4678,
      "âĹĻâĹłâĹļ": 4679,
      "âĸ±âĹĹâĹĴ": 4680,
      "ĠâĹĢâĹłâĹĴâĹłâĹĵâĹ¬": 4681,
      "âĹĲâĹ«âĸ¦âĸ´": 4682,
      "âĹĬâĸ¦âĹłâĸ¦": 4683,
      "âĹ²âĹ³âĹ«": 4684,
      "ĠâĹªâĸ«âĹĵâĹłâĹį": 4685,
      "ĠâĹĤâĸ±âĹİâĹłâĹĪâĹłâĸ¦": 4686,
      "ĠâĹĭâĸ¦âĸ¦": 4687,
      "âĹŀâĹ«âĸµ": 4688,
      "Ġâĸ·âĸ´âĹĵâĸ¨âĸ´âĹŀ": 4689,
      "âĹ±âĸ¦âĸ±âĹłâĹĵ": 4690,
      "Ġâĸ¨âĸ¾âĹĵâĸ«": 4691,
      "Ġâĸ¨âĹłâĸ½âĹĢâĹªâĸ«": 4692,
      "âĹĽâĸ¢": 4693,
      "âĹĪâĸ©âĹĲâĸ©âĹİ": 4694,
      "Ġâĸ·âĹłâĹŀâĸ«âĹł": 4695,
      "ĠâĹĢâĸ´âĸ±âĸ¨âĹ«": 4696,
      "ĠâĹķâĹªâĹĵâĹīâĸ´âĸ¨âĸ«âĸ´âĸ¦": 4697,
      "\"âĸµ": 4698,
      "âĹ³âĹłâĸ»": 4699,
      "âĹ³âĹŀâĸ´": 4700,
      "ĠâĹłâĹ«âĸ«": 4701,
      "Ġâĸ½âĹŃâĸ¨": 4702,
      "Ġâĸ«âĸ´âĹŀ": 4703,
      "âĸ´âĹİâĹĹâĸ¦": 4704,
      "ĠâĹ§âĸ¦âĹ¨âĸ¦âĸ±âĹł": 4705,
      "ĠâĹ§âĸ±âĹİâĹłâĹĪâĹłâĸ¦": 4706,
      "ĠâĹİâĹ¨âĸ·": 4707,
      "ĠâĹ¦âĸ¦âĸ¦": 4708,
      "ĠâĹłâĹīâĹ¬": 4709,
      "âĸ¬âĹłâĸ¦": 4710,
      "Ġâĸ¨âĹ§âĸ±âĹłâĸ½": 4711,
      "âĹłâĹŀâĸªâĸµ": 4712,
      "ĠâĹĢâĹ£âĸ±âĹķ": 4713,
      "ĠâĹķâĹªâĸ±âĹĪâĹĹâĸµ": 4714,
      "Ġâĸ¨âĹłâĹ³âĹĢâĹªâĸ«": 4715,
      "ĠâĹ£âĸ¢âĸ©âĹĵ": 4716,
      "ĠâĹĪâĹ¬âĹĴâĹłâĹĵâĹ¬": 4717,
      "ĠâĹĢâĸ´âĸ±âĸ¨âĹĹ": 4718,
      "ĠâĹĢâĹłâĸ¨âĹİâĹłâĹ³âĸªâĸ¦âĸµ": 4719,
      "âĸºâĸ¶âĹªâĹĴâĹªâĸ¨âĸ¨âĹŃâĹĵâĸ±âĹªâĹĵâĸµ": 4720,
      "âĹ³âĹłâĸ±": 4721,
      "Ġâĸ¨âĹĹâĹĵ": 4722,
      "Ġâĸ«âĹłâĸ±": 4723,
      "âĹªâĸ¨âĸ±âĹĹ": 4724,
      "âĹ¢âĹ¨âĹĵ": 4725,
      "âĸ±âĹłâĸ¦âĹĪâĸªâĹĵ": 4726,
      "ĠâĹ£âĹĪâĸ´": 4727,
      "âĹĹâĸ¨âĸµ": 4728,
      "âĹĨâĸ´âĹĵâĹĹ": 4729,
      "âĹĿâĹ¨âĹķâĹŃâĸ¦": 4730,
      "ĠâĹĵâĸ¾âĸ·": 4731,
      "âĹ²âĸ¨âĹĹ": 4732,
      "Ġâĸ«âĹłâĸ¦âĸªâĹĴâĸ«": 4733,
      "âĸ¼âĸ´âĹĲâĹĹâĸ¢âĸµ": 4734,
      "ĠâĹ³âĹłâĹĵâĹłâĸ«": 4735,
      "âĸªâĸ±âĹĪâĸª": 4736,
      "ĠâĹĵâĹłâĸ·âĹłâĸ«âĹŀâĹ¬âĸ¢": 4737,
      "Ġâĸ«âĹ§âĸ»âĸ±âĹłâĸ¦": 4738,
      "30": 4739,
      "âĸ±âĹĹâĸ±": 4740,
      "âĸ½âĹªâĸ¦": 4741,
      "ĠâĹĪâĹłâĸ½âĹłâĸ¦": 4742,
      "âĹ«âĸ¦âĹī": 4743,
      "âĹ¬âĸ¦âĹĪâĹłâĸ¨âĹĹ": 4744,
      "Ġâĸ·âĹ«âĸ¨": 4745,
      "ĠâĹīâĹ«âĹįâĸ«": 4746,
      "ĠâĹĴâĹĹâĹĵâĸ¨": 4747,
      "ĠâĹªâĹįâĸ´âĸ¦": 4748,
      "âĸ¯âĸ´âĹĵâĹª": 4749,
      "ĠâĹ¢âĹłâĸ«": 4750,
      "Ġâĸ¼âĹªâĸ¢": 4751,
      "âĸ¡âĹ§": 4752,
      "ĠâĹ¨âĸ±âĹłâĹĴ": 4753,
      "ĠâĹĤâĸ±âĸµ": 4754,
      "Ġâĸ¡âĹł": 4755,
      "ĠâĹłâĹīâĸª": 4756,
      "ĠâĹĢâĹ«âĸ¢âĹ«": 4757,
      "Ġâĸ¦âĹłâĹŀâĸªâĸ±?": 4758,
      "ĠâĹķâĸ´âĸ±âĹĪâĹĹâĸµ": 4759,
      "ĠâĹŀâĸ´âĹĢ": 4760,
      "ĠâĹłâĹĪâĹ¬âĹİ": 4761,
      "âĸªâĸ±âĹĪâĹ¬": 4762,
      "âĹĿâĹłâĹĢâĹłâĸ¦": 4763,
      "âĹĪâĹŃâĹĲâĹŃâĹİ": 4764,
      "Ġâĸ·âĹ«âĹŀâĹŀâĹªâĸ«": 4765,
      "ĠâĹĩâĸ¢âĸ´âĸ±": 4766,
      "Ġ30": 4767,
      "ĠâĹķâĸ´âĹĵâĹīâĸ´âĸ¨âĸ«âĹªâĸ¦": 4768,
      "âĸ¶âĹłâĹĢâĹ«": 4769,
      "ĠâĹİâĸ´âĹŀâĹłâĸ¸": 4770,
      "âĹªâĹĪâĹª": 4771,
      "âĹ³âĹŀâĹª": 4772,
      "âĹĲâĸ´âĸ¦": 4773,
      "âĹįâĸ´âĹŀ": 4774,
      "âĸ¶âĸ´": 4775,
      "âĹªâĸ±âĸ±": 4776,
      "Ġâĸ´âĹŀ": 4777,
      "âĹĨâĹ«": 4778,
      "Ġâĸ®âĹłâĹĵ": 4779,
      "âĸ±âĹĹâĹį": 4780,
      "ĠâĹĢâĹ«âĸ±âĹİâĹĹ": 4781,
      "ĠâĹİâĸªâĹ³": 4782,
      "âĸ´âĹİâĹ«âĸ¦": 4783,
      "âĸ«âĹĹâĹį": 4784,
      "âĸªâĸ±âĹ¬âĸ¨": 4785,
      "âĹĹâĹīâĹ«âĸ¦": 4786,
      "âĹŀâĸªâĸµ": 4787,
      "ĠâĹłâĸ¨âĸªâĸ±": 4788,
      "ĠâĹĺâĹļâĹªâĸ«âĸł": 4789,
      "ĠâĹŀâĹĹâĸ¢âĹĹâĸ¦": 4790,
      "âĹ¬âĹ³âĹ§âĹĵâĹ¨âĹİâĸµ": 4791,
      "Ġâĸ¨âĹłâĹļâĹķâĹł": 4792,
      "âĸ¦âĹªâĸ«": 4793,
      "âĸ´âĹĪâĹª": 4794,
      "âĸ½âĸ´âĸ¦": 4795,
      "âĹ³âĹłâĸ¼âĹłâĸ¨âĸµ": 4796,
      "ĠâĹİâĹłâĹĵ": 4797,
      "âĸ±âĹłâĸ±": 4798,
      "âĸªâĸ¦?": 4799,
      "âĹļâĹ«": 4800,
      "ĠâĹłâĹĪâĹ¬": 4801,
      "Ġâĸ¦âĹłâĸ¢": 4802,
      "âĸ±âĸ´âĹĵâĸ±âĹª": 4803,
      "âĹİâĸ´âĹĪâĹªâĸ¦": 4804,
      "Ġâĸ»âĹ«âĹŀ": 4805,
      "âĹŀâĸ¾âĸ¦âĸ¾âĸ¢âĸµ": 4806,
      "âĹŀâĹłâĸµ": 4807,
      "âĹŀâĹłâĸ¦âĹ¬âĸ¢": 4808,
      "âĹĬâĸ¨âĹĹ": 4809,
      "âĸ©âĹİâĸł": 4810,
      "ĠâĹŀâĹĹâĸ¢âĹĹ": 4811,
      "ĠâĹĢâĹªâĸ¨âĸ±âĹĹ": 4812,
      "ĠâĹĢâĹªâĸ±âĸ¨âĹ«": 4813,
      "âĸ¦âĹķâĹ«âĸ±": 4814,
      "Ġâĸ±âĹłâĸ¦âĸ´âĸ«": 4815,
      "âĸ´âĹį": 4816,
      "âĸ´âĹİâĹĹ": 4817,
      "ĠâĹİâĹŃâĹİ": 4818,
      "âĸªâĸ¦âĹĪâĹłâĸ¨âĹ«": 4819,
      "âĹĩâĸ»": 4820,
      "âĹłâĹŀâĸ½âĹĤâĸ¦": 4821,
      "âĹłâĹĲâĹİ": 4822,
      "âĸ±âĸ´âĹĵâĸ±âĸ´": 4823,
      "âĸ±âĸ´âĹĵâĹĪâĹª": 4824,
      "Ġâĸ»âĹłâĹ³": 4825,
      "Ġâĸ´âĹŀâĸ¨âĹĹ": 4826,
      "âĹĻâĹĵâĸµ": 4827,
      "ĠâĹłâĸ±âĹ¬âĸ»": 4828,
      "âĹ¦âĸ¨": 4829,
      "Ġâĸ®âĹ§âĸ¦": 4830,
      "âĸ¿âĸ·âĸł": 4831,
      "ĠâĹ¢âĹĵâĹłâĸ±": 4832,
      "ĠâĹķâĹ£âĹĵâĹŃ": 4833,
      "ĠâĹķâĹĩâĹĵâĸ©": 4834,
      "âĸ«âĹĹ?": 4835,
      "âĸ¾âĸ¨âĹłâĹĵâĹ¬": 4836,
      "ĠâĹķâĹªâĸ±âĹİâĹª": 4837,
      "Ġâĸ·âĸ´âĹĵâĸ¨âĹªâĹŀ": 4838,
      "Ġâĸ¤âĹĤ": 4839,
      "ĠâĹłâĸ¨âĹ¬âĸ±": 4840,
      "ĠâĹŀâĹĹâĸ¢âĹ«": 4841,
      "Ġâĸ«âĹªâĹŀâĸ«": 4842,
      "ĠâĹĵâĹłâĸ·âĹłâĸ«âĹŀâĸªâĸ¢": 4843,
      "âĸ±âĹłâĹİâĸł": 4844,
      "âĸ¦âĹķâĹĹâĸ±": 4845,
      "âĸ±âĹĹâĹİ": 4846,
      "âĹĪâĸªâĹİâĸł": 4847,
      "âĹ§âĸł": 4848,
      "âĹĿâĹłâĸ·": 4849,
      "Ġâĸ½âĸ©âĸ¨": 4850,
      "Ġâĸ½âĸªâĸ±âĹĪ": 4851,
      "ĠâĹīâĹĹâĹįâĸ«": 4852,
      "ĠâĹªâĹĲâĸ´âĹĵ": 4853,
      "Ġâĸ´âĹĲâĹªâĹĵ": 4854,
      "Ġâĸ´âĹŀâĸ¨âĹ«": 4855,
      "âĹªâĹİâĹ«âĸ¦": 4856,
      "âĹ«âĸ¨âĸµ": 4857,
      "ĠâĹ§âĸ±âĹİâĹłâĹŀâĹ¬": 4858,
      "âĸ±âĹłâĹĵâĹ¬âĸµ": 4859,
      "âĹŀâĹĹâĸµ": 4860,
      "ĠâĹ°âĹļâĹªâĸ«âĸł": 4861,
      "ĠâĹķâĹªâĸ±âĹĪâĹ«âĸµ": 4862,
      "ĠâĹīâĹªâĸ¨âĹ«âĸ±": 4863,
      "âĹ®âĸ¢": 4864,
      "ĠâĹĤâĸ±âĹłâĹĢâĹĹâĸ±âĹ«âĹĵ": 4865,
      "Ġâĸ¢âĹłâĸ«âĹªâĸ¦âĸµ": 4866,
      "âĸ½âĹĪâĹ¬âĸµ": 4867,
      "ĠâĹĢâĹĤâĸ¨": 4868,
      "âĹĤâĸł": 4869,
      "ĠâĹİâĹªâĸ«": 4870,
      "âĹłâĸ±âĸ±": 4871,
      "âĸ±âĹłâĹĵâĹĪâĸªâĸµ": 4872,
      "ĠâĹłâĹĲâĹĵ": 4873,
      "ĠâĹīâĹĹâĸ¢": 4874,
      "âĹķâĹ«âĸ±": 4875,
      "ĠâĹĴâĸ¾âĸ¦âĹ¨": 4876,
      "âĸ®âĹªâĹļ": 4877,
      "âĹħâĹªâĸ¨": 4878,
      "âĸ«âĹ«âĹį": 4879,
      "Ġâĸ¢âĹłâĹİâĹłâĸ¦âĸª": 4880,
      "âĹ²âĸ¦âĹłâĸ¦": 4881,
      "ĠâĹĤâĸ±âĹİâĹłâĸ±âĹ¬âĸµ": 4882,
      "ĠâĹłâĹĪâĹłâĹİâĸ±âĹłâĹĵ": 4883,
      "Ġâĸ¨âĹ§âĹĴ": 4884,
      "Ġâĸ·âĹłâĸ±âĹĪâĸ´": 4885,
      "âĸ¡âĹªâĸ¨âĹ«": 4886,
      "ĠâĹĩâĸ±âĸ©âĹİ": 4887,
      "ĠâĹķâĸ´âĹĵâĹīâĹªâĸ¨âĸ«âĹªâĸ¦": 4888,
      "ĠâĹłâĹŀâĸ±âĹ¬âĸ¦âĹĪâĹł": 4889,
      "'âĹĪâĹłâĸ¨âĹ«": 4890,
      "ĠâĹİâĸ©âĸ¢": 4891,
      "âĹ¨âĸ¦âĹī": 4892,
      "ĠâĹīâĹłâĸ¨": 4893,
      "ĠâĹĴâĹłâĸ·": 4894,
      "Ġâĸ»âĹłâĸ½": 4895,
      "âĹĻâĸ©âĹĴ": 4896,
      "ĠâĹĢâĹĹâĸ±âĹİâĹĹ": 4897,
      "ĠâĹĢâĹªâĸ¦âĸµ": 4898,
      "ĠâĹķâĹĩâĹĵâĹİâĸ´": 4899,
      "ĠâĹĢâĹłâĸ¦âĹłâĸł": 4900,
      "ĠâĹĪâĸ´âĹĲâĹ«âĸ±âĸł": 4901,
      "ĠâĹŃâĸ¢âĹķ": 4902,
      "ĠâĹªâĹļâĹª": 4903,
      "Ġâĸ½âĹłâĹĴâĹłâĹİ": 4904,
      "ĠâĹĢâĹªâĸ±âĸ¨âĹĹ": 4905,
      "ĠâĹĤâĸ±âĹłâĹĢâĹ«âĸ±âĹĹâĹĵ": 4906,
      "ĠâĹĴâĹªâĸ¨âĹ«âĸ±âĹĪâĹª": 4907,
      "ĠâĹĢâĹ§âĸ¨": 4908,
      "âĹ³âĹĹâĸ¦": 4909,
      "ĠâĹĪâĹ«âĸ½âĹ§âĹĵ": 4910,
      "âĹļâĹĵ": 4911,
      "ĠâĹłâĸ¸âĹłâĸ¦": 4912,
      "Ġâĸ½âĹ¬âĸ±âĹĪ": 4913,
      "âĸ±âĸ´âĹĴâĸ«âĹ«âĹĵ": 4914,
      "âĹłâĹŀâĹ³âĹ§âĸ¦": 4915,
      "Ġâĸ¨âĹłâĹĵâĹ¬âĹĴ": 4916,
      "ĠâĹķâĹ£âĹĵâĹĪâĹŃâĹİâĸµ": 4917,
      "Ġâĸ¶âĹłâĹĢ": 4918,
      "âĸ±âĹłâĹĵâĸªâĸµ": 4919,
      "âĹĿâĹ«âĹĵâĸ¨âĹłâĹī": 4920,
      "âĹ«âĹīâĹ«âĸ¦": 4921,
      "Ġâĸ´âĹļâĹª": 4922,
      "âĹİâĹĹâĹĴâĸ«âĹĹâĸµ": 4923,
      "ĠâĹ§âĸ«âĹ¨âĹĵ": 4924,
      "ĠâĹ§âĸ±âĹłâĹĢâĹĹâĸ±âĹĹâĹĵ": 4925,
      "âĹĿâĹłâĸ¢âĸª": 4926,
      "âĹ¨âĸ·âĹłâĹį": 4927,
      "âĹĨâĸ©âĸ¢âĹªâĸ±": 4928,
      "Ġâĸ¾âĸ¦âĹ¨âĸ«": 4929,
      "âĹªâĹĢâĹ«âĸ±âĹĹâĹĵ": 4930,
      "âĹ«âĸ¼âĸ¨": 4931,
      "âĸ¾âĹŀâĸ«": 4932,
      "âĹ¨âĸ¼âĹ¨": 4933,
      "âĹ§âĸ¥": 4934,
      "âĸ»âĸ´âĹĵ": 4935,
      "âĹĪâĹłâĸ½": 4936,
      "Ġâĸ½âĹłâĹļâĹłâĹĴ": 4937,
      "âĹķâĹłâĹĵ": 4938,
      "âĸ´âĸ«âĹĹ": 4939,
      "âĸ½âĹĤâĹĵâĹŀâĸ¾âĸ¦?": 4940,
      "âĹłâĸ½âĸ±âĹł": 4941,
      "âĹªâĸ±âĹ«âĹİâĸµ": 4942,
      "ĠâĹłâĸ±âĹ¬âĹĴ": 4943,
      "âĹ¦âĹĵâĸ¨âĹłâĹĪâĹłâĹĴ": 4944,
      "Ġâĸ¨âĹłâĹĵâĸªâĹĴâĸ«": 4945,
      "ĠâĹĢâĹłâĸ¨âĸł": 4946,
      "âĹ²âĸ¦": 4947,
      "ĠâĹĨâĸ´âĹĵ": 4948,
      "ĠâĹİâĹ¨âĸ·âĸ«": 4949,
      "âĹ¨âĸ¨âĹłâĸ«": 4950,
      "âĸ±âĹŃâĹĲ": 4951,
      "Ġâĸ·âĹłâĸ½âĹļâĹłâĸ¦": 4952,
      "Ġâĸ½âĹ§âĸ¨âĹŀâĹł": 4953,
      "âĹĪâĹ«âĹĵ?": 4954,
      "ĠâĹīâĹ§âĸ¼âĹ¨âĹĲ": 4955,
      "Ġâĸ·âĹĹâĹŀâĹŀâĹªâĸ«": 4956,
      "Ġ50": 4957,
      "ĠâĹĪâĹĩâĹĵâĸ«": 4958,
      "ĠâĹįâĹĹâĸ±âĹİ": 4959,
      "âĹªâĸ¼": 4960,
      "âĸ«âĸł": 4961,
      "âĸ«âĹ¬âĸ¨": 4962,
      "âĹŀâĸ·": 4963,
      "âĸ½âĹŀâĸ´": 4964,
      "âĹ³âĹĪâĹ«âĸµ": 4965,
      "âĸ¼âĸ¾âĸ±": 4966,
      "ĠâĹ³âĸªâĸ±âĹĪ": 4967,
      "âĹĹâĸ±âĸ±": 4968,
      "âĸ´âĸ¨âĸ±âĹĹ": 4969,
      "âĹŀâĸ«âĹªâĹĵ": 4970,
      "âĹĪâĹªâĹļ": 4971,
      "ĠâĹĿâĸ´âĸ±": 4972,
      "ĠâĹ£âĹĵ": 4973,
      "ĠâĹĩâĹĵ": 4974,
      "âĹĭâĸ¨": 4975,
      "âĹĭâĹŀâĸ±âĸªâĸ¦âĹĪâĹł": 4976,
      "ĠâĹķâĹĹâĹĪâĹªâĹĵ": 4977,
      "âĹĲâĹĹâĸ¦âĹª": 4978,
      "Ġâĸ¡âĸ·": 4979,
      "ĠâĹĴâĸ´âĹ³âĸµ": 4980,
      "Ġâĸ¨âĹĤâĹĴ": 4981,
      "Ġâĸ·âĹłâĸ±âĸ¨": 4982,
      "Ġâĸ·âĹłâĸ±âĸ±âĸ´": 4983,
      "âĹİâĸ´âĸ±âĹ«âĹ³": 4984,
      "ĠâĹŀâĹĹâĸ¢âĹ«âĸ¦": 4985,
      "ĠâĹŀâĹ«âĸ¢âĹĹ": 4986,
      "Ġâĸ»âĸ±âĹłâĸ¦âĹ¬âĹİ": 4987,
      "ĠâĹ£âĸ¢âĹªâĸ±": 4988,
      "ĠâĹŀâĹ¬âĸ¼âĹłâĸ¨": 4989,
      "ĠâĹªâĹĲâĸ±âĹªâĸ¦": 4990,
      "ĠâĹĪâĹ«âĸ½âĹĤâĹĵâĹŀâĹ¨âĸ¦?": 4991,
      "ĠâĹĪâĹ«âĹ³âĹĤâĹĵâĹŀâĹ¨âĸ¦?": 4992,
      "âĹĹâĸ¼âĸ¨": 4993,
      "âĹĪâĹĵ": 4994,
      "âĸ«âĹ¬âĹİ": 4995,
      "âĹ¨âĹĢ": 4996,
      "Ġâĸ¨âĹ«âĹĵ": 4997,
      "âĹĹâĸ¦âĹī": 4998,
      "âĹ«âĸ±âĸ±": 4999,
      "ĠâĹĴâĸ¾âĸ¦âĸ¾": 5000,
      "âĹ¢âĹłâĸ¢": 5001,
      "âĸ±âĹªâĹĵâĹĹâĹİ": 5002,
      "âĸ±âĹªâĹĵâĸ±âĹª": 5003
    },
    "merges": [
      [
        "â",
        "Ĺ"
      ],
      [
        "â",
        "ĸ"
      ],
      [
        "âĹ",
        "ł"
      ],
      [
        "Ġ",
        "âĹ"
      ],
      [
        "âĸ",
        "¦"
      ],
      [
        "âĹ",
        "ĵ"
      ],
      [
        "âĸ",
        "±"
      ],
      [
        "âĹ",
        "İ"
      ],
      [
        "âĸ",
        "´"
      ],
      [
        "âĹ",
        "ª"
      ],
      [
        "âĹ",
        "Ĺ"
      ],
      [
        "âĹ",
        "«"
      ],
      [
        "âĸ",
        "¨"
      ],
      [
        "âĹ",
        "Ī"
      ],
      [
        "âĸ",
        "µ"
      ],
      [
        "âĸ",
        "«"
      ],
      [
        "âĹ",
        "¬"
      ],
      [
        "âĸ",
        "ª"
      ],
      [
        "âĹ",
        "ŀ"
      ],
      [
        "âĸ",
        "½"
      ],
      [
        "âĸ",
        "¾"
      ],
      [
        "ĠâĹ",
        "Ģ"
      ],
      [
        "âĹ",
        "¨"
      ],
      [
        "âĸ",
        "¢"
      ],
      [
        "âĹł",
        "âĹĵ"
      ],
      [
        "âĹ",
        "³"
      ],
      [
        "âĹł",
        "âĸ¦"
      ],
      [
        "âĹ",
        "Ĵ"
      ],
      [
        "Ġ",
        "âĸ"
      ],
      [
        "âĹ",
        "Ĳ"
      ],
      [
        "âĹ",
        "§"
      ],
      [
        "âĹ",
        "Ĥ"
      ],
      [
        "ĠâĹ",
        "Ī"
      ],
      [
        "Ġ",
        "âĸ¨"
      ],
      [
        "âĹİ",
        "âĹł"
      ],
      [
        "âĸ",
        "¼"
      ],
      [
        "ĠâĹ",
        "ķ"
      ],
      [
        "âĹ",
        "Ń"
      ],
      [
        "ĠâĹ",
        "ŀ"
      ],
      [
        "âĸ",
        "ł"
      ],
      [
        "âĸ",
        "©"
      ],
      [
        "âĹ",
        "ī"
      ],
      [
        "âĸ´",
        "âĸ¦"
      ],
      [
        "âĹİ",
        "âĸµ"
      ],
      [
        "âĹ",
        "Ģ"
      ],
      [
        "âĹª",
        "âĸ¦"
      ],
      [
        "âĸ´",
        "âĹĵ"
      ],
      [
        "âĹĹ",
        "âĸ¦"
      ],
      [
        "âĹ«",
        "âĸ¦"
      ],
      [
        "ĠâĹ",
        "İ"
      ],
      [
        "âĹª",
        "âĹĵ"
      ],
      [
        "âĸ±",
        "âĹł"
      ],
      [
        "âĹ",
        "Ŀ"
      ],
      [
        "âĸ",
        "»"
      ],
      [
        "âĹł",
        "âĸ¨"
      ],
      [
        "âĹ«",
        "âĹĵ"
      ],
      [
        "âĹł",
        "âĸ±"
      ],
      [
        "âĹĹ",
        "âĹĵ"
      ],
      [
        "âĹ§",
        "âĹĵ"
      ],
      [
        "âĹĤ",
        "âĹĵ"
      ],
      [
        "âĸ±",
        "âĹłâĹĵ"
      ],
      [
        "âĹĪ",
        "âĹł"
      ],
      [
        "âĹ¬",
        "âĸ¦"
      ],
      [
        "âĸª",
        "âĸ¦"
      ],
      [
        "âĸ",
        "·"
      ],
      [
        "Ġâĸ",
        "·"
      ],
      [
        "âĸ",
        "º"
      ],
      [
        "ĠâĹ",
        "ļ"
      ],
      [
        "âĹ",
        "ļ"
      ],
      [
        "Ġ",
        "âĹł"
      ],
      [
        "ĠâĹ",
        "³"
      ],
      [
        "ĠâĹ",
        "§"
      ],
      [
        "Ġ",
        "âĸ½"
      ],
      [
        "âĹ¨",
        "âĸ¦"
      ],
      [
        "ĠâĹ",
        "Ĺ"
      ],
      [
        "ĠâĹ",
        "«"
      ],
      [
        "âĹĹ",
        "âĸ±"
      ],
      [
        "âĹ«",
        "âĸ±"
      ],
      [
        "ĠâĹ",
        "Ĥ"
      ],
      [
        "Ġ",
        "âĸ«"
      ],
      [
        "âĸ¾",
        "âĸ¦"
      ],
      [
        "ĠâĹ",
        "ī"
      ],
      [
        "âĹ",
        "ķ"
      ],
      [
        "âĹª",
        "âĸ¨"
      ],
      [
        "âĸ´",
        "âĸ¨"
      ],
      [
        "âĸµ",
        "âĸµ"
      ],
      [
        "ĠâĹ",
        "Ĵ"
      ],
      [
        "âĹŀ",
        "âĸ«"
      ],
      [
        "âĹł",
        "âĸ«"
      ],
      [
        "âĹł",
        "âĸ»"
      ],
      [
        "âĸ±",
        "âĹĪ"
      ],
      [
        "âĹĵ",
        "âĹł"
      ],
      [
        "ĠâĹĢ",
        "âĹ«âĹĵ"
      ],
      [
        "ĠâĹĢ",
        "âĹĹâĹĵ"
      ],
      [
        "âĹ",
        "ĩ"
      ],
      [
        "âĹ",
        "£"
      ],
      [
        "âĹ",
        "į"
      ],
      [
        "âĹ«",
        "âĹİ"
      ],
      [
        "âĹĹ",
        "âĹİ"
      ],
      [
        "âĸ",
        "®"
      ],
      [
        "âĸ±",
        "âĸ´"
      ],
      [
        "âĸ±",
        "âĹª"
      ],
      [
        "Ġ",
        "âĸ¦"
      ],
      [
        "âĸ",
        "¶"
      ],
      [
        "âĹł",
        "âĹİâĹł"
      ],
      [
        "âĹĪ",
        "âĹĹ"
      ],
      [
        "Ġâĸ¨",
        "âĹł"
      ],
      [
        "âĹĪ",
        "âĹ«"
      ],
      [
        "âĹŃ",
        "âĸ¦"
      ],
      [
        "âĸ½",
        "âĹ§âĹĵ"
      ],
      [
        "âĹł",
        "âĹİ"
      ],
      [
        "âĸ´",
        "âĸ«"
      ],
      [
        "ĠâĹ",
        "ª"
      ],
      [
        "âĹ«",
        "âĸ¢"
      ],
      [
        "âĹĹ",
        "âĸ¢"
      ],
      [
        "âĸ´",
        "âĸ±"
      ],
      [
        "âĹ³",
        "âĹĤâĹĵ"
      ],
      [
        "âĹł",
        "âĹĴ"
      ],
      [
        "ĠâĹİ",
        "âĹ¬"
      ],
      [
        "âĹł",
        "âĸ·"
      ],
      [
        "âĹĪ",
        "âĹª"
      ],
      [
        "âĹł",
        "âĹŀ"
      ],
      [
        "âĸ½",
        "âĹĤâĹĵ"
      ],
      [
        "âĹł",
        "âĹĢ"
      ],
      [
        "âĹ³",
        "âĹ§âĹĵ"
      ],
      [
        "âĹĪ",
        "âĸ´"
      ],
      [
        "âĹ¬",
        "âĹĵ"
      ],
      [
        "ĠâĹĪ",
        "âĹª"
      ],
      [
        "âĸª",
        "âĹĵ"
      ],
      [
        "âĹĴ",
        "âĸ«"
      ],
      [
        "âĹİ",
        "âĹª"
      ],
      [
        "ĠâĹ",
        "Ŀ"
      ],
      [
        "âĸ",
        "Ń"
      ],
      [
        "âĹł",
        "âĹĲ"
      ],
      [
        "âĸª",
        "âĹİ"
      ],
      [
        "ĠâĹĪ",
        "âĸ´"
      ],
      [
        "âĹłâĹİâĹł",
        "âĹİ"
      ],
      [
        "âĹ¬",
        "âĹİ"
      ],
      [
        "âĹł",
        "âĹ³"
      ],
      [
        "âĸ©",
        "âĸ¦"
      ],
      [
        "ĠâĹİâĹ¬",
        "?"
      ],
      [
        "âĹł",
        "âĸ½"
      ],
      [
        "âĹ",
        "¢"
      ],
      [
        "âĸ±",
        "âĹªâĹĵ"
      ],
      [
        "âĹĪ",
        "âĹłâĸ¦"
      ],
      [
        "âĸ±",
        "âĸ´âĹĵ"
      ],
      [
        "âĹł",
        "âĸ¢"
      ],
      [
        "âĹİ",
        "âĸ´"
      ],
      [
        "âĹł",
        "âĸ¼"
      ],
      [
        "âĸ¶",
        "âĹłâĹİâĹłâĹİ"
      ],
      [
        "âĹĤ",
        "âĸ¦"
      ],
      [
        "âĹ§",
        "âĸ¦"
      ],
      [
        "âĸª",
        "âĸ¢"
      ],
      [
        "âĹłâĸ¦",
        "âĹł"
      ],
      [
        "âĹ¬",
        "âĸ¢"
      ],
      [
        "âĹª",
        "âĸ«"
      ],
      [
        "Ġâĸ",
        "»"
      ],
      [
        "ĠâĹļ",
        "âĹłâĹĵ"
      ],
      [
        "âĸ±",
        "âĹłâĸ¦"
      ],
      [
        "âĸ±",
        "âĹİâĹł"
      ],
      [
        "âĸ¼",
        "âĹª"
      ],
      [
        "âĸµâĸµ",
        "âĸµ"
      ],
      [
        "ĠâĹĢ",
        "âĹ¨"
      ],
      [
        "Ġ",
        "âĸ¢"
      ],
      [
        "ĠâĹĢ",
        "âĸ¾"
      ],
      [
        "âĸ",
        "¯"
      ],
      [
        "âĹĤ",
        "âĸ¨"
      ],
      [
        "âĸª",
        "âĸ¨"
      ],
      [
        "âĸ¼",
        "âĸ´"
      ],
      [
        "âĹ§",
        "âĸ¨"
      ],
      [
        "âĹª",
        "âĸ±"
      ],
      [
        "âĹ¬",
        "âĸ¨"
      ],
      [
        "âĹŀ",
        "âĹ¨âĸ¦"
      ],
      [
        "âĹ¨",
        "âĹİâĸµ"
      ],
      [
        "âĹİ",
        "âĹĹ"
      ],
      [
        "Ġ",
        "âĹłâĹĵ"
      ],
      [
        "âĸ¾",
        "âĹĵ"
      ],
      [
        "âĹ¨",
        "âĹĵ"
      ],
      [
        "âĹĪ",
        "âĹ¬"
      ],
      [
        "âĹĪ",
        "âĸª"
      ],
      [
        "ĠâĹ",
        "£"
      ],
      [
        "âĸ¾",
        "âĹİâĸµ"
      ],
      [
        "âĹŀ",
        "âĹ«âĸ¦"
      ],
      [
        "ĠâĹĪ",
        "âĹł"
      ],
      [
        "âĹŀ",
        "âĹĹâĸ¦"
      ],
      [
        "âĸ±",
        "âĹ«"
      ],
      [
        "âĹĪ",
        "âĸ´âĸ¦"
      ],
      [
        "ĠâĹ",
        "ĩ"
      ],
      [
        "Ġ",
        "âĸ´"
      ],
      [
        "âĹĪ",
        "âĹªâĸ¦"
      ],
      [
        "âĹĹ",
        "âĸ¨"
      ],
      [
        "âĹ",
        "Ļ"
      ],
      [
        "ĠâĹ",
        "į"
      ],
      [
        "âĹŀ",
        "âĸ¾âĸ¦"
      ],
      [
        "Ġ",
        "âĹłâĸ±"
      ],
      [
        "âĹ",
        "¦"
      ],
      [
        "ĠâĹĹ",
        "âĹī"
      ],
      [
        "ĠâĹ«",
        "âĹī"
      ],
      [
        "âĹ",
        "ĭ"
      ],
      [
        "âĹİ",
        "âĹ«"
      ],
      [
        "Ġ",
        "âĹłâĸ¦"
      ],
      [
        "âĸ¾",
        "âĹİ"
      ],
      [
        "ĠâĹ³",
        "âĹłâĸ»"
      ],
      [
        "âĹ",
        "Ĩ"
      ],
      [
        "ĠâĹķ",
        "âĹ£"
      ],
      [
        "Ġâĸ",
        "®"
      ],
      [
        "âĸ±",
        "âĸª"
      ],
      [
        "âĹŃ",
        "âĹĵ"
      ],
      [
        "âĸ©",
        "âĹĵ"
      ],
      [
        "âĸ±",
        "âĹ¬"
      ],
      [
        "ĠâĹķ",
        "âĹĩ"
      ],
      [
        "âĹ¨",
        "âĹİ"
      ],
      [
        "âĸ¨",
        "âĹł"
      ],
      [
        "Ġâĸ¨âĹł",
        "âĹĪ"
      ],
      [
        "Ġâĸ½",
        "âĹłâĸ»"
      ],
      [
        "ĠâĹļ",
        "âĹª"
      ],
      [
        "âĹİâĹł",
        "âĸ¨"
      ],
      [
        "ĠâĹļ",
        "âĸ´"
      ],
      [
        "ĠâĹĴ",
        "âĹª"
      ],
      [
        "ĠâĹĪâĹª",
        "âĹĲ"
      ],
      [
        "âĹłâĸ·",
        "âĹł"
      ],
      [
        "âĸª",
        "âĹĴ"
      ],
      [
        "ĠâĹķ",
        "âĹ«"
      ],
      [
        "ĠâĹĴ",
        "âĸ´"
      ],
      [
        "âĹ¬",
        "âĹĴ"
      ],
      [
        "ĠâĹķ",
        "âĹĹ"
      ],
      [
        "ĠâĹĪâĸ´",
        "âĹĲ"
      ],
      [
        "ĠâĹİ",
        "âĹ«"
      ],
      [
        "âĸ±",
        "âĹĹ"
      ],
      [
        "ĠâĹĢ",
        "âĹłâĹĴ"
      ],
      [
        "ĠâĹİ",
        "âĹĹ"
      ],
      [
        "âĹłâĹİ",
        "âĹłâĸ¦"
      ],
      [
        "Ġâĸ¦",
        "âĹª"
      ],
      [
        "ĠâĹĢ",
        "âĹ«âĸ±"
      ],
      [
        "âĸ¾",
        "âĸ¢"
      ],
      [
        "âĸ",
        "¿"
      ],
      [
        "ĠâĹĹ",
        "âĹŀâĸ«"
      ],
      [
        "âĹ",
        "±"
      ],
      [
        "ĠâĹ«",
        "âĹŀâĸ«"
      ],
      [
        "âĹŀ",
        "âĹł"
      ],
      [
        "ĠâĹĢ",
        "âĹĹâĸ±"
      ],
      [
        "ĠâĹĢ",
        "âĹªâĸ¦"
      ],
      [
        "âĹŀ",
        "âĹ¬âĸ¦"
      ],
      [
        "Ġâĸ¦",
        "âĸ´"
      ],
      [
        "âĹĿ",
        "âĸ¾"
      ],
      [
        "Ġâĸ",
        "Ń"
      ],
      [
        "âĹĿ",
        "âĹ¨"
      ],
      [
        "Ġâĸ¨âĹłâĹĪ",
        "âĹłâĹĵ"
      ],
      [
        "ĠâĹł",
        "âĹİâĹł"
      ],
      [
        "âĹŀ",
        "âĸªâĸ¦"
      ],
      [
        "âĹ³",
        "âĹł"
      ],
      [
        "ĠâĹĢ",
        "âĸ´âĸ¦"
      ],
      [
        "âĹĵâĹł",
        "âĹĪâĹł"
      ],
      [
        "âĹ",
        "ħ"
      ],
      [
        "âĸ«",
        "âĹ«"
      ],
      [
        "âĸ¾",
        "âĹĲ"
      ],
      [
        "âĸ¢",
        "âĹķ"
      ],
      [
        "âĸ½",
        "âĹł"
      ],
      [
        "ĠâĹĪ",
        "âĹłâĸ·âĹł"
      ],
      [
        "ĠâĹ",
        "¢"
      ],
      [
        "Ġâĸ¨",
        "âĹłâĹĵ"
      ],
      [
        "âĹŃâĸ¦",
        "âĹŃ"
      ],
      [
        "âĸ±âĹĪ",
        "âĹ¨"
      ],
      [
        "ĠâĹ§",
        "âĸ±"
      ],
      [
        "Ġâĸ¢",
        "âĹłâĹİâĹłâĸ¦"
      ],
      [
        "âĹŀ",
        "âĹłâĸ¦"
      ],
      [
        "âĹª",
        "âĹİ"
      ],
      [
        "ĠâĹİ",
        "âĸª"
      ],
      [
        "âĹĹ",
        "âĹİâĸµ"
      ],
      [
        "âĹ¨",
        "âĸ¢"
      ],
      [
        "âĸ±âĹł",
        "âĸ¼"
      ],
      [
        "âĸ´",
        "âĹİ"
      ],
      [
        "ĠâĹķ",
        "âĹª"
      ],
      [
        "ĠâĹķ",
        "âĸ´"
      ],
      [
        "ĠâĹķâĹ£",
        "âĹĵ"
      ],
      [
        "ĠâĹŀ",
        "âĹł"
      ],
      [
        "âĸ©",
        "âĸ¢"
      ],
      [
        "âĹŃ",
        "âĸ¢"
      ],
      [
        "Ġâĸ¨",
        "âĹłâĸ±"
      ],
      [
        "âĹ¬",
        "âĹİâĸµ"
      ],
      [
        "âĹª",
        "âĹŀ"
      ],
      [
        "âĸ«",
        "âĹł"
      ],
      [
        "ĠâĹ",
        "ĵ"
      ],
      [
        "ĠâĹķâĹĩ",
        "âĹĵ"
      ],
      [
        "âĸª",
        "âĹİâĸµ"
      ],
      [
        "âĹ",
        "Ħ"
      ],
      [
        "âĸ«",
        "âĹĹ"
      ],
      [
        "âĹİ",
        "âĹłâĸ¦"
      ],
      [
        "âĸ´",
        "âĹŀ"
      ],
      [
        "âĹ",
        "¥"
      ],
      [
        "âĹ",
        "°"
      ],
      [
        "ĠâĹŀ",
        "âĸ´âĸ¦"
      ],
      [
        "Ġâĸ",
        "¼"
      ],
      [
        "âĸ",
        "¡"
      ],
      [
        "ĠâĹŀ",
        "âĹªâĸ¦"
      ],
      [
        "ĠâĹŀ",
        "âĹĩ"
      ],
      [
        "ĠâĹŀ",
        "âĹ£"
      ],
      [
        "âĹ«",
        "âĹİâĸµ"
      ],
      [
        "âĹ",
        "ĸ"
      ],
      [
        "âĹ",
        "ĺ"
      ],
      [
        "âĹ¬",
        "âĸ±"
      ],
      [
        "Ġâĸ",
        "¶"
      ],
      [
        "ĠâĹķ",
        "âĸ´âĹĵ"
      ],
      [
        "ĠâĹļâĹłâĹĵ",
        "âĸµ"
      ],
      [
        "ĠâĹ",
        "Ļ"
      ],
      [
        "ĠâĹ§",
        "âĸ¦"
      ],
      [
        "ĠâĹĤ",
        "âĸ¦"
      ],
      [
        "âĹĢ",
        "âĹ«âĸ±"
      ],
      [
        "âĹĲ",
        "âĹĵ"
      ],
      [
        "âĸª",
        "âĸ±"
      ],
      [
        "âĹ«",
        "âĸ¨"
      ],
      [
        "ĠâĹĢ",
        "âĹłâĸ¨"
      ],
      [
        "âĹĲ",
        "âĹĹâĸ¦"
      ],
      [
        "ĠâĹķ",
        "âĹªâĹĵ"
      ],
      [
        "âĹĲ",
        "âĹ«âĸ¦"
      ],
      [
        "âĹ",
        "¤"
      ],
      [
        "ĠâĹī",
        "âĹłâĸ±"
      ],
      [
        "âĹ",
        "Ł"
      ],
      [
        "âĹİ",
        "âĸ´âĸ¨"
      ],
      [
        "âĹĢ",
        "âĹĹâĸ±"
      ],
      [
        "ĠâĹ",
        "¨"
      ],
      [
        "ĠâĹĤ",
        "âĸ±"
      ],
      [
        "âĹ",
        "Ĭ"
      ],
      [
        "âĹłâĸ¼",
        "âĹłâĸ¨"
      ],
      [
        "âĹİ",
        "âĹªâĸ¨"
      ],
      [
        "âĸ©",
        "âĹĴ"
      ],
      [
        "âĸ±âĹł",
        "âĹİâĹł"
      ],
      [
        "âĹłâĸ¼",
        "âĹłâĹĲ"
      ],
      [
        "âĸ¢âĹķ",
        "âĹŃâĸ¦âĹŃ"
      ],
      [
        "âĹ",
        "²"
      ],
      [
        "ĠâĹ",
        "Ħ"
      ],
      [
        "âĸ¾",
        "âĸ¨"
      ],
      [
        "âĸ¢âĹķâĹŃâĸ¦âĹŃ",
        "âĹİâĸµ"
      ],
      [
        "ĠâĹ§",
        "âĸ±âĹİâĹł"
      ],
      [
        "âĹŃ",
        "âĹĴ"
      ],
      [
        "âĹ¬âĸ¦",
        "âĹĪâĹł"
      ],
      [
        "âĹ¥",
        "âĸ¢âĹķâĹŃâĸ¦âĹŃâĹİâĸµ"
      ],
      [
        "âĸ½",
        "âĸ±âĸ´"
      ],
      [
        "âĸªâĸ¦",
        "âĹĪâĹł"
      ],
      [
        "âĸ½",
        "âĸ±âĹª"
      ],
      [
        "ĠâĹª",
        "âĸ«"
      ],
      [
        "âĹ³",
        "âĸ±âĹª"
      ],
      [
        "ĠâĹĤ",
        "âĸ±âĹİâĹł"
      ],
      [
        "âĹŀ",
        "âĸ´"
      ],
      [
        "Ġ",
        "âĸ´âĸ«"
      ],
      [
        "âĸ¯",
        "âĹª"
      ],
      [
        "âĹ³",
        "âĸ±âĸ´"
      ],
      [
        "âĸ«",
        "âĸª"
      ],
      [
        "ĠâĹ",
        "Ĩ"
      ],
      [
        "Ġâĸ",
        "¯"
      ],
      [
        "âĹĪâĹł",
        "âĹİ"
      ],
      [
        "âĹ³",
        "âĸ´"
      ],
      [
        "âĹŀ",
        "âĹª"
      ],
      [
        "âĸ¼",
        "âĹł"
      ],
      [
        "âĸ½",
        "âĹª"
      ],
      [
        "âĸ¨",
        "âĹĹ"
      ],
      [
        "âĹł",
        "âĹį"
      ],
      [
        "âĹ³",
        "âĹª"
      ],
      [
        "âĹŀâĹ¨âĸ¦",
        "?"
      ],
      [
        "ĠâĹī",
        "âĹĤâĸ¨"
      ],
      [
        "âĸ±âĹĪ",
        "âĸ¾âĹĲ"
      ],
      [
        "âĸ¾",
        "âĹĴ"
      ],
      [
        "ĠâĹī",
        "âĹ§âĸ¨"
      ],
      [
        "âĸ«",
        "âĹłâĸ¦"
      ],
      [
        "âĸ«",
        "âĹ¬"
      ],
      [
        "âĸ½",
        "âĸ´"
      ],
      [
        "âĹłâĹĵ",
        "âĹĪ"
      ],
      [
        "âĸ±âĹĪâĹ¨",
        "âĹĲ"
      ],
      [
        "âĹ¨",
        "âĹĴ"
      ],
      [
        "ĠâĹ«âĹī",
        "âĹĹâĸ¦"
      ],
      [
        "ĠâĹĹâĹī",
        "âĹĹâĸ¦"
      ],
      [
        "âĹĤ",
        "âĸ±"
      ],
      [
        "âĸ±âĹłâĹĵ",
        "âĸª"
      ],
      [
        "âĸ±âĹłâĹĵ",
        "âĹ¬"
      ],
      [
        "âĸ¨",
        "âĹ«"
      ],
      [
        "âĹĿ",
        "âĸ´âĸ¦"
      ],
      [
        "âĹ",
        "ĳ"
      ],
      [
        "âĹ§",
        "âĸ±"
      ],
      [
        "âĹŃ",
        "âĸ¨"
      ],
      [
        "âĹĢ",
        "âĹĹ"
      ],
      [
        "ĠâĹĹâĹī",
        "âĹ«âĸ¦"
      ],
      [
        "âĸ±âĹłâĹĵ",
        "âĸµ"
      ],
      [
        "ĠâĹİ",
        "âĹ¨"
      ],
      [
        "âĹĿ",
        "âĹªâĸ¦"
      ],
      [
        "ĠâĹİ",
        "âĸ¾"
      ],
      [
        "âĹĢ",
        "âĹ«"
      ],
      [
        "ĠâĹ«âĹī",
        "âĹ«âĸ¦"
      ],
      [
        "âĹĿ",
        "âĹ«âĹĵ"
      ],
      [
        "âĹĹ",
        "âĹī"
      ],
      [
        "ĠâĹ",
        "ĭ"
      ],
      [
        "âĹł",
        "âĹļ"
      ],
      [
        "âĸ©",
        "âĸ¨"
      ],
      [
        "âĹª",
        "âĹļ"
      ],
      [
        "âĹ«",
        "âĹī"
      ],
      [
        "âĸ±âĹłâĹĵ",
        "âĹ¬âĸ¦"
      ],
      [
        "âĹŀ",
        "âĹ«"
      ],
      [
        "âĸ©",
        "âĹİ"
      ],
      [
        "âĸ½",
        "âĹ«"
      ],
      [
        "âĹłâĸ±",
        "âĹłâĹĵ"
      ],
      [
        "ĠâĹłâĸ¦",
        "âĸ±âĹł"
      ],
      [
        "âĹ¨",
        "âĸ¨"
      ],
      [
        "âĹŀâĸ¾âĸ¦",
        "?"
      ],
      [
        "âĹŀ",
        "âĹĹ"
      ],
      [
        "âĸ±âĹłâĹĵ",
        "âĸªâĸ¦"
      ],
      [
        "ĠâĹļ",
        "âĸ´âĹĵ"
      ],
      [
        "ĠâĹ",
        "¦"
      ],
      [
        "ĠâĹļ",
        "âĹªâĹĵ"
      ],
      [
        "ĠâĹĢ",
        "âĹłâĸ¦âĹł"
      ],
      [
        "âĹ³",
        "âĹĹ"
      ],
      [
        "Ġâĸ»",
        "âĹłâĹĵ"
      ],
      [
        "âĸ´",
        "âĹļ"
      ],
      [
        "ĠâĹŀ",
        "âĹłâĸ¦"
      ],
      [
        "âĹŃ",
        "âĹİ"
      ],
      [
        "âĸ¼",
        "âĸ´âĸ¨"
      ],
      [
        "âĹ³",
        "âĹ«"
      ],
      [
        "âĸ¼",
        "âĹªâĸ¨"
      ],
      [
        "âĸ½",
        "âĹĹ"
      ],
      [
        "Ġâĸ«",
        "âĹłâĸ¦"
      ],
      [
        "âĸ",
        "²"
      ],
      [
        "âĸ±âĹłâĸ¼",
        "âĹłâĸ¨"
      ],
      [
        "âĹĿ",
        "âĹĹâĹĵ"
      ],
      [
        "âĸ¾âĸ¦",
        "âĸ¾"
      ],
      [
        "ĠâĹĪâĹªâĹĲ",
        "âĹ«âĸ±"
      ],
      [
        "âĸ¾âĸ¦",
        "âĹ¨"
      ],
      [
        "'",
        "âĸ¦"
      ],
      [
        "Ġâĸ",
        "¬"
      ],
      [
        "Ġâĸ¦",
        "âĹłâĹŀ"
      ],
      [
        "âĹĹ",
        "âĸ«"
      ],
      [
        "âĹĲ",
        "âĹ«âĹİ"
      ],
      [
        "Ġâĸ¨",
        "âĹ§âĸ¦"
      ],
      [
        "âĹĲ",
        "âĹĹâĹİ"
      ],
      [
        "âĹ¨âĸ¦",
        "âĹ¨"
      ],
      [
        "ĠâĹķ",
        "âĸ´âĸ±"
      ],
      [
        "âĸ¯",
        "âĸ´"
      ],
      [
        "âĹ¨âĸ¦",
        "âĸ¾"
      ],
      [
        "Ġâĸ",
        "º"
      ],
      [
        "âĹ«",
        "âĸ«"
      ],
      [
        "Ġâĸ¨",
        "âĹĤâĸ¦"
      ],
      [
        "ĠâĹł",
        "âĹĪâĹłâĹİ"
      ],
      [
        "Ġâĸ",
        "¡"
      ],
      [
        "âĸ´",
        "âĹĴ"
      ],
      [
        "ĠâĹİâĸª",
        "?"
      ],
      [
        "âĹŀ",
        "âĹ¬"
      ],
      [
        "âĸ®",
        "âĹªâĸ¦"
      ],
      [
        "âĹŀ",
        "âĸª"
      ],
      [
        "âĹİ",
        "âĹ¬"
      ],
      [
        "âĸ®",
        "âĸ´âĸ¦"
      ],
      [
        "âĹĪ",
        "âĹłâĸ¨"
      ],
      [
        "âĹĹ",
        "âĹĴ"
      ],
      [
        "ĠâĹĪâĸ´âĹĲ",
        "âĹĹâĸ±"
      ],
      [
        "ĠâĹĴâĹª",
        "âĸ½"
      ],
      [
        "âĸ½âĹ§âĹĵ",
        "âĹ¨âĹİâĸµ"
      ],
      [
        "âĹ¨",
        "âĸ±"
      ],
      [
        "ĠâĹĪâĹªâĹĲ",
        "âĹĹâĸ±"
      ],
      [
        "ĠâĹĪâĸ´âĹĲ",
        "âĹ«âĸ±"
      ],
      [
        "Ã",
        "¢"
      ],
      [
        "âĹª",
        "âĹĴ"
      ],
      [
        "âĸ¾",
        "âĸ±"
      ],
      [
        "ĠâĹĴâĸ´",
        "âĸ½"
      ],
      [
        "ĠâĹķ",
        "âĹªâĸ±"
      ],
      [
        "ĠâĹĴâĹª",
        "âĹ³"
      ],
      [
        "âĸ¦",
        "âĹŀâĹłâĸ¦"
      ],
      [
        "âĸ",
        "¸"
      ],
      [
        "âĹłâĹĵ",
        "âĸ¨"
      ],
      [
        "âĹĪâĹ¬",
        "âĸµ"
      ],
      [
        "ĠâĹĪ",
        "âĹĤ"
      ],
      [
        "âĹł",
        "âĸ±âĹł"
      ],
      [
        "ĠâĹĴâĸ´",
        "âĹ³"
      ],
      [
        "âĹİ",
        "âĸª"
      ],
      [
        "âĹ«",
        "âĹĴ"
      ],
      [
        "ĠâĹİâĹ«",
        "?"
      ],
      [
        "âĹĪ",
        "âĹĹâĸ¦"
      ],
      [
        "ĠâĹ£",
        "âĸ¦"
      ],
      [
        "ĠâĹĹ",
        "âĹĴ"
      ],
      [
        "ĠâĹŀ",
        "âĹ§âĸ¦"
      ],
      [
        "ĠâĹ",
        "Ń"
      ],
      [
        "âĹĪ",
        "âĸ´âĹĵ"
      ],
      [
        "âĹĪâĸª",
        "âĸµ"
      ],
      [
        "ĠâĹł",
        "âĹī"
      ],
      [
        "âĹĪâĹĹ",
        "âĸµ"
      ],
      [
        "ĠâĹĪ",
        "âĹ§"
      ],
      [
        "âĹĪâĹ«",
        "âĸµ"
      ],
      [
        "âĹĲ",
        "âĸªâĸ¦"
      ],
      [
        "ĠâĹİâĹĹ",
        "?"
      ],
      [
        "ĠâĹ«",
        "âĹĴ"
      ],
      [
        "âĹĲ",
        "âĹ¬âĸ¦"
      ],
      [
        "ĠâĹĪ",
        "âĸ©âĹĴ"
      ],
      [
        "âĸ",
        "¬"
      ],
      [
        "âĹ«",
        "âĹ³âĹĤâĹĵ"
      ],
      [
        "ĠâĹŀ",
        "âĹĤâĸ¦"
      ],
      [
        "ĠâĹĪ",
        "âĹŃâĹĴ"
      ],
      [
        "ĠâĹĩ",
        "âĸ¦"
      ],
      [
        "âĹĵ",
        "âĸ«"
      ],
      [
        "âĸ¿",
        "âĸ¦"
      ],
      [
        "Ġâĸ·",
        "âĹłâĸ¨"
      ],
      [
        "âĹĪ",
        "âĹ¨"
      ],
      [
        "Ġâĸ",
        "©"
      ],
      [
        "ĠâĹī",
        "âĸªâĸ¨"
      ],
      [
        "âĹĪ",
        "âĹ«âĸ¦"
      ],
      [
        "âĹŀâĹ¨âĸ¦",
        "âĸµ"
      ],
      [
        "âĹ«",
        "âĸ½âĹĤâĹĵ"
      ],
      [
        "ĠâĹī",
        "âĹ¬âĸ¨"
      ],
      [
        "âĹļ",
        "âĸ´âĸ«"
      ],
      [
        "âĹĹ",
        "âĹ³âĹĤâĹĵ"
      ],
      [
        "âĹ«",
        "âĸµ"
      ],
      [
        "âĸ±",
        "âĹķ"
      ],
      [
        "âĹİ",
        "âĹ¬âĹĴ"
      ],
      [
        "Ġâĸ·",
        "âĸ´âĹĵ"
      ],
      [
        "âĸ¾",
        "âĸµ"
      ],
      [
        "âĹ³âĹ§âĹĵ",
        "âĸµ"
      ],
      [
        "âĹ±",
        "âĸ¦"
      ],
      [
        "âĹİ",
        "âĸªâĹĴ"
      ],
      [
        "Ġâĸ·",
        "âĹªâĹĵ"
      ],
      [
        "âĹĹ",
        "âĸµ"
      ],
      [
        "âĹĹâĹĵ",
        "âĸµ"
      ],
      [
        "âĸ±âĹł",
        "âĹ³"
      ],
      [
        "âĸ½âĹ§âĹĵ",
        "âĸµ"
      ],
      [
        "âĸ±âĹł",
        "âĸ½"
      ],
      [
        "âĹ«âĹĵ",
        "âĸµ"
      ],
      [
        "âĸ±âĹł",
        "âĹĴ"
      ],
      [
        "âĹļ",
        "âĹªâĸ«"
      ],
      [
        "ĠâĹ",
        "¡"
      ],
      [
        "âĹĿ",
        "âĹĹâĸ±"
      ],
      [
        "âĹĪ",
        "âĹªâĹĵ"
      ],
      [
        "âĹİâĹ«",
        "âĹĴ"
      ],
      [
        "âĹĹ",
        "âĸ½âĹĤâĹĵ"
      ],
      [
        "âĸ©",
        "âĸ«"
      ],
      [
        "âĹ¨",
        "âĸ«"
      ],
      [
        "âĹĢ",
        "âĹĹâĹĵ"
      ],
      [
        "âĹ«",
        "âĹŀ"
      ],
      [
        "âĹĹ",
        "âĹŀ"
      ],
      [
        "âĸ±âĹłâĹĵ",
        "âĹłâĸ¨"
      ],
      [
        "âĸ¾",
        "âĸ«"
      ],
      [
        "âĹĪâĹł",
        "âĹĴ"
      ],
      [
        "ĠâĹł",
        "âĸ«"
      ],
      [
        "âĹİâĹĹ",
        "âĹĴ"
      ],
      [
        "Ġâĸ",
        "²"
      ],
      [
        "âĸ¢",
        "âĸµ"
      ],
      [
        "âĹ«âĸ¢",
        "âĸµ"
      ],
      [
        "âĹĤ",
        "âĸ¼"
      ],
      [
        "âĸ«",
        "âĸ´"
      ],
      [
        "âĸ«",
        "âĹª"
      ],
      [
        "âĸ±",
        "âĹŃ"
      ],
      [
        "Ġâĸ¨âĹł",
        "âĹī"
      ],
      [
        "âĸ±",
        "âĹĹâĸ¨"
      ],
      [
        "âĹłâĹĢ",
        "âĹ«âĸ±"
      ],
      [
        "âĹĩ",
        "âĸ¦"
      ],
      [
        "Ġâĸ",
        "¤"
      ],
      [
        "âĹ£",
        "âĸ¦"
      ],
      [
        "âĸ±âĹłâĹĵ",
        "âĹł"
      ],
      [
        "ĠâĹŀ",
        "âĹłâĸ¦âĹł"
      ],
      [
        "âĸ±âĹ«",
        "âĸ¨"
      ],
      [
        "âĹĢ",
        "âĹ«âĹĵ"
      ],
      [
        "âĹ¬âĸ¦",
        "âĹł"
      ],
      [
        "âĹĪ",
        "âĹ¬âĹĵ"
      ],
      [
        "âĸ¨âĹł",
        "âĹĪâĹłâĹĴ"
      ],
      [
        "âĸªâĸ¦",
        "âĹł"
      ],
      [
        "ĠâĹł",
        "âĸ½"
      ],
      [
        "âĹ§",
        "âĸ¼"
      ],
      [
        "âĹĵ",
        "âĹłâĸ¦"
      ],
      [
        "âĸ¦",
        "âĹłâĸ¦"
      ],
      [
        "Ġ",
        "\""
      ],
      [
        "âĹĪ",
        "âĸªâĹĵ"
      ],
      [
        "âĹłâĹĢ",
        "âĹĹâĸ±"
      ],
      [
        "Ġâĸ¨",
        "âĹłâĸ»"
      ],
      [
        "ĠâĹķâĹª",
        "âĹī"
      ],
      [
        "Ġ",
        "âĸ¾"
      ],
      [
        "Ġâĸ«",
        "âĹłâĹĵ"
      ],
      [
        "âĹłâĸ¢",
        "âĸ±âĹł"
      ],
      [
        "âĹłâĸ±",
        "âĹłâĸ¦"
      ],
      [
        "âĹĹ",
        "âĹ³âĹ§âĹĵ"
      ],
      [
        "âĸ",
        "¤"
      ],
      [
        "âĹ«",
        "âĹ³âĹ§âĹĵ"
      ],
      [
        "ĠâĹł",
        "âĹ³"
      ],
      [
        "âĹ¬âĸ¢",
        "âĸµ"
      ],
      [
        "âĸ",
        "¥"
      ],
      [
        "ĠâĹķâĸ´",
        "âĹī"
      ],
      [
        "âĹ¬",
        "âĸ½âĹ§âĹĵ"
      ],
      [
        "Ġâĸ·",
        "âĹĹâĹī"
      ],
      [
        "âĹĹâĸ¢",
        "âĸµ"
      ],
      [
        "âĹĪ",
        "âĸªâĸ¦"
      ],
      [
        "âĹ",
        "Į"
      ],
      [
        "âĹ«",
        "âĸ½âĹ§âĹĵ"
      ],
      [
        "âĹĪ",
        "âĹ¬âĸ¦"
      ],
      [
        "âĹŀâĹ«âĸ¦",
        "âĸµ"
      ],
      [
        "Ġâĸ·",
        "âĹ«âĹī"
      ],
      [
        "âĹĪ",
        "âĹŃ"
      ],
      [
        "Ġâĸ·",
        "âĹłâĸ«"
      ],
      [
        "Ġâĸ·",
        "âĹłâĹ³"
      ],
      [
        "âĸªâĸ¢",
        "âĸµ"
      ],
      [
        "âĸ±",
        "âĸ¨"
      ],
      [
        "Ġ",
        "âĹłâĸ¨"
      ],
      [
        "Ġâĸ·",
        "âĹłâĸ½"
      ],
      [
        "ĠâĹį",
        "âĹłâĸ¢âĸ±âĹł"
      ],
      [
        "âĸ±âĹłâĸ¼",
        "âĹłâĹĲ"
      ],
      [
        "âĸ«",
        "âĹªâĸ¦"
      ],
      [
        "âĹĲ",
        "âĹĹ"
      ],
      [
        "âĹŀâĹĹâĸ¦",
        "âĸµ"
      ],
      [
        "âĸ´",
        "âĸ½"
      ],
      [
        "âĸ´",
        "âĸ»"
      ],
      [
        "âĸ´",
        "âĹ³"
      ],
      [
        "ĠâĹ",
        "ĺ"
      ],
      [
        "âĹĪ",
        "âĸ©"
      ],
      [
        "âĹª",
        "âĸ»"
      ],
      [
        "âĸŃ",
        "âĹłâĹ³"
      ],
      [
        "âĹī",
        "âĹªâĸ¨"
      ],
      [
        "âĸ±",
        "âĸ´âĸ¦"
      ],
      [
        "âĹª",
        "âĹ³"
      ],
      [
        "Ġâĸ¨",
        "âĹ«"
      ],
      [
        "âĹª",
        "âĸ½"
      ],
      [
        "ĠâĹķâĹ«",
        "âĸ«"
      ],
      [
        "âĸ±",
        "âĹªâĸ¦"
      ],
      [
        "ĠâĹ§",
        "âĸ±âĹĪâĸ¾âĹĲ"
      ],
      [
        "Ġâĸ¨",
        "âĹ§"
      ],
      [
        "âĹłâĹĢ",
        "âĹł"
      ],
      [
        "Ġâĸ¨",
        "âĹĹ"
      ],
      [
        "ĠâĹ",
        "Į"
      ],
      [
        "Ġâĸ¨",
        "âĹĤ"
      ],
      [
        "ĠâĹķâĹĹ",
        "âĸ«"
      ],
      [
        "Ġâĸ·",
        "âĹłâĹĵ"
      ],
      [
        "âĸ±âĹł",
        "âĹĢâĹ«âĸ±"
      ],
      [
        "ĠâĹĤ",
        "âĸ±âĹĪâĸ¾âĹĲ"
      ],
      [
        "âĹĲ",
        "âĹ«"
      ],
      [
        "âĹī",
        "âĸ´âĸ¨"
      ],
      [
        "âĹĪâĹ«",
        "âĹİâĸµ"
      ],
      [
        "ĠâĹ",
        "±"
      ],
      [
        "âĹĪâĹ¬",
        "âĹİâĸµ"
      ],
      [
        "âĹłâĹĵ",
        "âĹ¬"
      ],
      [
        "ĠâĹĤ",
        "âĸ±âĹĪâĹ¨âĹĲ"
      ],
      [
        "âĹĹ",
        "âĸ»"
      ],
      [
        "ĠâĹ",
        "ħ"
      ],
      [
        "âĹĲ",
        "âĸ´âĹĵ"
      ],
      [
        "âĸ±",
        "âĸ©"
      ],
      [
        "ĠâĹ§",
        "âĸ±âĹĪâĹ¨âĹĲ"
      ],
      [
        "âĹĹ",
        "âĸ½âĹ§âĹĵ"
      ],
      [
        "âĹłâĹĵ",
        "âĸª"
      ],
      [
        "âĸŃ",
        "âĹłâĸ½"
      ],
      [
        "âĹĪâĹĹ",
        "âĹİâĸµ"
      ],
      [
        "ĠâĹłâĹĵ",
        "âĸ¨âĹłâĹĪâĹłâĹĴ"
      ],
      [
        "ĠâĹł",
        "âĹŀ"
      ],
      [
        "âĸ®",
        "âĹł"
      ],
      [
        "âĸ«",
        "âĸ´âĸ¦"
      ],
      [
        "âĸ½âĹĤâĹĵ",
        "âĸµ"
      ],
      [
        "ĠâĹĢ",
        "âĹ«âĸ¢"
      ],
      [
        "âĹł",
        "âĹŀâĸ«"
      ],
      [
        "ĠâĹª",
        "âĸ¦"
      ],
      [
        "âĹŀâĸ¾âĸ¦",
        "âĸµ"
      ],
      [
        "ĠâĹĢ",
        "âĹĹâĸ¢"
      ],
      [
        "âĹ¦",
        "âĹİâĹł"
      ],
      [
        "âĹĲ",
        "âĹªâĹĵ"
      ],
      [
        "âĹ³âĹĤâĹĵ",
        "âĸµ"
      ],
      [
        "ĠâĹ",
        "°"
      ],
      [
        "Ġ",
        "1"
      ],
      [
        "âĹ",
        "©"
      ],
      [
        "âĸ¼",
        "âĸª"
      ],
      [
        "Ġâĸ¨âĹłâĹĵ",
        "âĹĴ"
      ],
      [
        "Ġâĸ«",
        "âĹłâĸ¨"
      ],
      [
        "âĹ«",
        "âĸ»"
      ],
      [
        "âĹİâĹł",
        "âĹ³"
      ],
      [
        "ĠâĹª",
        "âĹļ"
      ],
      [
        "ĠâĹ",
        "¤"
      ],
      [
        "Ġ",
        "âĸ´âĸ¦"
      ],
      [
        "âĹłâĹŀ",
        "âĸª"
      ],
      [
        "Ġâĸ½",
        "âĹłâĹĴ"
      ],
      [
        "Ġâĸ·âĹłâĸ¨",
        "âĸ¨"
      ],
      [
        "âĸ±âĹł",
        "âĹĢâĹĹâĸ±"
      ],
      [
        "Ġâĸ·",
        "âĹłâĸ±"
      ],
      [
        "Ġâĸ«",
        "âĹªâĸ¨"
      ],
      [
        "âĹĭ",
        "âĹİâĹł"
      ],
      [
        "ĠâĹŀ",
        "âĹªâĹļ"
      ],
      [
        "âĹİâĹł",
        "âĹİ"
      ],
      [
        "âĸ¼",
        "âĹ¬"
      ],
      [
        "ĠâĹŀ",
        "âĹĤâĹĵ"
      ],
      [
        "âĹĿ",
        "âĹłâĸ¦âĹł"
      ],
      [
        "âĹŀâĹ¬âĸ¦",
        "âĸµ"
      ],
      [
        "Ġâĸ",
        "¿"
      ],
      [
        "Ġâĸ«",
        "âĸ´âĸ¨"
      ],
      [
        "ĠâĹ",
        "Ł"
      ],
      [
        "âĹĲ",
        "âĸªâĹİ"
      ],
      [
        "Ġâĸ¨",
        "âĸ´âĸ¦"
      ],
      [
        "ĠâĹķ",
        "âĸ©âĸ¦"
      ],
      [
        "ĠâĹŀ",
        "âĹ§âĹĵ"
      ],
      [
        "ĠâĹ³",
        "âĹłâĹĴ"
      ],
      [
        "âĹłâĸ¦",
        "âĹŀ"
      ],
      [
        "âĹ³âĹĤâĹĵ",
        "âĸ¾âĹİâĸµ"
      ],
      [
        "Ġâĸ´",
        "âĹļ"
      ],
      [
        "âĹŀâĸªâĸ¦",
        "âĸµ"
      ],
      [
        "âĸ±",
        "âĹ¨"
      ],
      [
        "âĸ«",
        "âĹĵ"
      ],
      [
        "ĠâĹ",
        "ĳ"
      ],
      [
        "âĸ¨",
        "âĸ´âĸ¦"
      ],
      [
        "ĠâĹłâĹĵ",
        "âĸ«"
      ],
      [
        "âĹ«âĸ¦",
        "âĹ«"
      ],
      [
        "Ġâĸ½",
        "âĹłâĸ¦"
      ],
      [
        "ĠâĹŀ",
        "âĸ´âĹļ"
      ],
      [
        "âĸªâĹĵ",
        "âĸł"
      ],
      [
        "âĹ¬âĹĵ",
        "âĸł"
      ],
      [
        "âĹĪâĸª",
        "âĹİâĸµ"
      ],
      [
        "âĹ«âĸ¦",
        "âĹĹ"
      ],
      [
        "ĠâĹĪ",
        "âĸ¾"
      ],
      [
        "âĸ®",
        "âĹłâĸ¦"
      ],
      [
        "âĹ¨âĸ¢",
        "âĸµ"
      ],
      [
        "ĠâĹķ",
        "âĹŃâĸ¦"
      ],
      [
        "âĹŃ",
        "âĸ«"
      ],
      [
        "Ġâĸ¨",
        "âĹªâĸ¦"
      ],
      [
        "âĹİâĹł",
        "âĸ½"
      ],
      [
        "ĠâĹ³",
        "âĹłâĸ¦"
      ],
      [
        "âĹĹâĸ¦",
        "âĹĹ"
      ],
      [
        "âĹ¬âĹĵ",
        "âĹłâĸ¨"
      ],
      [
        "ĠâĹķ",
        "âĹŃ"
      ],
      [
        "âĹĹâĸ¦",
        "âĹ«"
      ],
      [
        "ĠâĹĪ",
        "âĹĩâĸ¦"
      ],
      [
        "âĹĲ",
        "âĹ¬âĹİ"
      ],
      [
        "âĹİâĹĹ",
        "âĸ½âĹ§âĹĵâĹ¨âĹİâĸµ"
      ],
      [
        "âĹªâĹĵ",
        "âĹª"
      ],
      [
        "ĠâĹīâĹłâĸ±",
        "âĹ¬âĹĴ"
      ],
      [
        "âĹİ",
        "âĸ´âĸ¦"
      ],
      [
        "âĹİ",
        "âĹªâĸ¦"
      ],
      [
        "Ġâĸ¦âĹłâĹŀ",
        "âĹ¬âĸ±"
      ],
      [
        "ĠâĹł",
        "âĹĴ"
      ],
      [
        "âĹĪ",
        "âĹ«âĹİ"
      ],
      [
        "ĠâĹĪ",
        "âĹ£âĸ¦"
      ],
      [
        "ĠâĹĪ",
        "âĹ¨âĹĵ"
      ],
      [
        "âĸ¨",
        "âĹªâĸ¦"
      ],
      [
        "Ġâĸ¨",
        "âĹłâĸ¦"
      ],
      [
        "ĠâĹĢ",
        "âĹĩ"
      ],
      [
        "ĠâĹĪ",
        "âĹ¨"
      ],
      [
        "âĹļâĸ´âĸ«",
        "âĸł"
      ],
      [
        "ĠâĹĪ",
        "âĹ«"
      ],
      [
        "ĠâĹķâĹ«",
        "âĹĢâĹ«"
      ],
      [
        "ĠâĹĩ",
        "âĸ±âĹĪ"
      ],
      [
        "ĠâĹķâĹĹ",
        "âĹĢâĹĹ"
      ],
      [
        "âĸ¾âĸ¢",
        "âĸµ"
      ],
      [
        "âĸ¾âĸ¦",
        "âĹĪâĹł"
      ],
      [
        "Ġâĸ½",
        "âĹĤâĸ¨"
      ],
      [
        "ĠâĹīâĹłâĸ±",
        "âĸªâĹĴ"
      ],
      [
        "âĸ®",
        "âĹłâĸ¦âĹł"
      ],
      [
        "âĸ±âĹªâĹĵ",
        "âĸµ"
      ],
      [
        "ĠâĹķ",
        "âĸ©"
      ],
      [
        "âĸ¼âĹª",
        "âĹĲ"
      ],
      [
        "âĸªâĹĵ",
        "âĹłâĸ¨"
      ],
      [
        "ĠâĹĪ",
        "âĹĹ"
      ],
      [
        "âĸ«",
        "âĹłâĹĵ"
      ],
      [
        "ĠâĹ³",
        "âĹĤâĸ¨"
      ],
      [
        "Ġâĸ¦âĹłâĹŀ",
        "âĸªâĸ±"
      ],
      [
        "âĹį",
        "âĹªâĸ¦"
      ],
      [
        "âĹĪ",
        "âĹĹâĹİ"
      ],
      [
        "ĠâĹĪ",
        "âĸ¾âĹĵ"
      ],
      [
        "âĹ¬",
        "âĸµ"
      ],
      [
        "âĹĤ",
        "âĹĴ"
      ],
      [
        "ĠâĹĢ",
        "âĹłâĹĲ"
      ],
      [
        "âĸ´âĹĵ",
        "âĸ´"
      ],
      [
        "ĠâĹķâĹ«",
        "âĹĢâĹĹ"
      ],
      [
        "âĸ´âĹĵ",
        "âĹª"
      ],
      [
        "âĹªâĹĵ",
        "âĸ´"
      ],
      [
        "ĠâĹĢ",
        "âĹ£"
      ],
      [
        "âĹłâĹĵ",
        "âĹł"
      ],
      [
        "Ġâĸ«",
        "âĹłâĹİâĹłâĹİ"
      ],
      [
        "ĠâĹ³",
        "âĹ§âĸ¨"
      ],
      [
        "ĠâĹŀâĹ§âĸ¦",
        "âĹĵâĹł"
      ],
      [
        "ĠâĹķâĹĹ",
        "âĹĢâĹ«"
      ],
      [
        "Ġâĸ¨",
        "âĹ«âĹİ"
      ],
      [
        "ĠâĹŀ",
        "âĹŃâĹĵ"
      ],
      [
        "âĹİ",
        "âĸ´âĸ±"
      ],
      [
        "ĠâĹ",
        "²"
      ],
      [
        "âĹ¨âĸ¦",
        "âĹĪâĹł"
      ],
      [
        "ĠâĹĢâĹłâĹĴ",
        "âĸ¨âĹł"
      ],
      [
        "âĸ¼âĸ´",
        "âĹĲ"
      ],
      [
        "âĸ±",
        "âĹ¬âĸ¨"
      ],
      [
        "ĠâĹ£",
        "âĸ±âĹĪ"
      ],
      [
        "âĹ§",
        "âĹĴ"
      ],
      [
        "Ġâĸ¨",
        "âĹłâĸ«"
      ],
      [
        "âĹªâĹĵ",
        "âĹ«"
      ],
      [
        "ĠâĹŀ",
        "âĹĹâĸ¢"
      ],
      [
        "âĸªâĸ¦",
        "âĹ¬"
      ],
      [
        "âĹį",
        "âĸ´âĸ¦"
      ],
      [
        "âĹłâĸ¦",
        "âĹĵ"
      ],
      [
        "âĹ¬",
        "âĹ³âĹ§âĹĵ"
      ],
      [
        "âĸ",
        "§"
      ],
      [
        "Ġâĸ·",
        "âĹłâĸ¢"
      ],
      [
        "âĹ¨âĸ¦",
        "âĹł"
      ],
      [
        "Ġâĸ¨âĹł",
        "âĸ¢"
      ],
      [
        "Ġâĸ¨",
        "âĸªâĸ¢"
      ],
      [
        "âĹĩ",
        "âĹĵ"
      ],
      [
        "âĹª",
        "âĸµ"
      ],
      [
        "âĸªâĸ¦",
        "âĸª"
      ],
      [
        "ĠâĹĢâĸ¾",
        "âĹĵâĹłâĹĪâĹł"
      ],
      [
        "âĹĿâĹĹâĸ±",
        "âĹİâĹĹâĸ½âĹ§âĹĵâĹ¨âĹİâĸµ"
      ],
      [
        "âĹ",
        "¡"
      ],
      [
        "âĹłâĹĵâĹĪ",
        "âĸªâĹİ"
      ],
      [
        "ĠâĹĢâĹ¨",
        "âĹĵâĹłâĹĪâĹł"
      ],
      [
        "ĠâĹ",
        "Ĭ"
      ],
      [
        "ĠâĹŀ",
        "âĹ«âĸ¢"
      ],
      [
        "âĹĲ",
        "âĸª"
      ],
      [
        "âĹªâĹĵ",
        "âĹĹ"
      ],
      [
        "âĸ¼",
        "âĹłâĸ¨"
      ],
      [
        "âĹ¬",
        "âĸ»"
      ],
      [
        "Ġâĸ¨",
        "âĹ¬âĸ¢"
      ],
      [
        "Ġâĸ½",
        "âĹ§âĸ¨"
      ],
      [
        "âĹ¬",
        "âĸ½âĹĤâĹĵ"
      ],
      [
        "âĹłâĹĵ",
        "âĸ«"
      ],
      [
        "âĹ¬âĸ¦",
        "âĸª"
      ],
      [
        "ĠâĹŀâĹĤâĸ¦",
        "âĹĵâĹł"
      ],
      [
        "âĹŀ",
        "âĹªâĸ¦"
      ],
      [
        "0",
        "0"
      ],
      [
        "âĸª",
        "âĸ»"
      ],
      [
        "Ġ",
        "âĸ±âĹł"
      ],
      [
        "âĹĵâĹł",
        "âĹ³âĹł"
      ],
      [
        "âĹĹâĸ¦",
        "âĸ´"
      ],
      [
        "âĸ¨",
        "âĹŃ"
      ],
      [
        "âĹĲ",
        "âĹ¬"
      ],
      [
        "ĠâĹŀ",
        "âĹłâĹĲ"
      ],
      [
        "âĸ±",
        "âĸªâĸ¨"
      ],
      [
        "Ġâĸ¨",
        "âĹĹâĹİ"
      ],
      [
        "âĹłâĹĵâĹĪ",
        "âĹ¬âĹİ"
      ],
      [
        "ĠâĹį",
        "âĹłâĹĵâĸ¨"
      ],
      [
        "âĹİâĹł",
        "âĹ³âĹł"
      ],
      [
        "âĹłâĸ¦",
        "âĹķ"
      ],
      [
        "âĸ¾âĸ¦",
        "âĹł"
      ],
      [
        "ĠâĹŀ",
        "âĸ©âĹĵ"
      ],
      [
        "âĸ¨",
        "âĸ©"
      ],
      [
        "âĸ´âĹĵ",
        "âĹĹ"
      ],
      [
        "âĹİâĹł",
        "âĸ½âĹł"
      ],
      [
        "Ġâĸ¨",
        "âĹ¨âĹĵ"
      ],
      [
        "âĹ«âĸ¦",
        "âĹª"
      ],
      [
        "âĹİâĹ«",
        "âĹĴâĸ«"
      ],
      [
        "Ġâĸ¨",
        "âĸ¾âĹĵ"
      ],
      [
        "âĹŀ",
        "âĸ´âĸ¦"
      ],
      [
        "ĠâĹĹâĹŀâĸ«",
        "âĹª"
      ],
      [
        "âĸª",
        "âĸ½âĹĤâĹĵ"
      ],
      [
        "ĠâĹĹ",
        "âĸ¢"
      ],
      [
        "âĹļâĹªâĸ«",
        "âĸł"
      ],
      [
        "âĸ¦",
        "âĸ¦"
      ],
      [
        "âĸª",
        "âĹ³âĹ§âĹĵ"
      ],
      [
        "âĹ«âĸ¦",
        "âĸ´"
      ],
      [
        "âĹ£",
        "âĹĵ"
      ],
      [
        "âĹĪ",
        "âĹĹâĹĵ"
      ],
      [
        "âĹ¨",
        "âĹŀ"
      ],
      [
        "âĹªâĸ¨",
        "âĸ¨"
      ],
      [
        "ĠâĹĤ",
        "âĸ±âĹłâĸ¦"
      ],
      [
        "âĸ´âĹĵ",
        "âĹ«"
      ],
      [
        "âĹ¬âĸ¦",
        "âĹ¬"
      ],
      [
        "âĹĹâĸ¦",
        "âĹª"
      ],
      [
        "ĠâĹĹâĹŀâĸ«",
        "âĸ´"
      ],
      [
        "Ġâĸ«âĹłâĹĵ",
        "âĹłâĹį"
      ],
      [
        "âĹĵ",
        "âĹłâĹĵ"
      ],
      [
        "Ġâĸ«",
        "âĸ´"
      ],
      [
        "ĠâĹ«âĹŀâĸ«",
        "âĹª"
      ],
      [
        "ĠâĹłâĸ¦",
        "âĸ¦"
      ],
      [
        "âĸ¨",
        "âĹłâĸ¦"
      ],
      [
        "ĠâĹĢ",
        "âĹłâĸ·"
      ],
      [
        "âĹĿ",
        "âĹłâĹĴ"
      ],
      [
        "ĠâĹī",
        "âĹĤâĸ¼"
      ],
      [
        "ĠâĹĢ",
        "âĸªâĹĵâĹłâĸ¨"
      ],
      [
        "âĸ¼",
        "âĹ«"
      ],
      [
        "âĹĤ",
        "âĸ»"
      ],
      [
        "âĸ±",
        "âĸ¾"
      ],
      [
        "âĹĪ",
        "âĹ«âĹĵ"
      ],
      [
        "Ġâĸ½",
        "âĹłâĹĵ"
      ],
      [
        "ĠâĹ«âĹŀâĸ«",
        "âĸ´"
      ],
      [
        "ĠâĹ§",
        "âĸ±âĹłâĸ¦"
      ],
      [
        "'",
        "âĹł"
      ],
      [
        "ĠâĹ«",
        "âĸ¢"
      ],
      [
        "Ġâĸ«",
        "âĹª"
      ],
      [
        "âĹłâĹŀ",
        "âĹ¬"
      ],
      [
        "ĠâĹī",
        "âĹ§âĸ¼"
      ],
      [
        "âĹ§",
        "âĸ»"
      ],
      [
        "âĸŃ",
        "âĸ´âĹĵ"
      ],
      [
        "âĹŀâĹ«âĸ¦",
        "?"
      ],
      [
        "âĹĳ",
        "âĹª"
      ],
      [
        "âĸª",
        "âĹ³âĹĤâĹĵ"
      ],
      [
        "Ġ",
        "âĸµâĸµâĸµ"
      ],
      [
        "Ġâĸ¢",
        "âĹ§âĹĵ"
      ],
      [
        "ĠâĹĢ",
        "âĹ¬âĹĵâĹłâĸ¨"
      ],
      [
        "ĠâĹ³",
        "âĹłâĸ¨"
      ],
      [
        "âĸ¨",
        "âĸµ"
      ],
      [
        "âĹĪ",
        "âĹ¨âĹİâĸµ"
      ],
      [
        "âĸ¼",
        "âĹĹ"
      ],
      [
        "âĸªâĹĵ",
        "âĸµ"
      ],
      [
        "Ġâĸ½",
        "âĹłâĸ¨"
      ],
      [
        "âĸªâĸ¦",
        "âĸµ"
      ],
      [
        "âĹİâĹĹ",
        "âĹĴâĸ«"
      ],
      [
        "ĠâĹķâĹª",
        "âĸ±âĹĪ"
      ],
      [
        "âĸ´",
        "âĸµ"
      ],
      [
        "ĠâĹĿ",
        "âĸ¾"
      ],
      [
        "âĹħ",
        "âĹĤâĸ¨"
      ],
      [
        "âĹł",
        "âĸµ"
      ],
      [
        "âĹ¬âĸ¦",
        "âĸµ"
      ],
      [
        "âĹ¬âĹİ",
        "âĸł"
      ],
      [
        "âĹĳ",
        "âĸ´"
      ],
      [
        "âĹł",
        "âĹī"
      ],
      [
        "âĹĪâĹłâĸ¨",
        "âĹĹ"
      ],
      [
        "âĹĵâĹł",
        "âĸ½âĹł"
      ],
      [
        "âĹİ",
        "âĸ¾âĹĴ"
      ],
      [
        "Ġâĸ¢",
        "âĹĤâĹĵ"
      ],
      [
        "ĠâĹĿ",
        "âĹ¨"
      ],
      [
        "ĠâĹł",
        "âĸ¢"
      ],
      [
        "âĹ¬",
        "âĹ³âĹĤâĹĵ"
      ],
      [
        "ĠâĹĪâĹł",
        "âĹļ"
      ],
      [
        "âĸ«",
        "âĹŃ"
      ],
      [
        "ĠâĹķâĸ´",
        "âĸ±âĹĪ"
      ],
      [
        "âĹĪ",
        "âĸ¾âĹİâĸµ"
      ],
      [
        "Ġâĸ¨âĹł",
        "âĹ³"
      ],
      [
        "âĹħ",
        "âĹ§âĸ¨"
      ],
      [
        "ĠâĹĢâĹłâĹĴ",
        "âĸ±âĹł"
      ],
      [
        "âĹ",
        "ģ"
      ],
      [
        "âĹłâĸ±",
        "âĸª"
      ],
      [
        "âĸ±âĹł",
        "âĸ¨"
      ],
      [
        "âĹĪâĹ¨",
        "âĸµ"
      ],
      [
        "âĸŃ",
        "âĹªâĹĵ"
      ],
      [
        "Ġâĸ¨",
        "âĹĩ"
      ],
      [
        "âĹ¬âĹĵ",
        "âĸµ"
      ],
      [
        "âĹĵ",
        "âĹ§"
      ],
      [
        "ĠâĹŀ",
        "âĹłâĸ¨"
      ],
      [
        "âĹĪâĹłâĸ¨",
        "âĹ«"
      ],
      [
        "'",
        "âĹĪâĹł"
      ],
      [
        "âĸªâĹİ",
        "âĸł"
      ],
      [
        "âĹª",
        "âĹĢ"
      ],
      [
        "Ġâĸ¨",
        "âĹ£"
      ],
      [
        "ĠâĹķ",
        "âĸ©âĸ¢"
      ],
      [
        "ĠâĹŀâĹł",
        "âĹłâĸ«"
      ],
      [
        "âĸ±âĹªâĹĵ",
        "âĹ«"
      ],
      [
        "ĠâĹ",
        "ĸ"
      ],
      [
        "ĠâĹĪâĹªâĹĲâĹ«âĸ±",
        "âĸµ"
      ],
      [
        "âĸ±âĸ´âĹĵ",
        "âĹĹ"
      ],
      [
        "ĠâĹŀ",
        "âĹłâĸ·"
      ],
      [
        "âĸ«",
        "âĹłâĸ±"
      ],
      [
        "ĠâĹ«",
        "âĸ¦âĹŀâĹłâĸ¦"
      ],
      [
        "ĠâĹķâĸ´âĹĵ",
        "âĸ´âĸ¨"
      ],
      [
        "âĹĿ",
        "âĹłâĸ¨"
      ],
      [
        "ĠâĹĹ",
        "âĸ·"
      ],
      [
        "âĹŃâĸ¦",
        "âĸ©"
      ],
      [
        "ĠâĹķâĹªâĹĵ",
        "âĸ´âĸ¨"
      ],
      [
        "ĠâĹĢ",
        "âĹŃ"
      ],
      [
        "ĠâĹķâĸ´âĹĵ",
        "âĹªâĸ¨"
      ],
      [
        "âĸ±âĸ´âĹĵ",
        "âĹ«"
      ],
      [
        "âĹł",
        "âĹĪ"
      ],
      [
        "âĸ«",
        "âĸ©"
      ],
      [
        "âĸ¾",
        "âĹŀ"
      ],
      [
        "ĠâĹĢ",
        "âĹłâĹĢ"
      ],
      [
        "Ġâĸ¯",
        "âĸ´"
      ],
      [
        "âĹŀâĹĹâĸ¦",
        "?"
      ],
      [
        "ĠâĹī",
        "âĹªâĸ¨"
      ],
      [
        "Ġâĸ¨",
        "âĹĤâĹĵ"
      ],
      [
        "âĹĵ",
        "âĹĤ"
      ],
      [
        "âĹİ",
        "âĹ¨âĹĴ"
      ],
      [
        "ĠâĹŀ",
        "âĸ´"
      ],
      [
        "ĠâĹ§",
        "âĸ±âĹłâĹĵâĹłâĸ¨"
      ],
      [
        "âĸ©âĸ¦",
        "âĸ©"
      ],
      [
        "âĸ¨âĹł",
        "âĹī"
      ],
      [
        "ĠâĹķâĹªâĹĵ",
        "âĹªâĸ¨"
      ],
      [
        "ĠâĹķ",
        "âĹŃâĸ¢"
      ],
      [
        "âĸª",
        "âĸ½âĹ§âĹĵ"
      ],
      [
        "ĠâĹĢ",
        "âĸ©"
      ],
      [
        "âĹª",
        "âĸ¢"
      ],
      [
        "Ġâĸ¨",
        "âĹ§âĹĵ"
      ],
      [
        "ĠâĹī",
        "âĸ´âĸ¨"
      ],
      [
        "âĹİâĸ´",
        "âĸ¢"
      ],
      [
        "Ġâĸ¨âĹł",
        "âĸ½"
      ],
      [
        "âĸ±âĸ´âĹĵ",
        "âĸµ"
      ],
      [
        "ĠâĹĤ",
        "âĸ±âĹłâĹĵâĹłâĸ¨"
      ],
      [
        "ĠâĹĹ",
        "âĸ¦âĹŀâĹłâĸ¦"
      ],
      [
        "âĹĪ",
        "âĸ¾âĸµ"
      ],
      [
        "ĠâĹ«",
        "âĸ·"
      ],
      [
        "âĸ±âĹªâĹĵ",
        "âĹĹ"
      ],
      [
        "âĹİâĹª",
        "âĸ¢"
      ],
      [
        "âĹĵâĹł",
        "âĹį"
      ],
      [
        "âĹłâĸ·",
        "âĹłâĸ«"
      ],
      [
        "âĸ±âĹłâĸ¼âĹłâĸ¨",
        "âĸµ"
      ],
      [
        "âĹī",
        "âĹł"
      ],
      [
        "âĸ©âĸ¦",
        "âĹŃ"
      ],
      [
        "âĸª",
        "âĸµ"
      ],
      [
        "âĹĲâĹĵ",
        "âĸ¾"
      ],
      [
        "âĹĵâĹł",
        "âĹĪâĹłâĸ¦"
      ],
      [
        "âĹ¬",
        "âĸ±âĹĪ"
      ],
      [
        "ĠâĹ³",
        "âĹłâĹĵ"
      ],
      [
        "Ġ",
        "âĸ´âĸ±"
      ],
      [
        "ĠâĹĢ",
        "âĸ´âĸ¨"
      ],
      [
        "Ġâĸ",
        "°"
      ],
      [
        "âĹĪâĹª",
        "âĸ¼âĹª"
      ],
      [
        "âĹĪâĹª",
        "âĸ¼âĸ´"
      ],
      [
        "Ġâĸ·",
        "âĹłâĹį"
      ],
      [
        "ĠâĹĢ",
        "âĸ¾âĸ¦"
      ],
      [
        "âĹ¨âĹİ",
        "âĸł"
      ],
      [
        "âĹĪâĸ´",
        "âĸ¼âĹª"
      ],
      [
        "âĸªâĸ¦",
        "âĹĪâĹłâĸ¦"
      ],
      [
        "âĹª",
        "âĹī"
      ],
      [
        "ĠâĹłâĸ¦âĸ±âĹł",
        "âĸ«"
      ],
      [
        "ĠâĹĢ",
        "âĹ¨âĸ¦"
      ],
      [
        "âĸ±âĹłâĹĵ",
        "âĸł"
      ],
      [
        "âĸ¾âĹİ",
        "âĸł"
      ],
      [
        "âĸ½âĹĤâĹĵ",
        "âĹ¨âĹİâĸµ"
      ],
      [
        "ĠâĹŀâĹł",
        "âĹļ"
      ],
      [
        "Ġ",
        "âĸ¾âĸ¢"
      ],
      [
        "ĠâĹł",
        "âĹĪ"
      ],
      [
        "ĠâĹł",
        "âĹĲ"
      ],
      [
        "ĠâĹĢ",
        "âĹªâĸ¨"
      ],
      [
        "âĹİ",
        "âĹĹâĸ¦"
      ],
      [
        "âĹĹ",
        "âĸł"
      ],
      [
        "âĸ±âĹłâĹĵ",
        "âĹĪâĹłâĸ¦"
      ],
      [
        "âĹĻ",
        "âĹłâĸ·âĹł"
      ],
      [
        "âĹ«",
        "âĸł"
      ],
      [
        "âĸ²",
        "âĹłâĸ¦"
      ],
      [
        "âĸ´",
        "âĸ¢"
      ],
      [
        "âĸ±âĹł",
        "âĸ«"
      ],
      [
        "âĹĪâĸ´",
        "âĸ¼âĸ´"
      ],
      [
        "âĸª",
        "âĸ±âĹĪ"
      ],
      [
        "âĹª",
        "âĸł"
      ],
      [
        "ĠâĹ¨",
        "âĸ¢"
      ],
      [
        "âĹłâĸ±",
        "âĸ¦"
      ],
      [
        "âĹ¬âĸ¦",
        "âĹĪâĹłâĸ¦"
      ],
      [
        "âĹłâĸ±",
        "âĹ¬"
      ],
      [
        "ĠâĹĢ",
        "âĹĤ"
      ],
      [
        "âĹİ",
        "âĹ«âĸ¦"
      ],
      [
        "âĸ±âĹł",
        "âĸ·"
      ],
      [
        "ĠâĹĢâĹ«âĹĵ",
        "âĹłâĸ¢"
      ],
      [
        "ĠâĹķ",
        "âĹ«âĹĵ"
      ],
      [
        "Ġâĸ½",
        "âĹł"
      ],
      [
        "âĹĪ",
        "âĸ´âĸ¨"
      ],
      [
        "âĸªâĸ¨",
        "âĸµ"
      ],
      [
        "ĠâĹĪâĸ´âĹĲâĹĹâĸ±",
        "âĸµ"
      ],
      [
        "Ġâĸ¨âĹłâĸ¢",
        "âĹłâĸ¦"
      ],
      [
        "Ġ",
        "2"
      ],
      [
        "Ġâĸ·",
        "âĹłâĹĢ"
      ],
      [
        "ĠâĹĪ",
        "âĹłâĸ¨"
      ],
      [
        "âĹĲâĹĹâĸ¦",
        "âĹ«"
      ],
      [
        "âĹ§",
        "âĹĲ"
      ],
      [
        "Ġâĸ¯",
        "âĹª"
      ],
      [
        "ĠâĹĹ",
        "âĸ±âĹķ"
      ],
      [
        "âĹ¨âĸ¢",
        "?"
      ],
      [
        "ĠâĹłâĸ±",
        "âĸ«"
      ],
      [
        "Ġâĸ±âĹł",
        "âĸ¢"
      ],
      [
        "âĸ¼",
        "âĸ·"
      ],
      [
        "Ġâĸ½",
        "âĸ´âĹĵ"
      ],
      [
        "ĠâĹ§",
        "âĸ±âĹĪ"
      ],
      [
        "ĠâĹĢâĹĹâĹĵ",
        "âĹłâĸ¢"
      ],
      [
        "âĹĲâĹĹâĸ¦",
        "âĹĹ"
      ],
      [
        "âĹĲâĹ«âĸ¦",
        "âĹ«"
      ],
      [
        "ĠâĹĴ",
        "âĸ¾"
      ],
      [
        "âĹĹâĸ¨",
        "âĹł"
      ],
      [
        "ĠâĹķ",
        "âĹĹâĹĵ"
      ],
      [
        "ĠâĹ³",
        "âĹł"
      ],
      [
        "âĹĲâĹ«âĸ¦",
        "âĹĹ"
      ],
      [
        "âĸª",
        "âĹĴâĸ«"
      ],
      [
        "âĹªâĹĵ",
        "âĸµ"
      ],
      [
        "âĹļ",
        "âĸ´âĸ¦"
      ],
      [
        "âĹĲâĹĵ",
        "âĹ¨"
      ],
      [
        "âĹ¬",
        "âĹĴâĸ«"
      ],
      [
        "âĹĪ",
        "âĹªâĸ¨"
      ],
      [
        "ĠâĹĢâĹ¨",
        "âĸ±"
      ],
      [
        "âĹ«",
        "âĸ¨âĹł"
      ],
      [
        "âĹ«âĸ¦",
        "âĸµ"
      ],
      [
        "âĸ´âĸ±",
        "âĸ´âĹĵ"
      ],
      [
        "âĹİâĹª",
        "âĹİ"
      ],
      [
        "âĹİâĹł",
        "âĸ±âĸª"
      ],
      [
        "ĠâĹĴ",
        "âĹ¨"
      ],
      [
        "âĸ´",
        "âĸł"
      ],
      [
        "âĹĪ",
        "âĹ«âĸ±"
      ],
      [
        "âĸ±âĹłâĹĵ",
        "âĸ±âĹł"
      ],
      [
        "âĸ´âĸ¨",
        "âĸ¨"
      ],
      [
        "âĹİâĸ´",
        "âĹİ"
      ],
      [
        "âĹĪ",
        "âĹĹâĸ±"
      ],
      [
        "âĸ¯",
        "âĹłâĹŀ"
      ],
      [
        "âĹ¨",
        "âĹĴâĸ«"
      ],
      [
        "Ġâĸ¨",
        "âĹ¨âĸ±"
      ],
      [
        "âĹłâĸ½",
        "âĹł"
      ],
      [
        "Ġâĸ·âĹłâĸ½",
        "âĹłâĸ«"
      ],
      [
        "Ġâĸ«",
        "âĹłâĹİ"
      ],
      [
        "âĹİâĹł",
        "âĸ±âĹ¬"
      ],
      [
        "âĸ½",
        "âĸ¦"
      ],
      [
        "ĠâĹ«",
        "âĸ±âĹķ"
      ],
      [
        "ĠâĹ³âĹłâĸ»",
        "âĹ¬âĸ½âĹ§âĹĵ"
      ],
      [
        "âĸ±âĹłâĹĵ",
        "âĸªâĹİ"
      ],
      [
        "ĠâĹķ",
        "âĸ´âĸ«"
      ],
      [
        "Ġâĸ·âĹłâĹ³",
        "âĹłâĸ«"
      ],
      [
        "âĹİâĹł",
        "âĸµ"
      ],
      [
        "âĹłâĹ³",
        "âĹł"
      ],
      [
        "ĠâĹŃ",
        "âĸ¢"
      ],
      [
        "âĸ²âĹłâĸ¦",
        "âĸ´âĸ«"
      ],
      [
        "Ġ",
        "âĸ±"
      ],
      [
        "âĹªâĸ¦",
        "âĹ«"
      ],
      [
        "âĹ³",
        "âĹłâĸ¦"
      ],
      [
        "âĹĤ",
        "âĸ«"
      ],
      [
        "âĹ¢",
        "âĹłâĹĵ"
      ],
      [
        "âĹĵ",
        "âĹª"
      ],
      [
        "âĸ¾âĹĵ",
        "âĸµ"
      ],
      [
        "Ġâĸ«",
        "âĹ¨âĸ«"
      ],
      [
        "âĹ¨âĹĵ",
        "âĸµ"
      ],
      [
        "ĠâĹŀâĹ£",
        "âĹ³âĸ±âĹª"
      ],
      [
        "ĠâĹĪâĹªâĹĲâĹĹâĸ±",
        "âĸµ"
      ],
      [
        "ĠâĹª",
        "âĸ±"
      ],
      [
        "âĹ§",
        "âĸ«"
      ],
      [
        "âĹªâĸ¦",
        "âĹĹ"
      ],
      [
        "Ġâĸ¨âĹł",
        "âĹĢ"
      ],
      [
        "ĠâĹ§âĸ±",
        "âĹŀâĹ¨âĸ¦âĸµ"
      ],
      [
        "ĠâĹĪâĸ´âĹĲâĹ«âĸ±",
        "âĸµ"
      ],
      [
        "âĸ´âĸ¦",
        "âĹ«"
      ],
      [
        "Ġâĸ«",
        "âĹłâĸ«"
      ],
      [
        "âĹ¬âĸ¨",
        "âĸµ"
      ],
      [
        "âĹ",
        "Ľ"
      ],
      [
        "Ġâĸ½",
        "âĹªâĹĵ"
      ],
      [
        "Ġâĸ¨",
        "âĸ¾âĸ±"
      ],
      [
        "ĠâĹĤ",
        "âĸ±âĹĪ"
      ],
      [
        "ĠâĹŀâĹ£",
        "âĸ½âĸ±âĹª"
      ],
      [
        "âĹļ",
        "âĹªâĸ¦"
      ],
      [
        "âĹĿ",
        "âĹ«âĸ±"
      ],
      [
        "âĸ¡",
        "âĸ´âĸ¨"
      ],
      [
        "âĸ¾",
        "âĹĴâĸ«"
      ],
      [
        "âĸ½",
        "âĹłâĸ¦"
      ],
      [
        "ĠâĹŀ",
        "âĹ¨"
      ],
      [
        "âĹļ",
        "âĹłâĹİ"
      ],
      [
        "ĠâĹĢâĸ¾",
        "âĸ±"
      ],
      [
        "ĠâĹĢâĹªâĸ¦",
        "âĹĹâĹİ"
      ],
      [
        "ĠâĹ£",
        "âĹĲâĹĵ"
      ],
      [
        "Ġâĸ¼",
        "âĹłâĸ¦"
      ],
      [
        "âĹłâĸ¼âĹłâĸ¨",
        "âĸµ"
      ],
      [
        "âĹ³",
        "âĸ±âĹł"
      ],
      [
        "ĠâĹŀ",
        "âĸ¾"
      ],
      [
        "âĹ³âĹ§âĹĵ",
        "âĸ¾âĹİâĸµ"
      ],
      [
        "âĹİâĹł",
        "âĸ¢"
      ],
      [
        "ĠâĹŀâĹĩ",
        "âĸ½âĸ±âĸ´"
      ],
      [
        "Ġâĸ¨",
        "âĹ¬"
      ],
      [
        "ĠâĹŀâĹĩ",
        "âĹ³âĸ±âĸ´"
      ],
      [
        "âĹĿ",
        "âĹłâĹĢ"
      ],
      [
        "âĸ½",
        "âĸ±âĹł"
      ],
      [
        "ĠâĹĹ",
        "âĸ¦âĹłâĸ¦"
      ],
      [
        "Ġâĸ«",
        "âĸ¾âĸ«"
      ],
      [
        "âĹĪ",
        "âĸ¾"
      ],
      [
        "ĠâĹķ",
        "âĹªâĸ«"
      ],
      [
        "âĹ¨",
        "âĹĲ"
      ],
      [
        "âĸ´âĸ¦",
        "âĹĹ"
      ],
      [
        "âĹĵ",
        "âĹĹ"
      ],
      [
        "âĸ±âĹłâĹĵ",
        "âĹ¬âĹİ"
      ],
      [
        "âĸ®",
        "âĹĹâĸ¢"
      ],
      [
        "Ġâĸ«",
        "âĹłâĹĴ"
      ],
      [
        "ĠâĹŀâĹĩ",
        "âĸ½âĸ±âĹª"
      ],
      [
        "Ġâĸ¨âĹł",
        "âĹį"
      ],
      [
        "âĸ½",
        "âĹłâĸ¼"
      ],
      [
        "ĠâĹĢ",
        "âĸ´"
      ],
      [
        "âĸ¾âĸ¢",
        "?"
      ],
      [
        "âĹ³",
        "âĸ¦"
      ],
      [
        "ĠâĹĩ",
        "âĹĲâĹĵ"
      ],
      [
        "ĠâĹ³",
        "âĸ´âĹĵ"
      ],
      [
        "âĸ®",
        "âĹ«âĸ¢"
      ],
      [
        "âĸ¡",
        "âĹªâĸ¨"
      ],
      [
        "âĸ±âĹł",
        "âĹĴâĸ«"
      ],
      [
        "âĹİâĹ¬",
        "âĹĴâĸ«"
      ],
      [
        "âĹĤ",
        "âĹĲ"
      ],
      [
        "ĠâĹ«",
        "âĸ¦âĹłâĸ¦"
      ],
      [
        "Ġâĸ¨âĹ¨âĸ±",
        "âĸ±âĹłâĸ¦"
      ],
      [
        "âĸ½âĹĤâĹĵ",
        "âĸ¾âĹİâĸµ"
      ],
      [
        "âĹŁ",
        "âĹłâĸ¦"
      ],
      [
        "âĹĵ",
        "âĹ«"
      ],
      [
        "ĠâĹķâĹ£",
        "âĸ¢"
      ],
      [
        "'",
        "âĸªâĸ¦"
      ],
      [
        "âĹ«âĹİ",
        "âĹĪâĹ«"
      ],
      [
        "Ġâĸ©",
        "âĸ¢"
      ],
      [
        "âĸ»",
        "âĸ«âĹłâĸ±"
      ],
      [
        "âĹĹâĹİ",
        "âĹĪâĹĹ"
      ],
      [
        "âĹĵ",
        "âĸ´"
      ],
      [
        "âĹ«âĹİ",
        "âĹĹâĸ¢"
      ],
      [
        "âĸ´âĹĵ",
        "âĸ¨"
      ],
      [
        "âĹłâĸ½",
        "âĹłâĸ¦"
      ],
      [
        "ĠâĹĢâĸ´âĸ¦",
        "âĹĹâĹİ"
      ],
      [
        "ĠâĹŀ",
        "âĹłâĸ±"
      ],
      [
        "ĠâĹ³",
        "âĹªâĹĵ"
      ],
      [
        "âĸ·",
        "âĸł"
      ],
      [
        "ĠâĹŀâĹ£",
        "âĸ½âĸ±âĸ´"
      ],
      [
        "ĠâĹĢâĸ´âĸ¦",
        "âĹ«âĹİ"
      ],
      [
        "âĹİâĸª",
        "âĹĴâĸ«"
      ],
      [
        "'",
        "âĹ¬âĸ¦"
      ],
      [
        "ĠâĹŀâĹ£",
        "âĹ³âĸ±âĸ´"
      ],
      [
        "âĹĢâĹ«âĸ±",
        "âĹĹâĹĵ"
      ],
      [
        "âĹŀ",
        "âĸªâĸ¢"
      ],
      [
        "Ġâĸ¨",
        "âĸª"
      ],
      [
        "âĹ",
        "¯"
      ],
      [
        "ĠâĹŀâĹĩ",
        "âĹ³âĸ±âĹª"
      ],
      [
        "ĠâĹİ",
        "âĸ©"
      ],
      [
        "âĹĿ",
        "âĹ«âĸ¢"
      ],
      [
        "âĹłâĹ³",
        "âĹłâĸ¦"
      ],
      [
        "âĹĹ",
        "âĸ½"
      ],
      [
        "ĠâĹĿ",
        "âĹ«âĸ±"
      ],
      [
        "âĹİâĹ¬âĹĴ",
        "âĸµ"
      ],
      [
        "âĹ",
        "®"
      ],
      [
        "âĸ",
        "¹"
      ],
      [
        "âĹ«âĹİ",
        "âĹĪâĹĹ"
      ],
      [
        "âĸ½âĹ§âĹĵ",
        "âĸ¾âĹİâĸµ"
      ],
      [
        "âĹĹ",
        "âĹ³"
      ],
      [
        "âĹŀ",
        "âĹ¬âĸ¢"
      ],
      [
        "âĹĹâĸ¦",
        "âĸµ"
      ],
      [
        "âĹĹ",
        "âĹį"
      ],
      [
        "âĹĿ",
        "âĹ¨âĸ¦"
      ],
      [
        "âĹĢâĹĹâĸ±",
        "âĹ«âĹĵ"
      ],
      [
        "ĠâĹĢ",
        "âĹ§"
      ],
      [
        "ĠâĹĿ",
        "âĹ«âĹĵ"
      ],
      [
        "âĹ³âĹĤâĹĵ",
        "âĹ¨âĹİâĸµ"
      ],
      [
        "âĹİâĸªâĹĴ",
        "âĸµ"
      ],
      [
        "Ġâĸ¨âĸ¾âĸ±",
        "âĸ±âĹłâĸ¦"
      ],
      [
        "âĹ«",
        "âĹ³"
      ],
      [
        "'",
        "âĹĹâĸ¦"
      ],
      [
        "âĹŀ",
        "âĹłâĹİ"
      ],
      [
        "âĹ«",
        "âĸ½"
      ],
      [
        "ĠâĹķâĹĩ",
        "âĸ¢"
      ],
      [
        "ĠâĹĢâĹªâĸ¦",
        "âĹ«âĹİ"
      ],
      [
        "Ġâĸ¨âĹ§âĸ¦",
        "âĹ¨âĹĴ"
      ],
      [
        "âĹĹâĹİ",
        "âĹĪâĹ«"
      ],
      [
        "ĠâĹłâĹĵ",
        "âĹł"
      ],
      [
        "âĹĪâĹŃ",
        "âĹĲ"
      ],
      [
        "ĠâĹĪâĹłâĹļ",
        "âĹĵâĹłâĸ¦"
      ],
      [
        "Ġâĸ·",
        "âĹªâĸ»"
      ],
      [
        "âĹĪâĸ©",
        "âĹĲ"
      ],
      [
        "Ġâĸ¨âĹ§âĸ¦",
        "âĸ¾âĹĴ"
      ],
      [
        "âĹ³",
        "âĹłâĸ¼"
      ],
      [
        "âĹļ",
        "âĹª"
      ],
      [
        "âĸ´âĹĵ",
        "âĸµ"
      ],
      [
        "âĹĿ",
        "âĹĹâĸ¢"
      ],
      [
        "âĹ«âĹİ",
        "âĹ«âĸ¢"
      ],
      [
        "âĹĢâĹĹâĸ±",
        "âĹĹâĹĵ"
      ],
      [
        "Ġâĸ¨âĹĤâĸ¦",
        "âĸ¾âĹĴ"
      ],
      [
        "âĹĴâĸ«",
        "âĹ«âĹĵ"
      ],
      [
        "ĠâĹ³",
        "âĹłâĸ¢"
      ],
      [
        "Ġâĸ¨âĹĤâĸ¦",
        "âĹ¨âĹĴ"
      ],
      [
        "ĠâĹŀ",
        "âĹłâĸ«"
      ],
      [
        "ĠâĹĿ",
        "âĹĹâĹĵ"
      ],
      [
        "âĸ«âĹĹ",
        "âĸµ"
      ],
      [
        "âĹ¤",
        "âĹłâĸ¦"
      ],
      [
        "âĹª",
        "âĸ¼âĸ´âĸ¨"
      ],
      [
        "âĸ¨",
        "âĹłâĸ«"
      ],
      [
        "âĸ¶âĹłâĹİâĹłâĹİ",
        "âĸł"
      ],
      [
        "Ġâĸ·",
        "âĹłâĹŀâĸ«"
      ],
      [
        "âĹĹâĹİ",
        "âĹĹâĸ¢"
      ],
      [
        "ĠâĹĵ",
        "âĹłâĸ·âĹłâĸ«"
      ],
      [
        "âĹ«",
        "âĹį"
      ],
      [
        "'",
        "âĹ«âĸ¦"
      ],
      [
        "Ġâĸ·",
        "âĹ«âĹŀ"
      ],
      [
        "ĠâĹĹ",
        "âĸ¦"
      ],
      [
        "ĠâĹŀâĹłâĹļ",
        "âĹłâĹĴ"
      ],
      [
        "âĹĿ",
        "âĸ¾âĸ¦"
      ],
      [
        "âĹĵ",
        "âĸ¨"
      ],
      [
        "âĹĢâĹ«âĸ±",
        "âĹ«âĹĵ"
      ],
      [
        "âĹłâĸ¨",
        "âĹłâĸ«"
      ],
      [
        "ĠâĸŃ",
        "âĹłâĹ³"
      ],
      [
        "âĹłâĹĲ",
        "âĸª"
      ],
      [
        "Ġâĸ»",
        "âĸ±âĹłâĸ¦"
      ],
      [
        "ĠâĹ³âĹłâĸ»",
        "âĸ«"
      ],
      [
        "âĹĹâĹİ",
        "âĹ«âĸ¢"
      ],
      [
        "âĸ±âĹªâĹĵ",
        "âĹĹâĸ¦"
      ],
      [
        "ĠâĹİ",
        "âĹŃ"
      ],
      [
        "âĹļ",
        "âĸ´"
      ],
      [
        "âĸ±âĹªâĹĵ",
        "âĹ«âĸ¦"
      ],
      [
        "ĠâĹ³",
        "âĸ©âĸ¢"
      ],
      [
        "ĠâĹ£âĸ¦",
        "âĸ¼âĹª"
      ],
      [
        "ĠâĹķâĹĩ",
        "âĹŀâĸ«"
      ],
      [
        "âĸ®",
        "âĹĤâĸ¦"
      ],
      [
        "ĠâĹ£",
        "âĸ¢"
      ],
      [
        "ĠâĹ«",
        "âĸ¦"
      ],
      [
        "Ġâĸ¬",
        "âĸ·"
      ],
      [
        "Ġâĸ·",
        "âĸ´âĸ»"
      ],
      [
        "ĠâĹ£âĸ¦",
        "âĸ¼âĸ´"
      ],
      [
        "ĠâĹĩâĸ¦",
        "âĸ¼âĸ´"
      ],
      [
        "âĸ¨",
        "âĹ¨"
      ],
      [
        "âĸ´",
        "âĸ¼âĹªâĸ¨"
      ],
      [
        "ĠâĹŀâĹªâĸ¦",
        "âĹ«âĸ¦"
      ],
      [
        "Ġâĸ¨âĹłâĹĵâĹĴ",
        "âĹ¬"
      ],
      [
        "âĸ´",
        "âĸ¼âĸ´âĸ¨"
      ],
      [
        "âĹĴâĸ«",
        "âĹĹâĹĵ"
      ],
      [
        "âĸªâĹİ",
        "!"
      ],
      [
        "âĹŀâĹł",
        "âĸł"
      ],
      [
        "ĠâĹİâĹ¨",
        "?"
      ],
      [
        "âĹŀ",
        "âĹłâĸ¨"
      ],
      [
        "Ġâĸ¨",
        "âĹĹâĹĴ"
      ],
      [
        "ĠâĹ§âĸ¦",
        "âĹ¨"
      ],
      [
        "Ġâĸ´",
        "âĹĪâĸ´âĹĵ"
      ],
      [
        "Ġâĸ·",
        "âĹłâĹļ"
      ],
      [
        "ĠâĹ³",
        "âĹŃâĸ¢"
      ],
      [
        "âĸ¦",
        "âĹª"
      ],
      [
        "âĹĴâĸ«",
        "âĸ´"
      ],
      [
        "ĠâĸŃ",
        "âĹłâĸ½"
      ],
      [
        "ĠâĹĤâĸ¦",
        "âĹ¨"
      ],
      [
        "âĹ",
        "ĥ"
      ],
      [
        "âĹĵ",
        "âĸª"
      ],
      [
        "âĹļ",
        "âĹłâĹĵ"
      ],
      [
        "ĠâĹĪ",
        "âĹªâĸ¦"
      ],
      [
        "ĠâĹĪ",
        "âĹªâĹĵ"
      ],
      [
        "ĠâĹŀâĹªâĸ¦",
        "âĹĹâĸ¦"
      ],
      [
        "Ġâĸ¨âĹłâĹĵâĹĴ",
        "âĸª"
      ],
      [
        "âĹ³âĹ§âĹĵ",
        "âĹ¨âĹİâĸµ"
      ],
      [
        "âĹĴâĸ«",
        "âĹª"
      ],
      [
        "âĹłâĹĲ",
        "âĹ¬"
      ],
      [
        "Ġâĸ½",
        "âĹŃâĸ¢"
      ],
      [
        "âĸ«âĸª",
        "âĸµ"
      ],
      [
        "âĹŀ",
        "âĹĹâĸ¢"
      ],
      [
        "âĹª",
        "âĸ¼âĹªâĸ¨"
      ],
      [
        "ĠâĹŀâĸ´âĸ¦",
        "âĹĹâĸ¦"
      ],
      [
        "âĹłâĸ¦",
        "âĸ«"
      ],
      [
        "ĠâĹŀ",
        "âĹ¬"
      ],
      [
        "âĹĢ",
        "âĹª"
      ],
      [
        "Ġâĸ·",
        "âĹĹâĹŀ"
      ],
      [
        "âĹĪ",
        "âĹ«âĹĵâĸµ"
      ],
      [
        "âĹŀ",
        "âĹ«âĸ¢"
      ],
      [
        "âĸ¾",
        "âĸ»"
      ],
      [
        "Ġâĸ½",
        "âĸ©âĸ¢"
      ],
      [
        "Ġâĸ»âĹłâĹĵ",
        "âĹł"
      ],
      [
        "ĠâĹĩâĸ¦",
        "âĸ¼âĹª"
      ],
      [
        "ĠâĹĴ",
        "âĹłâĸ¦âĹŀ"
      ],
      [
        "ĠâĹķâĹ£",
        "âĹŀâĸ«"
      ],
      [
        "âĹĪ",
        "âĸ¾âĸ¦"
      ],
      [
        "âĹĹâĸ¦",
        "âĹĪâĸ´"
      ],
      [
        "ĠâĹİâĸ¾",
        "?"
      ],
      [
        "âĹª",
        "âĸ¼âĸ´"
      ],
      [
        "ĠâĹİ",
        "âĹłâĸ·"
      ],
      [
        "âĹ«âĹİ",
        "âĸł"
      ],
      [
        "âĸ¨",
        "âĸ¾"
      ],
      [
        "ĠâĹĿ",
        "âĸ´âĸ¦"
      ],
      [
        "ĠâĹĢ",
        "âĹłâĹŀ"
      ],
      [
        "âĸ©",
        "âĹī"
      ],
      [
        "âĹĴ",
        "âĹłâĹİ"
      ],
      [
        "ĠâĹŀ",
        "âĹłâĹĢ"
      ],
      [
        "ĠâĹ«",
        "âĸ½âĹ«"
      ],
      [
        "Ġâĸ¨âĹłâĹĵ",
        "âĹłâĹĵ"
      ],
      [
        "ĠâĹ«",
        "âĹ³âĹĹ"
      ],
      [
        "âĹĪâĹĹ",
        "âĸ¨"
      ],
      [
        "ĠâĹĪâĸ©âĹĴ",
        "âĹŃâĸ¦"
      ],
      [
        "âĸ¼",
        "âĸ¨"
      ],
      [
        "âĹĹâĹİ",
        "âĸł"
      ],
      [
        "âĸ¶",
        "âĹłâĸ¦âĹĵ"
      ],
      [
        "ĠâĹīâĸªâĸ¨",
        "âĹłâĹĵ"
      ],
      [
        "âĹª",
        "âĹŀâĹĹâĸ¦"
      ],
      [
        "ĠâĹĹ",
        "âĹ³âĹ«"
      ],
      [
        "âĹłâĹİâĹł",
        "âĸ¢"
      ],
      [
        "âĸ«",
        "âĹ¨"
      ],
      [
        "Ġâĸ¨",
        "âĹ«âĹĴ"
      ],
      [
        "âĸ¦",
        "âĸ´"
      ],
      [
        "âĹŀ",
        "âĸ±"
      ],
      [
        "âĸ»",
        "âĸ·"
      ],
      [
        "ĠâĹĢ",
        "âĹłâĸ¢"
      ],
      [
        "ĠâĹĢâĹªâĸ¦",
        "âĹ«"
      ],
      [
        "âĹĢ",
        "âĸ´"
      ],
      [
        "ĠâĹĹ",
        "âĸ½âĹ«"
      ],
      [
        "ĠâĹĩ",
        "âĸ¢"
      ],
      [
        "ĠâĹĴ",
        "âĹªâĸ¨"
      ],
      [
        "Ġâĸ·âĹłâĹį",
        "âĸ«âĹł"
      ],
[...]
